<unk>	0
<s>	0
</s>	0
[PAD]	0
[UNK]	0
[CLS]	0
[SEP]	0
[MASK]	0
[BOS]	0
[EOS]	0
[UNK0]	0
[UNK1]	0
[UNK2]	0
[UNK3]	0
[UNK4]	0
[UNK5]	0
[UNK6]	0
[UNK7]	0
[UNK8]	0
[UNK9]	0
[unused0]	0
[unused1]	0
[unused2]	0
[unused3]	0
[unused4]	0
[unused5]	0
[unused6]	0
[unused7]	0
[unused8]	0
[unused9]	0
[unused10]	0
[unused11]	0
[unused12]	0
[unused13]	0
[unused14]	0
[unused15]	0
[unused16]	0
[unused17]	0
[unused18]	0
[unused19]	0
[unused20]	0
[unused21]	0
[unused22]	0
[unused23]	0
[unused24]	0
[unused25]	0
[unused26]	0
[unused27]	0
[unused28]	0
[unused29]	0
[unused30]	0
[unused31]	0
[unused32]	0
[unused33]	0
[unused34]	0
[unused35]	0
[unused36]	0
[unused37]	0
[unused38]	0
[unused39]	0
[unused40]	0
[unused41]	0
[unused42]	0
[unused43]	0
[unused44]	0
[unused45]	0
[unused46]	0
[unused47]	0
[unused48]	0
[unused49]	0
[unused50]	0
[unused51]	0
[unused52]	0
[unused53]	0
[unused54]	0
[unused55]	0
[unused56]	0
[unused57]	0
[unused58]	0
[unused59]	0
[unused60]	0
[unused61]	0
[unused62]	0
[unused63]	0
[unused64]	0
[unused65]	0
[unused66]	0
[unused67]	0
[unused68]	0
[unused69]	0
[unused70]	0
[unused71]	0
[unused72]	0
[unused73]	0
[unused74]	0
[unused75]	0
[unused76]	0
[unused77]	0
[unused78]	0
[unused79]	0
[unused80]	0
[unused81]	0
[unused82]	0
[unused83]	0
[unused84]	0
[unused85]	0
[unused86]	0
[unused87]	0
[unused88]	0
[unused89]	0
[unused90]	0
[unused91]	0
[unused92]	0
[unused93]	0
[unused94]	0
[unused95]	0
[unused96]	0
[unused97]	0
[unused98]	0
[unused99]	0
.	-3.04442
▁I	-3.18758
▁the	-3.29441
,	-3.36916
'	-3.48201
▁to	-3.69883
▁you	-3.80352
▁a	-3.84925
?	-3.87863
▁it	-3.93795
s	-4.1256
▁is	-4.48166
▁and	-4.50544
t	-4.61159
▁for	-4.75327
▁so	-4.76971
▁of	-4.77364
▁in	-4.8055
▁have	-4.86487
▁can	-4.88357
▁that	-4.88816
▁but	-4.98323
▁on	-5.11431
▁be	-5.12186
▁we	-5.14934
▁are	-5.22287
▁will	-5.2661
▁this	-5.2906
▁there	-5.37318
▁do	-5.43622
m	-5.43777
▁me	-5.449
▁with	-5.45491
▁It	-5.47485
ll	-5.50682
▁my	-5.53738
▁think	-5.57291
▁if	-5.58636
▁at	-5.59168
▁like	-5.60684
▁get	-5.60964
▁your	-5.63722
▁go	-5.68027
▁time	-5.76064
▁was	-5.76677
▁because	-5.76718
▁The	-5.77146
▁not	-5.78801
▁don	-5.83192
▁as	-5.84883
▁You	-5.87491
▁	-5.88097
▁take	-5.90466
▁Yes	-5.93829
▁from	-5.96795
▁about	-5.97846
▁need	-6.00233
▁want	-6.01781
▁an	-6.02056
▁We	-6.07209
▁here	-6.07611
▁right	-6.0809
-	-6.08304
▁would	-6.10154
▁Then	-6.1041
▁know	-6.12003
ing	-6.14237
▁what	-6.1565
▁one	-6.16428
▁please	-6.1846
▁too	-6.18837
▁out	-6.18947
▁should	-6.19533
▁when	-6.19943
▁just	-6.22547
d	-6.276
▁our	-6.29565
f	-6.32198
▁how	-6.33447
▁now	-6.34339
▁by	-6.36529
▁good	-6.37424
re	-6.38454
▁see	-6.40727
▁going	-6.42219
▁they	-6.43076
▁all	-6.45912
▁There	-6.46202
▁been	-6.46399
▁them	-6.48096
▁up	-6.50428
▁more	-6.5099
▁after	-6.51678
▁much	-6.52242
▁any	-6.52813
ve	-6.54928
▁check	-6.56459
▁am	-6.57111
▁What	-6.58995
▁company	-6.59824
▁today	-6.60862
▁product	-6.61222
▁make	-6.61283
▁come	-6.62679
▁has	-6.64516
▁use	-6.65513
▁first	-6.66125
▁tell	-6.67249
▁work	-6.67376
▁next	-6.6757
▁people	-6.67629
▁buy	-6.67731
▁since	-6.67993
▁room	-6.68548
▁How	-6.68958
▁only	-6.69745
▁won	-6.70327
▁let	-6.70464
▁That	-6.71752
▁give	-6.7195
▁lot	-6.72405
▁Do	-6.74919
▁some	-6.75696
▁Can	-6.7727
▁order	-6.79017
▁sorry	-6.80318
▁than	-6.80456
▁where	-6.80864
▁bus	-6.81359
▁or	-6.81711
▁many	-6.82365
▁new	-6.85771
▁Please	-6.86752
▁well	-6.92454
▁long	-6.92663
▁pay	-6.93583
▁other	-6.94872
▁before	-6.95123
▁no	-6.96307
▁could	-6.96369
▁then	-6.96799
▁last	-6.97605
▁look	-6.97803
▁No	-6.98121
▁didn	-7.00583
e	-7.0143
▁heard	-7.01755
▁change	-7.02188
▁2	-7.02535
▁way	-7.02733
▁back	-7.04819
▁really	-7.04826
▁did	-7.06952
▁day	-7.08379
▁also	-7.08721
▁Is	-7.08794
’	-7.08957
very	-7.09154
▁card	-7.10995
▁days	-7.1166
▁But	-7.11826
▁possible	-7.12825
▁tomorrow	-7.13442
▁meeting	-7.14029
▁eat	-7.14693
▁week	-7.15688
▁ask	-7.16254
ed	-7.17186
▁better	-7.17348
▁us	-7.17709
▁3	-7.18103
▁over	-7.18104
▁try	-7.18846
▁again	-7.19044
▁number	-7.19244
▁even	-7.19427
▁find	-7.20236
▁he	-7.2046
▁food	-7.20776
▁why	-7.22781
▁were	-7.2424
▁place	-7.24322
▁who	-7.24455
▁off	-7.25205
▁minutes	-7.25644
▁something	-7.2655
▁send	-7.26989
▁got	-7.27186
▁put	-7.27562
▁wait	-7.27626
▁Thi	-7.27913
▁team	-7.29754
▁little	-7.30451
▁help	-7.30547
▁away	-7.31674
▁already	-7.32232
▁call	-7.3277
▁had	-7.32965
▁price	-7.34219
▁hard	-7.34248
▁business	-7.34299
▁trip	-7.34617
▁made	-7.35552
▁different	-7.35767
▁1	-7.36079
▁My	-7.36479
▁Okay	-7.37553
▁store	-7.37651
▁sure	-7.3931
▁while	-7.4008
▁around	-7.40859
▁okay	-7.40894
▁left	-7.42658
▁exchange	-7.42982
▁Let	-7.43211
▁year	-7.4427
▁still	-7.44684
▁which	-7.45853
▁A	-7.46516
▁these	-7.46558
▁bring	-7.46735
▁two	-7.47169
▁bought	-7.47711
▁car	-7.48151
▁same	-7.49382
▁yesterday	-7.49828
▁doesn	-7.50161
!	-7.50236
▁10	-7.51336
▁must	-7.51668
▁ordered	-7.52498
▁reservation	-7.52668
▁came	-7.53393
▁bit	-7.53436
▁Thank	-7.54755
▁home	-7.54936
▁floor	-7.55269
▁Are	-7.55684
▁looking	-7.56063
▁month	-7.58317
▁leave	-7.58506
▁late	-7.58541
▁show	-7.58751
▁size	-7.58976
▁products	-7.59754
▁thought	-7.60989
▁person	-7.62101
▁does	-7.6275
▁down	-7.6358
▁anything	-7.63595
▁feel	-7.6468
▁school	-7.64744
▁problem	-7.65517
▁phone	-7.66491
▁soon	-7.66659
▁front	-7.67244
▁used	-7.67481
▁subway	-7.67509
▁another	-7.67682
n	-7.67761
▁said	-7.68319
▁5	-7.68654
▁together	-7.69059
▁refund	-7.69103
▁morning	-7.69402
▁hair	-7.69651
▁discount	-7.70899
▁seems	-7.70952
▁say	-7.711
▁hotel	-7.72418
▁restaurant	-7.72855
▁getting	-7.74117
▁may	-7.74174
▁yet	-7.75223
▁free	-7.76239
▁They	-7.76593
▁office	-7.76604
▁every	-7.76812
▁course	-7.76924
▁delivery	-7.77559
▁Sure	-7.78548
▁name	-7.78569
▁report	-7.7953
▁station	-7.79932
in	-7.80707
▁Why	-7.81007
▁When	-7.81481
▁most	-7.8191
▁until	-7.84286
▁big	-7.84921
▁into	-7.85975
▁Yeah	-7.86209
▁Could	-7.86373
▁working	-7.87768
▁stop	-7.87857
▁color	-7.87913
▁So	-7.89444
▁book	-7.89525
▁department	-7.89648
▁wrong	-7.89979
▁great	-7.90472
▁service	-7.90538
▁difficult	-7.90605
▁once	-7.9065
▁keep	-7.90662
▁ticket	-7.90844
▁available	-7.90864
▁such	-7.91191
▁Did	-7.92439
▁set	-7.94951
▁hours	-7.94991
▁money	-7.95539
▁water	-7.9632
▁looks	-7.96324
▁isn	-7.96491
▁coming	-7.9694
able	-7.97073
y	-7.98066
▁airport	-7.9831
▁Where	-7.98438
▁without	-7.98613
▁drink	-7.98929
▁bad	-7.98979
▁done	-7.99076
▁him	-7.99373
▁never	-7.99727
▁charge	-8.00617
▁menu	-8.0067
▁contract	-8.00887
▁best	-8.00987
▁through	-8.01041
th	-8.01151
▁bag	-8.0122
▁always	-8.01223
▁sales	-8.01268
▁using	-8.01649
▁start	-8.02361
▁payment	-8.03061
▁ago	-8.0321
▁4	-8.04138
▁small	-8.04241
▁recommend	-8.04791
▁date	-8.05432
ly	-8.05554
▁seat	-8.05765
▁haven	-8.06418
▁told	-8.06616
▁hour	-8.06973
▁Hello	-8.07022
▁fine	-8.07197
▁taking	-8.07268
▁contact	-8.07677
▁their	-8.09113
▁visit	-8.09281
▁went	-8.09981
▁else	-8.10053
▁schedule	-8.10058
▁30	-8.10351
▁kind	-8.10563
▁part	-8.11625
▁Sinc	-8.1237
▁fee	-8.12524
▁expensive	-8.12946
▁mean	-8.13513
▁cancel	-8.14727
▁popular	-8.15113
▁each	-8.15171
▁case	-8.15196
▁side	-8.15252
▁being	-8.15389
▁enough	-8.15983
▁clothes	-8.1599
▁gift	-8.16224
▁movie	-8.17073
▁Of	-8.17281
free	-8.17543
▁Korean	-8.18267
▁lost	-8.18709
▁taxi	-8.18759
▁job	-8.19232
▁quickly	-8.1954
▁flight	-8.19644
▁duty	-8.19955
▁guess	-8.2
▁hospital	-8.20329
▁friend	-8.20344
▁high	-8.20929
▁meal	-8.21215
▁open	-8.21606
▁few	-8.21859
▁coffee	-8.22056
▁moment	-8.22527
▁nice	-8.22554
▁watch	-8.22974
▁cannot	-8.2317
▁things	-8.23863
▁cost	-8.24093
▁checked	-8.25046
▁instead	-8.25112
▁due	-8.2516
▁walk	-8.25548
▁credit	-8.25843
▁later	-8.25942
▁receipt	-8.26187
▁night	-8.26765
▁Our	-8.27038
▁performance	-8.27286
▁Don	-8.27396
▁far	-8.27676
▁dur	-8.2787
▁end	-8.28304
▁amount	-8.28595
▁turn	-8.28721
▁apply	-8.28884
▁might	-8.29014
▁purchase	-8.29175
▁advance	-8.29311
▁early	-8.29535
▁called	-8.29705
▁idea	-8.29821
▁items	-8.30947
▁pretty	-8.31016
▁doing	-8.31282
▁usually	-8.31544
▁stay	-8.32059
▁medicine	-8.32075
▁information	-8.32306
▁she	-8.32788
▁line	-8.32792
▁prepare	-8.3288
▁plan	-8.33315
▁write	-8.33491
▁picture	-8.33798
▁received	-8.3429
▁lunch	-8.34376
▁train	-8.34429
▁cash	-8.34629
▁years	-8.34779
▁dinner	-8.34793
▁return	-8.34868
▁saw	-8.35154
▁someone	-8.35474
▁travel	-8.35741
▁class	-8.36072
▁says	-8.36133
▁shop	-8.36572
▁event	-8.3681
▁meet	-8.37038
▁having	-8.37102
▁famous	-8.37873
▁design	-8.3814
▁wanted	-8.38871
▁extra	-8.39427
▁Would	-8.39625
▁arrive	-8.39908
▁thinking	-8.4011
▁Excuse	-8.40585
▁transfer	-8.40816
▁receive	-8.40852
▁short	-8.40998
▁test	-8.41234
▁worry	-8.41256
▁worried	-8.41428
▁takes	-8.41785
▁inside	-8.42289
▁hope	-8.42297
▁often	-8.42299
▁hot	-8.42457
▁request	-8.4345
st	-8.43454
▁staff	-8.44077
▁sell	-8.44209
▁p	-8.44557
▁wear	-8.45196
▁care	-8.45242
▁understand	-8.45243
▁address	-8.45321
▁earlier	-8.45444
▁trying	-8.45739
▁pick	-8.45819
▁took	-8.46113
▁item	-8.46127
▁her	-8.46584
▁7	-8.46657
▁seats	-8.4684
▁those	-8.46938
▁move	-8.46938
▁total	-8.46984
▁employee	-8.47359
▁sent	-8.47678
▁taste	-8.47859
▁manager	-8.48085
▁mind	-8.48594
▁6	-8.4861
▁Which	-8.48716
▁country	-8.49018
▁Korea	-8.49506
▁20	-8.49561
▁per	-8.49567
▁additional	-8.49614
▁choose	-8.49632
▁finish	-8.50274
▁outside	-8.508
▁changed	-8.50816
▁couldn	-8.50832
▁family	-8.50878
▁area	-8.51089
▁probably	-8.5148
▁times	-8.52273
▁Have	-8.52459
▁He	-8.52523
▁three	-8.52749
▁table	-8.53117
▁Oh	-8.53359
▁quit	-8.53547
▁his	-8.53562
▁old	-8.53846
▁cut	-8.53945
▁asked	-8.53988
▁house	-8.54068
▁sold	-8.54865
▁second	-8.55
▁sign	-8.55007
▁tour	-8.55125
▁center	-8.55381
▁talking	-8.55443
▁employees	-8.55465
▁busy	-8.56007
▁M	-8.5615
▁children	-8.56913
▁Does	-8.56939
▁reason	-8.56993
▁building	-8.57001
al	-8.57218
▁remember	-8.57227
▁saying	-8.5731
▁booked	-8.57389
▁spicy	-8.57592
▁paid	-8.57661
▁cold	-8.57942
▁As	-8.58006
▁group	-8.5827
▁online	-8.58297
▁tickets	-8.58571
▁important	-8.58911
▁nothing	-8.59269
▁separately	-8.59593
▁computer	-8.59605
▁matter	-8.59661
▁special	-8.60417
▁ready	-8.60453
▁found	-8.60462
▁photo	-8.60944
▁English	-8.61274
▁least	-8.61285
▁talk	-8.61336
▁hurt	-8.61833
▁luggage	-8.61906
▁near	-8.61975
is	-8.62192
▁close	-8.623
▁rooms	-8.62361
▁seem	-8.62993
▁Right	-8.63003
r	-8.63058
▁rice	-8.63193
▁main	-8.6371
▁delivered	-8.63774
▁shoes	-8.63922
▁Th	-8.63944
▁passport	-8.64243
▁Isn	-8.64378
▁comes	-8.64523
▁both	-8.64701
▁paper	-8.65243
▁stock	-8.65346
▁recently	-8.65841
▁chance	-8.66557
▁longer	-8.66672
▁issue	-8.66768
▁accident	-8.67111
▁enjoy	-8.67248
▁hear	-8.67433
▁wasn	-8.67866
▁waiting	-8.67959
▁entrance	-8.68015
▁everything	-8.6913
▁half	-8.69132
▁S	-8.69342
▁calling	-8.69784
▁submit	-8.70498
▁shipping	-8.7062
▁account	-8.70996
▁bank	-8.71064
▁planning	-8.71376
▁program	-8.71557
▁customers	-8.71558
▁eating	-8.71852
▁skin	-8.72195
▁website	-8.72536
▁add	-8.72747
▁everyone	-8.72931
▁8	-8.73376
▁head	-8.73881
▁air	-8.73885
▁customer	-8.75053
▁large	-8.7517
▁delicious	-8.75216
▁under	-8.7531
▁weekend	-8.75501
▁child	-8.75647
▁email	-8.75999
▁clean	-8.76112
▁offer	-8.76578
▁months	-8.76828
▁hand	-8.76939
▁overseas	-8.77256
▁seen	-8.77494
▁rest	-8.78023
▁box	-8.78381
▁hasn	-8.78679
▁Your	-8.78806
▁making	-8.79325
▁thing	-8.79518
▁happen	-8.79701
▁pass	-8.79896
▁project	-8.79971
▁full	-8.80048
▁red	-8.80107
▁less	-8.8029
▁friends	-8.80896
▁light	-8.81239
▁tried	-8.81779
▁though	-8.81854
▁park	-8.81857
▁machine	-8.82132
▁birthday	-8.82731
▁market	-8.82823
▁thank	-8.83097
▁follow	-8.84249
▁between	-8.84358
▁body	-8.84613
▁correct	-8.84643
▁For	-8.8472
▁Sorry	-8.85187
▁easy	-8.8519
▁presentation	-8.85482
▁o	-8.85711
▁period	-8.85715
▁books	-8.85723
▁love	-8.85784
▁dish	-8.85888
▁dollars	-8.85897
▁treatment	-8.86129
▁In	-8.86266
▁exercise	-8.86977
▁run	-8.87229
▁finished	-8.87526
▁started	-8.87568
▁city	-8.88043
▁shuttle	-8.88285
▁sale	-8.88305
▁interview	-8.88357
▁prepared	-8.88633
▁black	-8.88715
▁soup	-8.88822
▁aren	-8.88914
▁separate	-8.88952
▁chicken	-8.89124
▁driver	-8.89289
▁expenses	-8.8943
▁Should	-8.89515
▁companies	-8.89643
▁Well	-8.90281
▁parking	-8.90282
▁May	-8.90565
▁drive	-8.90606
▁insurance	-8.90813
▁meat	-8.91161
▁read	-8.91181
▁holiday	-8.91519
▁similar	-8.91638
▁goes	-8.91683
▁exit	-8.91756
▁Here	-8.91773
▁straight	-8.91922
▁B	-8.92154
▁type	-8.92324
clock	-8.92567
▁bathroom	-8.92571
▁fun	-8.92613
▁members	-8.92617
▁either	-8.92887
▁mistake	-8.92989
▁afraid	-8.93356
▁afternoon	-8.93414
▁colors	-8.93428
▁almo	-8.93471
▁pack	-8.93541
▁cheaper	-8.93844
▁true	-8.9385
▁list	-8.94015
▁ride	-8.94139
▁exam	-8.94206
▁T	-8.94233
▁nearby	-8.94309
▁ID	-8.9444
▁ones	-8.94788
▁suddenly	-8.94802
▁club	-8.94918
▁applied	-8.95275
▁coupon	-8.95378
▁conference	-8.95759
▁happened	-8.95832
▁Friday	-8.96095
▁fill	-8.96217
▁shopping	-8.9624
▁sauce	-8.96482
▁guide	-8.96523
▁location	-8.96995
▁Didn	-8.97074
▁play	-8.971
▁experience	-8.9716
▁rent	-8.9721
▁9	-8.974
▁baby	-8.977
▁summer	-8.97713
▁process	-8.98
▁system	-8.98012
▁study	-8.98027
▁Really	-8.98198
▁C	-8.98335
▁Seoul	-8.98693
▁uncomfortable	-8.98698
▁sit	-8.98758
▁ice	-8.98958
▁tired	-8.99219
nd	-8.99239
▁situation	-8.99399
▁arrived	-8.99549
▁careful	-8.99674
▁All	-8.99957
▁face	-9.00037
▁rather	-9.00203
▁Alright	-9.00205
▁reserve	-9.00224
▁bed	-9.00472
▁pm	-9.00477
▁weight	-9.0054
▁15	-9.00641
▁believe	-9.00721
▁myself	-9.0073
▁museum	-9.00953
▁fast	-9.00961
▁Chinese	-9.01224
▁broken	-9.01266
▁Thanks	-9.0135
▁personal	-9.0142
▁marketing	-9.01422
▁map	-9.01688
▁evening	-9.02122
▁Sir	-9.02257
▁places	-9.02287
▁register	-9.02983
▁wouldn	-9.03181
▁desk	-9.0412
▁points	-9.04176
▁brought	-9.04338
▁data	-9.04341
▁exactly	-9.04355
▁package	-9.04431
er	-9.04537
▁deliver	-9.04567
▁difference	-9.04599
▁documents	-9.04803
▁alone	-9.049
▁present	-9.05326
▁transportation	-9.0621
▁print	-9.06584
▁decide	-9.06715
▁proceed	-9.0682
▁driving	-9.07052
▁decided	-9.07206
▁gone	-9.07267
o	-9.07302
▁break	-9.07357
▁low	-9.07419
▁leaving	-9.07566
▁forward	-9.07903
▁middle	-9.08108
▁cream	-9.08408
▁model	-9.08468
▁traffic	-9.08653
▁looked	-9.08712
▁released	-9.08715
▁breakfast	-9.09204
▁plane	-9.09273
▁increase	-9.09356
▁student	-9.09496
▁currently	-9.0978
▁checking	-9.10208
▁hurts	-9.10273
▁written	-9.104
▁suppose	-9.1052
a	-9.10692
▁dishes	-9.10934
▁review	-9.11204
▁goods	-9.11218
▁top	-9.11393
▁questions	-9.11422
▁behind	-9.11443
▁gave	-9.11454
▁delayed	-9.11481
▁expected	-9.11496
▁Will	-9.11498
▁rate	-9.11713
▁costs	-9.11741
▁dessert	-9.11809
▁hurry	-9.1201
▁forgot	-9.12129
▁details	-9.12155
▁drama	-9.12464
▁choice	-9.12501
▁concert	-9.12505
▁Eve	-9.12684
▁white	-9.13193
▁sleep	-9.13518
▁vacation	-9.13911
▁Kim	-9.1396
▁own	-9.14567
▁explain	-9.14655
▁public	-9.14659
▁TV	-9.14934
▁party	-9.15137
▁students	-9.15181
▁kids	-9.15455
▁parents	-9.15594
▁single	-9.16083
▁actually	-9.16095
▁happy	-9.16133
▁drinks	-9.1628
▁season	-9.16401
▁ever	-9.16602
▁cake	-9.16648
▁weather	-9.16686
▁dress	-9.16753
▁stand	-9.17691
▁wish	-9.17892
▁lower	-9.17893
▁results	-9.18109
▁worked	-9.18182
▁cup	-9.18509
▁become	-9.18597
▁anyway	-9.18598
▁selling	-9.18915
▁massage	-9.18948
▁street	-9.19013
ther	-9.1905
▁empty	-9.19093
▁support	-9.19188
▁cell	-9.19237
▁asking	-9.19279
▁buying	-9.19325
▁repair	-9.19371
▁form	-9.19653
▁stomach	-9.19707
▁overtime	-9.19815
▁t	-9.19894
▁un	-9.19901
▁provide	-9.19951
▁makeup	-9.20098
▁makes	-9.20366
▁anyone	-9.20511
▁Just	-9.20946
▁text	-9.21032
▁somewhere	-9.21602
▁feels	-9.2167
▁watching	-9.22059
▁cheap	-9.22208
▁yourself	-9.22224
▁door	-9.22234
▁parts	-9.22495
▁Wednesday	-9.22587
▁Not	-9.2267
▁sounds	-9.22706
▁client	-9.22742
▁urgent	-9.22814
▁road	-9.22837
▁convenient	-9.22844
▁shouldn	-9.23094
▁re	-9.23173
▁brand	-9.23456
▁running	-9.235
▁foreign	-9.24086
▁join	-9.24094
▁section	-9.24138
▁Go	-9.24295
▁weeks	-9.24354
via	-9.24425
▁promotion	-9.24513
ble	-9.24664
▁whe	-9.2472
▁shipped	-9.24764
▁regular	-9.2488
▁11	-9.25047
▁blue	-9.25439
▁previous	-9.26034
▁100	-9.26214
▁cosmetics	-9.26457
▁China	-9.26772
▁pain	-9.27069
▁materials	-9.27254
▁deal	-9.27302
▁direction	-9.27355
▁Maybe	-9.27393
▁whole	-9.27411
▁pants	-9.27431
▁bill	-9.27466
▁starts	-9.27481
▁doctor	-9.2753
▁included	-9.27589
▁lose	-9.2774
▁enter	-9.27787
▁photos	-9.27931
▁life	-9.2807
▁agree	-9.28402
▁board	-9.28693
▁library	-9.28716
▁glad	-9.28729
▁news	-9.28741
▁past	-9.28792
▁comfortable	-9.28795
▁boss	-9.2938
▁screen	-9.29891
mail	-9.29984
▁baggage	-9.30072
▁Station	-9.30115
ting	-9.30356
▁purchased	-9.30621
▁prefer	-9.30698
▁fit	-9.30808
▁live	-9.30817
▁First	-9.31419
▁gate	-9.32326
▁reserved	-9.32432
▁easily	-9.3284
fter	-9.32941
▁Monday	-9.32994
▁wrap	-9.3325
▁fare	-9.33313
▁question	-9.33342
▁fish	-9.33428
▁final	-9.33493
▁maybe	-9.33595
▁wonder	-9.33655
▁ingredients	-9.33737
▁pool	-9.33759
up	-9.33813
▁counter	-9.33817
▁tea	-9.34069
on	-9.34155
▁file	-9.34193
▁strong	-9.34235
▁Because	-9.34255
▁stores	-9.343
▁missing	-9.34332
▁laptop	-9.34367
▁local	-9.3437
▁taken	-9.34418
▁sudden	-9.34654
▁hold	-9.34831
▁Good	-9.34967
▁among	-9.35097
▁completed	-9.35131
▁requested	-9.3515
▁wallet	-9.35208
▁d	-9.35311
▁issued	-9.35451
▁abroad	-9.35725
▁kid	-9.35775
▁moving	-9.35777
▁thanks	-9.35796
▁certificate	-9.35812
▁corner	-9.35908
▁game	-9.3598
▁smell	-9.36314
▁professor	-9.36413
▁anymore	-9.3646
▁young	-9.36582
▁exhibition	-9.36595
▁appointment	-9.36629
▁carry	-9.36945
▁speak	-9.36945
▁currency	-9.37143
▁allowed	-9.3725
▁Look	-9.37379
▁tastes	-9.37401
▁production	-9.37527
▁ok	-9.37734
▁document	-9.37854
▁limit	-9.37959
▁camera	-9.38048
▁destination	-9.38203
▁regarding	-9.38638
▁application	-9.38779
▁license	-9.38822
▁according	-9.39226
▁hall	-9.39285
▁changing	-9.39448
▁passed	-9.39499
▁view	-9.39646
▁tonight	-9.39791
▁current	-9.40101
se	-9.40291
▁canceled	-9.40371
▁inconvenience	-9.40405
▁sound	-9.40589
▁diet	-9.40797
▁exact	-9.40846
▁pork	-9.40872
▁graduation	-9.40875
▁security	-9.40876
▁internet	-9.40888
▁material	-9.41019
based	-9.41128
▁50	-9.41273
▁includ	-9.41341
rd	-9.41587
▁directly	-9.41663
▁interested	-9.41671
▁cover	-9.41952
▁Wouldn	-9.41986
▁tax	-9.42021
▁registration	-9.42074
▁double	-9.42186
▁beer	-9.42338
▁power	-9.42427
▁trouble	-9.42573
▁learn	-9.42935
▁starting	-9.4311
/	-9.4313
▁message	-9.4342
▁compare	-9.43465
▁training	-9.43691
▁share	-9.43794
▁held	-9.44013
▁pictures	-9.44104
▁quality	-9.44198
▁noodles	-9.44403
▁art	-9.44475
▁attend	-9.44499
out	-9.44519
▁heavy	-9.44749
▁properly	-9.44755
▁factory	-9.44758
▁related	-9.44765
▁video	-9.44977
time	-9.45267
▁F	-9.45318
▁K	-9.45423
▁needs	-9.45478
▁fresh	-9.45562
▁perm	-9.45716
▁real	-9.4573
▁fried	-9.45736
▁eye	-9.45804
▁eyes	-9.46139
▁point	-9.4627
▁bigger	-9.46344
▁catch	-9.46521
▁app	-9.46524
▁sweet	-9.46689
▁window	-9.4669
▁To	-9.46733
▁style	-9.46913
▁bar	-9.47166
▁ahead	-9.47393
▁site	-9.47506
▁café	-9.47959
▁shipment	-9.48345
▁button	-9.48382
▁traveling	-9.48494
▁appreciate	-9.48586
▁adults	-9.48606
▁sick	-9.48822
▁research	-9.49066
▁buses	-9.4915
▁kinds	-9.49154
▁12	-9.49189
▁post	-9.49286
▁alright	-9.49629
▁general	-9.49635
▁major	-9.49922
▁elevator	-9.4998
▁e	-9.50242
▁minute	-9.50433
▁normally	-9.50464
▁felt	-9.50472
▁mother	-9.50478
▁bread	-9.50487
giving	-9.50909
▁meals	-9.51102
▁original	-9.51261
▁ship	-9.51501
▁juice	-9.51686
▁wash	-9.52027
▁faster	-9.52162
▁movies	-9.52165
▁mom	-9.52413
▁focus	-9.52475
▁opened	-9.52523
▁simple	-9.52907
▁problems	-9.52967
▁four	-9.52974
▁actor	-9.53575
▁participate	-9.53653
▁copy	-9.53669
▁throw	-9.53789
▁scheduled	-9.53834
▁hungry	-9.53845
▁police	-9.53851
definitely	-9.54026
▁Who	-9.54208
▁cafe	-9.54249
▁bottle	-9.54295
▁wearing	-9.54353
▁staying	-9.54409
▁moved	-9.54416
▁along	-9.54638
▁semester	-9.54735
▁snacks	-9.54755
▁Take	-9.54756
ng	-9.5478
▁five	-9.54825
▁leader	-9.55245
▁complete	-9.55386
▁al	-9.55564
▁nervous	-9.55592
▁impossible	-9.55594
▁Japanese	-9.55614
▁shall	-9.55638
▁works	-9.55677
▁press	-9.55687
▁answer	-9.55793
▁expense	-9.56014
▁salad	-9.56067
▁restroom	-9.56126
▁level	-9.56206
▁depend	-9.56304
uring	-9.56411
▁Internet	-9.56503
▁closed	-9.56737
▁And	-9.56753
▁walking	-9.57099
▁budget	-9.57139
▁fall	-9.57382
▁dry	-9.57393
▁bags	-9.57438
▁notice	-9.57535
▁wondering	-9.57585
▁continue	-9.57636
▁plans	-9.57694
▁basic	-9.57852
▁paying	-9.57936
▁display	-9.58014
▁yellow	-9.5827
▁downtown	-9.58274
▁cause	-9.58739
▁She	-9.58759
▁conditioner	-9.58895
▁needed	-9.59074
▁wine	-9.59469
▁On	-9.59571
▁Saturday	-9.59716
▁emergency	-9.60098
▁immediately	-9.60102
▁planned	-9.60121
▁damaged	-9.60174
▁10,000	-9.60235
▁install	-9.60241
▁fix	-9.60288
▁D	-9.60861
▁visiting	-9.6088
▁types	-9.60909
▁amazing	-9.61026
▁convenience	-9.61088
▁cleaning	-9.6146
▁accounting	-9.61561
▁image	-9.61588
▁borrow	-9.61678
▁feeling	-9.61839
▁touch	-9.61909
▁salary	-9.61957
▁sitting	-9.61983
▁missed	-9.62003
▁fixed	-9.62031
▁studying	-9.62279
▁customs	-9.62399
l	-9.62409
▁P	-9.62727
▁weird	-9.62904
▁women	-9.62941
▁effective	-9.63021
▁spa	-9.63148
▁seeing	-9.63276
▁shows	-9.63335
▁dog	-9.63485
▁goal	-9.6349
▁U	-9.63583
▁orders	-9.63717
▁age	-9.63822
▁accept	-9.63842
▁normal	-9.6385
▁apologize	-9.63855
▁Everyone	-9.63857
▁fever	-9.63863
▁anywhere	-9.63916
▁include	-9.63954
▁beef	-9.64054
▁happens	-9.64178
▁search	-9.6418
▁pen	-9.64368
▁cook	-9.64559
▁favorite	-9.64597
▁lots	-9.647
▁college	-9.64815
▁Today	-9.64827
▁alcohol	-9.64897
▁match	-9.64904
▁suit	-9.65158
▁keeps	-9.65443
▁wrote	-9.65784
▁seafood	-9.65789
▁booking	-9.65858
▁40	-9.65953
▁One	-9.66028
▁restaurants	-9.66038
,000	-9.6607
▁condition	-9.6617
▁receipts	-9.6632
▁quarter	-9.66578
▁member	-9.66607
▁warm	-9.66621
▁milk	-9.66762
▁university	-9.66768
▁swimming	-9.66769
▁fan	-9.66905
▁expect	-9.67039
▁its	-9.67306
▁mine	-9.67435
▁hit	-9.67734
▁Japan	-9.67772
▁sir	-9.67864
▁beach	-9.67891
▁dark	-9.67935
▁result	-9.68372
▁chair	-9.68408
▁pizza	-9.68409
▁handle	-9.68598
▁drinking	-9.68694
▁Wait	-9.68755
▁completely	-9.68786
▁across	-9.68794
▁liked	-9.68854
▁depends	-9.69075
▁increased	-9.69109
▁cool	-9.69664
▁confirmed	-9.69834
es	-9.70132
▁score	-9.70474
en	-9.70507
▁field	-9.70576
▁page	-9.70621
▁shops	-9.70752
▁except	-9.70781
▁classes	-9.70881
▁Now	-9.70952
▁advertisement	-9.71494
▁deposit	-9.71742
▁stops	-9.7178
▁twice	-9.71816
▁mail	-9.72048
▁Busan	-9.72864
▁mentioned	-9.72889
▁carefully	-9.72914
▁interesting	-9.72964
▁dye	-9.73112
nual	-9.73266
▁cheese	-9.73781
▁fire	-9.73818
▁several	-9.73912
▁unit	-9.73946
▁smaller	-9.74023
though	-9.74244
▁weekends	-9.74376
▁key	-9.74693
▁health	-9.74906
▁departure	-9.74907
▁Ok	-9.74932
▁strange	-9.75441
▁24	-9.75672
▁space	-9.75794
▁E	-9.75894
▁safe	-9.75981
▁attention	-9.76051
▁beautiful	-9.76052
▁opposite	-9.76053
▁especially	-9.76053
▁president	-9.76086
▁finally	-9.7609
▁reservations	-9.76206
▁oil	-9.76211
▁pasta	-9.76214
▁shower	-9.76333
▁benefits	-9.76467
▁man	-9.7661
▁opening	-9.76863
▁option	-9.76873
▁O	-9.76913
▁festival	-9.76937
▁exchanged	-9.77023
▁writing	-9.77038
kg	-9.77082
▁kept	-9.77135
▁located	-9.77176
▁surprised	-9.77194
▁clothing	-9.7722
▁fell	-9.77302
▁registered	-9.7736
▁prices	-9.77382
▁sometimes	-9.77577
an	-9.77895
▁lipstick	-9.77984
to	-9.78131
▁delay	-9.78167
▁entire	-9.7821
▁kitchen	-9.78235
▁easier	-9.78241
0,000	-9.78277
▁boarding	-9.78512
am	-9.78765
▁detail	-9.78993
▁confirm	-9.79091
▁accommodation	-9.79146
▁steak	-9.79176
▁quick	-9.79291
▁curious	-9.79347
▁dangerous	-9.79348
▁living	-9.79352
▁charged	-9.79489
▁N	-9.79697
▁added	-9.79728
▁method	-9.80241
▁couple	-9.80275
▁changes	-9.80342
▁crowded	-9.80477
▁green	-9.80497
▁letter	-9.81254
▁fruit	-9.81381
▁glass	-9.81587
▁medical	-9.81612
▁cards	-9.81862
▁loss	-9.82078
▁drop	-9.82556
▁collect	-9.82684
▁People	-9.82755
▁future	-9.82755
▁percent	-9.82755
▁scent	-9.82823
▁cooking	-9.82964
▁opinion	-9.83708
▁reduce	-9.8371
▁Tuesday	-9.8374
▁language	-9.83746
▁deadline	-9.8392
▁particular	-9.8392
▁winter	-9.83922
▁corporate	-9.83941
▁discounts	-9.84364
▁newly	-9.84402
▁connect	-9.84794
▁consultation	-9.84941
▁listen	-9.85028
▁gym	-9.85089
▁countries	-9.85096
▁round	-9.85233
turned	-9.85391
▁contacted	-9.85524
▁fully	-9.85602
▁discounted	-9.85735
▁fees	-9.86109
▁Thursday	-9.86136
▁approval	-9.8625
▁serious	-9.86262
▁loud	-9.86263
▁Still	-9.86322
▁push	-9.86351
▁wants	-9.86363
▁higher	-9.86399
▁further	-9.86504
▁foot	-9.86512
▁reading	-9.8673
▁feet	-9.86995
▁w	-9.87176
▁music	-9.8747
▁daughter	-9.87493
▁volume	-9.87521
▁Try	-9.87608
▁became	-9.87622
▁forget	-9.87645
▁Some	-9.87728
▁wrapping	-9.87805
▁piece	-9.87809
▁specific	-9.8857
▁natural	-9.88712
▁management	-9.88714
▁slightly	-9.88716
▁Hong	-9.88716
▁gotten	-9.88731
▁soccer	-9.88737
▁joined	-9.88847
▁slow	-9.88855
▁bright	-9.88884
▁itself	-9.88956
day	-9.89034
▁By	-9.89122
▁5,000	-9.89712
▁announcement	-9.89869
▁financial	-9.89917
▁quantity	-9.89944
▁beginning	-9.89946
▁physical	-9.90034
▁means	-9.9007
▁mobile	-9.90075
▁pieces	-9.90144
▁patient	-9.90174
▁cars	-9.90268
▁promotional	-9.90337
less	-9.90567
▁against	-9.90678
▁graduate	-9.90933
▁remove	-9.90944
▁adjust	-9.90957
▁hate	-9.91022
▁invoice	-9.91124
▁boyfriend	-9.91195
▁neighborhood	-9.91196
▁membership	-9.91197
▁relief	-9.91219
▁million	-9.91221
▁lunchtime	-9.91262
▁spend	-9.92312
▁avoid	-9.92425
▁burger	-9.92426
▁bottom	-9.92458
▁ceremony	-9.9246
▁surgery	-9.92461
▁basement	-9.92462
▁traveler	-9.92511
▁rental	-9.92512
▁therapy	-9.92514
▁Mom	-9.92523
▁provided	-9.9288
▁playing	-9.92912
▁organize	-9.9313
▁policy	-9.93742
▁shame	-9.9375
▁atmosphere	-9.93751
▁pink	-9.93764
▁Sound	-9.94027
▁watched	-9.94149
▁tight	-9.94158
▁replace	-9.94197
▁foods	-9.94534
▁shape	-9.94821
▁postpone	-9.94841
▁error	-9.94978
▁switch	-9.94988
▁laundry	-9.95039
▁variety	-9.9504
▁equipment	-9.95041
▁married	-9.95066
▁father	-9.95084
▁stairs	-9.95105
▁dad	-9.95294
▁lately	-9.95304
▁vegetables	-9.95479
▁ended	-9.95528
▁50,000	-9.95559
▁shirt	-9.95627
▁actors	-9.95822
▁snack	-9.96293
▁assignment	-9.96324
▁immigration	-9.96358
▁development	-9.96495
▁town	-9.96742
▁placed	-9.96783
▁inform	-9.96883
▁given	-9.97269
▁route	-9.97514
▁stuff	-9.97615
▁world	-9.97689
▁necessary	-9.97693
▁preparing	-9.97708
▁temperature	-9.97719
▁fault	-9.9772
▁coke	-9.9773
▁third	-9.97766
▁500	-9.97855
▁men	-9.97951
▁packed	-9.98054
▁worse	-9.98078
▁sports	-9.98118
▁terms	-9.98335
▁theater	-9.98361
ous	-9.98367
▁holidays	-9.98929
▁lobby	-9.99038
▁thousand	-9.99042
▁tourist	-9.99048
▁wedding	-9.99062
▁salty	-9.99071
▁position	-9.99136
▁shot	-9.99681
▁Sha	-9.99884
most	-9.99894
▁smells	-10.0024
▁usual	-10.004
▁huge	-10.0041
▁Congratulations	-10.0043
▁standard	-10.0043
▁stew	-10.0045
▁allergic	-10.0047
▁agency	-10.005
▁New	-10.0052
▁inconvenient	-10.0058
▁resident	-10.008
▁issues	-10.015
▁hire	-10.017
▁Jeju	-10.0178
▁knew	-10.018
▁daily	-10.018
▁Great	-10.018
▁battery	-10.0181
▁confused	-10.0181
▁neck	-10.0182
▁Island	-10.0183
▁perfume	-10.0184
▁suggest	-10.0184
▁cancellation	-10.0185
▁powder	-10.019
▁considering	-10.0196
▁harder	-10.0211
▁self	-10.0214
▁sizes	-10.0218
▁towels	-10.0265
▁broke	-10.0294
▁contents	-10.0301
▁practice	-10.0302
▁sense	-10.0316
▁cab	-10.032
▁stuck	-10.032
▁domestic	-10.032
▁Vietnam	-10.0321
▁studied	-10.0321
▁complicated	-10.0321
▁procedure	-10.0326
▁beside	-10.0329
▁treat	-10.0332
▁displayed	-10.0332
▁orange	-10.0333
▁purpose	-10.0338
▁1,000	-10.0341
h	-10.035
▁words	-10.0375
▁served	-10.0376
▁grab	-10.0383
shirt	-10.0397
▁mall	-10.0412
▁social	-10.0448
▁quiet	-10.0459
▁Kong	-10.0464
▁beforehand	-10.0465
▁fastest	-10.0465
▁nearest	-10.0466
▁status	-10.0469
▁intern	-10.047
▁Sunday	-10.0472
▁arrival	-10.0473
▁foundation	-10.0475
▁stage	-10.0476
▁ordering	-10.0479
▁processed	-10.0485
▁Shouldn	-10.0504
▁guests	-10.0535
▁s	-10.0545
▁non	-10.0603
▁introduce	-10.0604
▁consider	-10.0606
▁Team	-10.0611
▁monitor	-10.0618
▁commercial	-10.0619
▁certain	-10.0623
▁airline	-10.0623
▁opinions	-10.0635
▁nights	-10.0657
▁visited	-10.066
pop	-10.0682
ted	-10.0686
existing	-10.0714
▁manage	-10.0726
▁legs	-10.0726
▁depart	-10.0729
▁drunk	-10.0747
▁branch	-10.0753
▁expiration	-10.0756
▁Manager	-10.0756
▁caught	-10.0756
▁wife	-10.0756
▁slowly	-10.0758
▁brother	-10.076
▁hamburger	-10.0767
▁official	-10.0767
▁version	-10.0769
▁larger	-10.0777
▁cleaned	-10.0783
▁estimate	-10.0784
est	-10.0784
▁select	-10.08
▁tag	-10.0809
▁blood	-10.0816
▁standing	-10.0817
▁pills	-10.0826
▁consumers	-10.0838
▁cases	-10.088
▁dirty	-10.0905
▁Actually	-10.0905
▁Wow	-10.0905
▁background	-10.0905
▁Line	-10.0911
▁Was	-10.0916
▁save	-10.0917
▁sample	-10.0918
▁function	-10.0918
▁speed	-10.0919
▁noise	-10.092
▁terminal	-10.0923
▁installed	-10.0923
▁events	-10.0934
▁control	-10.095
▁discuss	-10.103
▁note	-10.1031
▁promote	-10.1042
▁sending	-10.1042
S	-10.1043
▁lead	-10.105
▁activities	-10.1056
▁receiving	-10.1059
▁September	-10.1059
▁effect	-10.1068
▁blanket	-10.1072
▁escalator	-10.1076
▁salon	-10.1077
▁rain	-10.1077
▁rush	-10.1079
▁target	-10.1097
▁distance	-10.1106
▁regulations	-10.1116
▁pre	-10.1118
▁miss	-10.1128
▁flowers	-10.1148
▁draft	-10.1181
▁Airport	-10.121
▁history	-10.121
▁pharmacy	-10.121
▁Europe	-10.1211
▁plastic	-10.1212
▁perfect	-10.1214
▁length	-10.1218
▁begin	-10.1226
▁fries	-10.1228
▁hands	-10.1231
▁girlfriend	-10.1239
▁Al	-10.124
▁boat	-10.1246
om	-10.1259
▁Fr	-10.1261
at	-10.1287
▁record	-10.1335
▁PM	-10.1372
▁August	-10.1373
▁An	-10.1375
▁Aren	-10.1384
▁chocolate	-10.1389
▁teacher	-10.139
▁proposal	-10.1394
▁symptoms	-10.1399
▁waste	-10.14
▁pair	-10.1418
▁Hi	-10.1424
k	-10.1434
▁legal	-10.1451
▁bottles	-10.1456
▁L	-10.146
▁ring	-10.1466
▁services	-10.1467
▁fat	-10.1488
▁sets	-10.1501
▁solve	-10.1515
▁private	-10.1525
▁Unfortunately	-10.1525
▁packaging	-10.1526
▁supplies	-10.1526
▁10%	-10.1528
▁whenever	-10.1541
▁required	-10.1542
▁content	-10.1548
▁toilet	-10.1548
▁serve	-10.1549
▁decision	-10.1551
▁fact	-10.156
▁ointment	-10.156
▁cooked	-10.1564
▁tough	-10.1565
▁spot	-10.1579
▁express	-10.1587
▁dramas	-10.159
▁conditions	-10.1594
▁ran	-10.1611
▁pull	-10.1617
▁Or	-10.1653
▁samples	-10.1672
▁tradition	-10.1673
▁bills	-10.1675
▁ocean	-10.1686
▁nowadays	-10.1686
▁industry	-10.1687
▁confirmation	-10.1687
▁tasty	-10.1687
▁submitted	-10.169
▁refer	-10.169
▁100,000	-10.1699
▁Me	-10.1707
▁construction	-10.1716
▁recommended	-10.1748
▁workout	-10.1764
▁soft	-10.1764
▁buyer	-10.1784
ally	-10.1793
▁draw	-10.1817
▁muscles	-10.182
▁facilities	-10.185
▁inspection	-10.185
▁terrible	-10.185
▁average	-10.1851
▁hospitalized	-10.1851
▁upset	-10.1853
▁Park	-10.1856
▁leg	-10.1867
▁connected	-10.1867
▁entered	-10.187
▁caused	-10.1873
▁profit	-10.188
▁overall	-10.1884
▁At	-10.1935
▁ways	-10.1937
▁nose	-10.1952
▁poor	-10.2015
▁CEO	-10.2016
▁unique	-10.2016
▁Gangnam	-10.2017
▁storage	-10.2017
▁strategy	-10.2017
▁scared	-10.2018
▁notify	-10.2023
▁boxes	-10.2029
▁repaired	-10.2037
▁acting	-10.2039
ational	-10.2042
▁muscle	-10.2047
▁headache	-10.2048
▁leaves	-10.2049
▁range	-10.2052
▁learning	-10.2054
▁lotion	-10.2056
▁ball	-10.2059
▁returned	-10.2066
▁row	-10.2067
▁ground	-10.2097
▁heat	-10.2148
▁clear	-10.2177
▁fair	-10.218
▁cotton	-10.2186
▁celebrities	-10.2187
▁originally	-10.2192
▁b	-10.2204
▁brochure	-10.222
▁hairstyle	-10.2224
ell	-10.2231
▁media	-10.2231
▁known	-10.2233
▁passing	-10.2258
▁washing	-10.2263
▁Has	-10.2276
▁showing	-10.228
fried	-10.2317
le	-10.2325
▁interest	-10.2351
▁require	-10.2358
▁admission	-10.2371
▁wake	-10.2375
▁learned	-10.2375
▁clients	-10.2383
▁explanation	-10.2395
▁guy	-10.2399
▁sad	-10.2408
▁lie	-10.2416
▁launch	-10.2509
▁heart	-10.2514
ce	-10.2526
▁reach	-10.2527
▁attach	-10.2529
▁parcel	-10.2534
▁husband	-10.2534
▁biggest	-10.2534
▁sister	-10.2534
▁technology	-10.2538
▁glasses	-10.254
▁c	-10.2542
▁reasons	-10.2542
▁mouth	-10.2545
▁duri	-10.2546
▁bowl	-10.2556
▁meetings	-10.2563
▁lights	-10.2568
▁grade	-10.2571
▁vehicle	-10.2574
▁shrimp	-10.2574
▁agreement	-10.2575
▁director	-10.2577
flight	-10.2654
▁guys	-10.2671
▁grow	-10.268
▁ten	-10.2694
▁develop	-10.27
▁celebrity	-10.2713
▁safety	-10.2713
▁stopped	-10.2714
▁severe	-10.2714
▁States	-10.2717
▁oily	-10.2723
▁discharged	-10.2731
▁R	-10.2754
▁Hey	-10.2754
▁statement	-10.2759
▁holding	-10.2769
ion	-10.2771
▁cigarettes	-10.2778
▁latest	-10.2783
▁coat	-10.2784
▁export	-10.2819
▁arm	-10.2875
▁menus	-10.2876
▁inter	-10.289
▁lounge	-10.2894
▁keyboard	-10.2895
▁boring	-10.2896
▁exercising	-10.2896
▁dust	-10.2898
▁usage	-10.29
▁trade	-10.291
▁release	-10.2914
▁stamp	-10.292
▁foreigners	-10.2931
▁character	-10.294
▁jacket	-10.2941
▁eaten	-10.2948
▁teach	-10.2948
▁law	-10.2969
▁direct	-10.2984
▁dates	-10.2995
▁gain	-10.3027
▁vari	-10.307
▁progress	-10.3071
▁courier	-10.308
▁grateful	-10.308
▁homework	-10.3084
▁Last	-10.3085
▁operating	-10.3085
▁attached	-10.3088
▁detailed	-10.3092
▁math	-10.3101
▁update	-10.3106
▁film	-10.311
▁competition	-10.3129
▁subject	-10.3129
▁operation	-10.3148
▁topic	-10.3153
▁sea	-10.3165
▁programs	-10.3175
ity	-10.3181
▁dressing	-10.3183
▁ate	-10.3217
▁helped	-10.3228
▁warehouse	-10.3246
▁exercises	-10.3267
▁Welcome	-10.3268
▁July	-10.3268
▁leather	-10.3268
▁lucky	-10.3271
▁teams	-10.3276
cm	-10.3301
▁individual	-10.3314
▁basket	-10.3317
▁adult	-10.332
▁guardian	-10.3321
▁signed	-10.3324
▁H	-10.3326
▁response	-10.3329
▁cleaner	-10.3331
▁Doesn	-10.3342
▁Man	-10.3382
▁applying	-10.3401
▁weren	-10.3404
ic	-10.3416
▁Un	-10.3435
▁discharge	-10.3442
▁honest	-10.3458
▁vacuum	-10.346
▁maximum	-10.346
▁automatically	-10.3461
▁homepage	-10.3461
▁arriving	-10.3463
▁actual	-10.3465
▁password	-10.3465
▁worth	-10.3466
▁calls	-10.3474
▁alley	-10.3474
▁checks	-10.3476
▁below	-10.3481
▁limited	-10.3481
▁apartment	-10.3484
▁20,000	-10.349
▁printed	-10.3491
▁wrapped	-10.3494
▁operate	-10.3506
▁recruit	-10.3507
▁survey	-10.3517
▁haircut	-10.3518
▁Com	-10.352
▁base	-10.3543
▁others	-10.3564
▁understanding	-10.3577
▁owner	-10.3605
▁Uni	-10.3606
▁hang	-10.3617
▁packs	-10.3649
▁recent	-10.3654
▁national	-10.3655
▁kimchi	-10.3656
▁babies	-10.3657
▁excited	-10.3657
▁prohibited	-10.3658
▁mixed	-10.366
▁spent	-10.3661
▁remaining	-10.3662
▁prescribed	-10.3663
▁fitting	-10.3664
▁attendance	-10.3668
▁However	-10.3668
▁younger	-10.368
▁lack	-10.3713
▁sleeping	-10.3715
▁nail	-10.3726
▁plate	-10.3729
▁reviews	-10.373
▁portion	-10.3733
▁sells	-10.3765
it	-10.3779
▁appropriate	-10.3828
mm	-10.3829
▁raise	-10.3843
▁manual	-10.3855
▁extreme	-10.3856
▁opportunity	-10.3857
▁disappointed	-10.3857
▁cheapest	-10.3859
▁sensitive	-10.3861
▁assistant	-10.3861
▁urgently	-10.3864
▁lines	-10.387
▁healthy	-10.387
▁Make	-10.3872
▁story	-10.3883
▁worn	-10.3884
▁f	-10.391
▁vegetarian	-10.392
▁device	-10.3921
▁musical	-10.3923
▁solution	-10.3923
▁code	-10.3925
▁i	-10.3926
▁weekdays	-10.393
▁singer	-10.3932
▁bike	-10.3939
▁likely	-10.3956
▁shoe	-10.3981
▁fits	-10.3992
▁beds	-10.4
▁import	-10.4033
related	-10.4047
▁state	-10.406
▁th	-10.406
▁swollen	-10.4061
▁spaghetti	-10.4061
▁regardless	-10.4061
▁advertising	-10.4061
▁Most	-10.4061
▁15,000	-10.4068
ement	-10.4068
me	-10.4073
▁Incheon	-10.4081
▁asleep	-10.4083
▁deep	-10.409
▁appear	-10.4093
▁offered	-10.4099
ever	-10.4105
▁stick	-10.4109
▁flavor	-10.4122
▁senior	-10.4129
▁beans	-10.4132
▁outdoor	-10.4132
▁liquid	-10.4136
▁rules	-10.4167
▁nails	-10.4218
▁grades	-10.4218
▁extend	-10.4264
▁birth	-10.4268
▁airplane	-10.4269
▁frozen	-10.4269
▁increasing	-10.427
▁split	-10.4273
▁suitable	-10.4282
▁raw	-10.4288
▁raining	-10.4316
▁shampoo	-10.432
▁prescription	-10.434
▁mountain	-10.4342
▁session	-10.4343
▁suits	-10.4353
▁blow	-10.4355
▁region	-10.4355
pm	-10.4372
▁hearing	-10.438
▁culture	-10.4392
▁rid	-10.4433
▁gifts	-10.4456
▁computers	-10.4463
▁arrange	-10.4463
▁chose	-10.4471
▁bonus	-10.4479
▁sneakers	-10.4482
▁software	-10.4482
▁elementary	-10.4482
▁tourists	-10.4482
▁funny	-10.4482
▁education	-10.4484
▁Give	-10.4487
▁directions	-10.449
▁selected	-10.4492
▁welcome	-10.4492
▁personally	-10.4501
▁shoulder	-10.4509
▁stress	-10.4513
ccording	-10.4517
▁wall	-10.4519
▁closes	-10.4521
▁fruits	-10.4524
▁improve	-10.4528
▁projects	-10.4532
▁options	-10.4536
▁trend	-10.4536
▁lecture	-10.4556
▁chairs	-10.4558
▁electronic	-10.4559
▁gas	-10.4561
▁heading	-10.4577
▁bother	-10.4615
▁requests	-10.4617
person	-10.4631
▁wide	-10.4633
▁sweat	-10.4674
▁effects	-10.4691
▁confident	-10.4696
▁stadium	-10.4699
▁personnel	-10.4699
▁Yep	-10.4699
▁thoroughly	-10.4699
▁scary	-10.4701
▁government	-10.4704
▁internal	-10.4705
▁temporary	-10.4721
▁fans	-10.4722
▁older	-10.4722
▁ideas	-10.4731
▁2,000	-10.4746
▁picked	-10.4753
or	-10.4754
▁secret	-10.4758
▁professional	-10.4777
▁printer	-10.4784
▁towel	-10.4791
▁ends	-10.4855
▁pressure	-10.4899
;	-10.4919
▁potato	-10.4919
▁seminar	-10.4921
▁Department	-10.4921
▁examination	-10.4921
▁simply	-10.4922
▁concerned	-10.4923
▁Other	-10.4925
▁safely	-10.4926
▁closing	-10.4926
▁chef	-10.4931
▁Check	-10.4935
▁searched	-10.4951
▁amus	-10.4965
▁format	-10.4992
▁umbrella	-10.5005
▁posture	-10.5007
▁salmon	-10.5007
▁souvenir	-10.5009
▁channel	-10.5009
▁mask	-10.5024
▁dollar	-10.5045
▁areas	-10.5122
▁claim	-10.5125
▁cross	-10.513
▁cloth	-10.5133
▁sushi	-10.5148
▁bulk	-10.5148
▁University	-10.5148
▁refrigerator	-10.5149
▁preparation	-10.5149
▁defective	-10.5149
▁multiple	-10.5149
▁transferred	-10.5154
▁assigned	-10.5156
▁launched	-10.5158
▁purchasing	-10.5159
▁identification	-10.5173
▁cups	-10.5185
▁organized	-10.5199
▁attending	-10.5199
▁song	-10.5218
national	-10.522
▁iced	-10.523
▁With	-10.5237
▁cosmetic	-10.524
▁apart	-10.5249
▁flower	-10.5249
▁yes	-10.5253
▁smoking	-10.5259
▁refunded	-10.5273
ose	-10.5322
▁band	-10.5332
▁games	-10.5343
▁burn	-10.535
▁gather	-10.5357
▁dawn	-10.5381
▁Chuseok	-10.5381
▁dropped	-10.5381
▁trash	-10.5381
▁stationery	-10.5382
▁50%	-10.5383
▁common	-10.5385
▁informed	-10.54
▁mark	-10.5433
▁filled	-10.5441
▁Du	-10.5448
▁damage	-10.545
▁features	-10.5453
▁female	-10.5474
▁sauna	-10.5475
▁60	-10.5476
▁mirror	-10.5476
▁installment	-10.5485
▁speaker	-10.5485
won	-10.5495
▁tours	-10.551
▁songs	-10.5521
▁workers	-10.5522
▁cat	-10.5523
▁flights	-10.5545
▁wind	-10.5582
▁smoke	-10.559
▁revise	-10.56
losing	-10.5602
▁calculate	-10.561
▁wireless	-10.5616
▁yoga	-10.5619
▁economy	-10.5619
▁indeed	-10.5619
▁penalty	-10.5619
▁admitted	-10.5619
▁comfortably	-10.5619
▁academy	-10.5619
▁celebrate	-10.5621
▁bleeding	-10.5621
▁helpful	-10.5622
▁South	-10.5628
▁brown	-10.5629
end	-10.5637
▁listening	-10.5658
arious	-10.5661
i	-10.5666
▁becomes	-10.5676
▁v	-10.5711
▁medication	-10.5715
▁cellphone	-10.5719
▁purifier	-10.5721
▁finance	-10.5722
▁human	-10.5722
▁pencil	-10.5723
▁article	-10.5724
5,000	-10.5783
any	-10.5854
▁addition	-10.5861
▁plenty	-10.5863
▁deputy	-10.5863
▁bakery	-10.5863
▁ramen	-10.5863
▁excellent	-10.5863
▁investment	-10.5863
▁waterproof	-10.5863
▁stolen	-10.5865
▁clearly	-10.5866
▁commission	-10.5868
▁20%	-10.5868
▁marked	-10.5874
▁regularly	-10.5874
▁Wasn	-10.5882
▁wood	-10.5885
▁aware	-10.589
▁approved	-10.589
▁departing	-10.5893
▁largest	-10.5903
▁closer	-10.5908
▁parked	-10.5911
▁spare	-10.5913
▁monthly	-10.5913
▁broadcast	-10.5937
term	-10.5937
▁visa	-10.5942
▁tests	-10.5963
▁noodle	-10.5972
▁concentrate	-10.5974
▁consumer	-10.5975
▁reported	-10.5989
▁tip	-10.6016
▁weak	-10.6029
▁taxis	-10.6069
▁numbers	-10.6083
▁decrease	-10.6094
▁American	-10.6111
▁hobby	-10.6113
▁minimum	-10.6113
▁Professor	-10.6113
▁medium	-10.6113
▁hiking	-10.6113
▁noisy	-10.6113
▁entertainment	-10.6113
▁baseball	-10.6113
▁Everything	-10.6113
▁hiring	-10.6114
▁copies	-10.6114
▁bored	-10.6114
▁instant	-10.6115
his	-10.6116
▁sugar	-10.6118
ext	-10.6118
▁riding	-10.6137
▁covered	-10.6138
▁upload	-10.6139
he	-10.6159
▁stayed	-10.6184
rom	-10.6194
▁declaration	-10.6224
tally	-10.6225
▁effort	-10.6229
▁spring	-10.6236
do	-10.6236
▁recognize	-10.6247
▁environment	-10.6267
▁electric	-10.6273
▁tall	-10.6277
▁papers	-10.6301
▁scan	-10.6325
year	-10.6329
▁Asia	-10.6338
▁download	-10.6344
ary	-10.6355
▁build	-10.6358
▁mention	-10.6362
▁trust	-10.6364
▁HR	-10.6368
▁York	-10.6369
▁syrup	-10.6369
▁cafeteria	-10.6369
▁individually	-10.6373
▁bangs	-10.6377
▁imported	-10.6379
▁seal	-10.6384
▁step	-10.6387
▁shown	-10.6399
▁introduced	-10.6413
▁Lee	-10.6434
▁2.	-10.6443
▁3,000	-10.6459
▁favor	-10.6462
▁pocket	-10.6497
▁idol	-10.6499
▁rule	-10.65
▁painting	-10.6509
▁contracts	-10.6542
nna	-10.6547
▁son	-10.6559
▁statements	-10.657
▁charger	-10.6585
▁designate	-10.6589
▁US	-10.6597
▁relax	-10.6606
▁thin	-10.6609
▁artist	-10.6611
▁divide	-10.6619
▁runs	-10.6623
▁height	-10.6628
▁remote	-10.6629
▁sandwich	-10.663
▁World	-10.6632
▁rumor	-10.6632
▁zoo	-10.6632
▁impressive	-10.6632
▁chief	-10.6632
▁evaluation	-10.6632
▁representative	-10.6633
▁example	-10.6633
▁City	-10.6633
▁familiar	-10.6634
▁prevent	-10.6635
▁successful	-10.6635
▁disappeared	-10.6636
▁above	-10.6636
▁booklet	-10.6638
▁socks	-10.6639
▁satisfied	-10.6644
▁worst	-10.6645
▁lighter	-10.6651
▁instructions	-10.6661
▁coins	-10.6663
▁AM	-10.6669
▁Han	-10.6691
▁web	-10.672
▁wound	-10.6748
▁tie	-10.6753
▁cushion	-10.676
▁bookstore	-10.6762
▁dream	-10.6764
▁cast	-10.6767
▁guest	-10.678
▁met	-10.6793
A	-10.681
▁coupons	-10.6837
and	-10.6881
sized	-10.6887
▁pot	-10.689
▁kg	-10.6892
▁mistaken	-10.6893
▁maintain	-10.6895
▁thick	-10.69
▁transport	-10.6902
▁access	-10.6902
▁defect	-10.6902
▁confusing	-10.6903
▁responsible	-10.6903
relevant	-10.6904
▁Someone	-10.6905
▁earth	-10.6905
▁Two	-10.6907
▁30%	-10.6908
▁tiring	-10.6913
▁October	-10.6914
▁basis	-10.6914
minute	-10.6924
▁W	-10.6924
▁poster	-10.6935
▁badly	-10.6938
▁roll	-10.6963
▁earphones	-10.6963
▁male	-10.6977
ation	-10.701
▁skip	-10.7017
▁carrier	-10.7039
▁reaction	-10.704
▁competitor	-10.704
▁container	-10.7043
▁role	-10.7043
▁Am	-10.7052
▁bleach	-10.7054
▁payments	-10.7058
▁pill	-10.707
▁toward	-10.709
▁Get	-10.7093
ang	-10.7096
▁checkout	-10.7101
old	-10.7112
▁pens	-10.7116
▁charges	-10.7136
▁Roo	-10.7161
▁positive	-10.7178
▁tomato	-10.7178
▁KRW	-10.718
▁Correct	-10.718
▁typhoon	-10.718
▁midnight	-10.718
▁responsibility	-10.718
▁welfare	-10.7181
▁blog	-10.7181
▁specifically	-10.7182
▁inquiry	-10.7183
▁failed	-10.7184
▁backpack	-10.7185
▁frequently	-10.7187
▁chopsticks	-10.7187
▁varies	-10.7188
▁block	-10.7192
▁chosen	-10.7196
▁anniversary	-10.7204
▁posted	-10.7206
▁employment	-10.7207
▁belly	-10.7218
▁tables	-10.7221
▁searching	-10.7234
▁joining	-10.7261
▁sort	-10.7271
▁offers	-10.7279
▁salt	-10.7284
ies	-10.7289
▁experienced	-10.7296
▁tasks	-10.7303
▁ankle	-10.732
▁resume	-10.7321
▁signature	-10.7322
▁ward	-10.7324
▁transaction	-10.7325
▁scene	-10.7333
▁setting	-10.7355
▁task	-10.7362
▁figure	-10.7375
▁portions	-10.7378
▁latte	-10.7381
▁tend	-10.7382
▁videos	-10.7382
▁strike	-10.7431
▁pop	-10.7433
▁spray	-10.7457
▁broth	-10.7464
▁Samsung	-10.7466
▁concept	-10.7466
▁sashimi	-10.7466
▁facility	-10.7466
▁furniture	-10.7466
▁inventory	-10.7466
▁navigation	-10.7466
▁Hold	-10.7468
▁potatoes	-10.7469
▁capacity	-10.7478
▁island	-10.7479
▁calm	-10.748
▁treated	-10.748
▁divided	-10.749
▁rented	-10.7504
▁cute	-10.7505
▁graduated	-10.7511
▁letters	-10.7522
▁listed	-10.7523
▁m	-10.7526
▁G	-10.753
her	-10.7543
▁none	-10.7565
▁desserts	-10.757
▁applicants	-10.7571
▁essence	-10.7608
▁fabric	-10.7609
▁texture	-10.7609
▁finger	-10.7617
▁injection	-10.7618
▁midterm	-10.762
▁zone	-10.762
▁combo	-10.7625
▁finishing	-10.763
▁plates	-10.7656
▁returning	-10.7656
▁perform	-10.7671
▁sour	-10.7678
▁brief	-10.7757
▁allow	-10.7757
▁angry	-10.776
▁awkward	-10.776
▁Exactly	-10.776
▁resort	-10.776
▁pregnant	-10.776
▁advice	-10.776
▁verify	-10.776
▁curry	-10.776
▁Normally	-10.776
▁injured	-10.776
hour	-10.7761
▁suspended	-10.7762
▁transferring	-10.7767
▁blocked	-10.7768
▁wore	-10.7775
▁interior	-10.7775
▁act	-10.7779
▁accepted	-10.7783
▁washed	-10.7794
▁replaced	-10.7807
▁mostly	-10.7808
▁turns	-10.7817
▁input	-10.783
▁25	-10.7845
▁torn	-10.7849
▁renting	-10.7852
▁gold	-10.7854
▁18	-10.7868
▁packing	-10.7872
g	-10.7881
▁eggs	-10.7895
▁till	-10.791
▁resting	-10.7912
▁necklace	-10.7915
▁mouse	-10.7915
▁paintings	-10.7919
▁kick	-10.7922
▁value	-10.7928
▁booth	-10.7935
▁clock	-10.7941
▁stain	-10.7947
▁refill	-10.7956
▁colored	-10.8
▁designs	-10.8003
▁See	-10.8008
▁swap	-10.8016
▁Ah	-10.8017
▁buyers	-10.8032
the	-10.804
▁award	-10.8048
▁scratch	-10.8053
▁burden	-10.8055
▁create	-10.8062
▁jeans	-10.8063
▁embassy	-10.8063
▁fancy	-10.8063
▁Sales	-10.8063
▁ambulance	-10.8063
▁batteries	-10.8063
▁community	-10.8063
▁ourselves	-10.8064
▁briefly	-10.8065
▁lowest	-10.8066
▁automatic	-10.8067
▁expired	-10.8067
▁server	-10.8082
▁commute	-10.8096
▁additionally	-10.8096
▁produced	-10.8097
▁circumstances	-10.8101
certainly	-10.811
▁produce	-10.8146
▁win	-10.8147
▁printing	-10.816
▁Hall	-10.8179
▁contains	-10.8185
▁lend	-10.8189
▁spread	-10.8201
▁relationship	-10.8226
▁afterward	-10.823
▁skirt	-10.8232
▁jam	-10.8233
▁notebook	-10.8234
▁partner	-10.8236
▁belt	-10.8285
▁complaint	-10.8306
▁sti	-10.8325
▁pad	-10.8327
▁drivers	-10.8351
▁energy	-10.8375
▁Kimchi	-10.8375
▁temple	-10.8375
▁Sometimes	-10.8376
▁tennis	-10.8376
▁expand	-10.8376
▁shaking	-10.8376
▁warranty	-10.8376
▁supply	-10.8377
▁carried	-10.838
▁developed	-10.8389
▁stations	-10.8392
▁reissued	-10.8392
▁trim	-10.8393
▁announced	-10.8394
▁court	-10.8395
▁names	-10.8397
▁June	-10.8402
▁throat	-10.8402
▁earrings	-10.8405
▁visitors	-10.8414
body	-10.8415
▁3-	-10.8418
▁contain	-10.8444
▁complex	-10.8446
bout	-10.8465
▁term	-10.8475
▁anytime	-10.8481
▁passengers	-10.8486
I	-10.849
c	-10.8505
▁balance	-10.852
ma	-10.8522
thing	-10.8533
▁strength	-10.8544
▁catalog	-10.8544
▁popcorn	-10.8544
▁risk	-10.8546
▁venue	-10.8547
▁mid	-10.8554
▁agent	-10.8555
▁voucher	-10.8557
▁300	-10.8562
▁nurse	-10.8576
▁weigh	-10.8579
▁trips	-10.8591
▁lives	-10.86
▁super	-10.8624
▁arrives	-10.8625
▁cable	-10.8643
▁bell	-10.8647
▁groups	-10.866
▁upgrade	-10.868
▁shoot	-10.8682
▁ma	-10.8683
▁America	-10.8684
▁unexpected	-10.8695
▁proud	-10.8698
▁six	-10.8698
▁calories	-10.8698
▁compensation	-10.8698
▁hospitalization	-10.8698
▁underwear	-10.8699
▁patch	-10.8699
▁upstairs	-10.8699
▁bland	-10.87
▁entry	-10.8703
▁iron	-10.8705
us	-10.8706
▁billion	-10.8706
▁roads	-10.8716
▁40,000	-10.8726
▁shortly	-10.8727
▁pressed	-10.8733
▁gathering	-10.8735
▁Asian	-10.8739
▁brush	-10.874
▁click	-10.8741
▁cakes	-10.8749
ers	-10.875
▁load	-10.8753
▁dyed	-10.8758
▁reporting	-10.8765
▁recommendations	-10.8836
ry	-10.8843
▁track	-10.8857
▁hurting	-10.8868
▁demand	-10.8877
▁egg	-10.888
▁textbook	-10.8891
▁pillow	-10.8891
▁executive	-10.8891
▁voice	-10.8891
▁uses	-10.8895
▁recommendation	-10.8896
nce	-10.8899
▁sheet	-10.8903
▁indoor	-10.8915
▁designer	-10.8917
▁opens	-10.8944
w	-10.8969
▁lift	-10.9017
▁settle	-10.9023
▁action	-10.9028
▁scalp	-10.9031
▁Taiwan	-10.9031
▁Usually	-10.9031
▁terribly	-10.9031
▁allowance	-10.9031
▁themselves	-10.9031
made	-10.9033
▁golf	-10.9035
▁woman	-10.9038
▁mood	-10.9039
▁Cup	-10.904
▁conducted	-10.9044
▁correctly	-10.9053
▁worker	-10.9058
▁Every	-10.9059
▁improved	-10.9062
▁helps	-10.9065
▁lying	-10.9066
▁pour	-10.9072
▁heels	-10.9076
▁removed	-10.9087
▁skills	-10.9088
▁Be	-10.9089
▁freely	-10.909
▁falling	-10.909
▁noon	-10.9107
▁lived	-10.9118
▁entering	-10.9124
all	-10.9126
▁wh	-10.915
▁mode	-10.9161
▁models	-10.9165
▁g	-10.9173
▁affect	-10.9176
▁happening	-10.9177
▁differences	-10.9205
▁cap	-10.9208
▁Ca	-10.9208
D	-10.9208
▁accounts	-10.9209
▁adding	-10.9223
▁exceed	-10.9227
▁agenda	-10.9231
▁beverage	-10.9236
▁drug	-10.9236
way	-10.9238
▁negotiation	-10.9241
▁leftover	-10.9244
▁spoon	-10.9244
▁Americano	-10.9252
▁relative	-10.9256
▁word	-10.9276
▁multi	-10.9301
▁exchang	-10.9331
▁stretch	-10.934
▁relieve	-10.9347
▁assign	-10.9369
▁purple	-10.9376
▁impact	-10.9376
▁facial	-10.9376
▁motorcycle	-10.9376
▁occurred	-10.9376
▁Tomorrow	-10.9377
▁coach	-10.9377
▁assist	-10.9377
▁graduating	-10.9378
▁Paris	-10.9378
▁clinic	-10.9378
▁participating	-10.9378
▁communication	-10.9378
▁choosing	-10.9378
▁rude	-10.9378
▁awesome	-10.938
▁difficulties	-10.9381
▁peach	-10.9381
▁perfectly	-10.9382
▁proof	-10.9391
▁Day	-10.9393
▁nuts	-10.9396
▁Instead	-10.9397
▁ribs	-10.9404
▁link	-10.9412
▁patients	-10.9417
▁seasoned	-10.9419
▁promoted	-10.9421
▁spending	-10.9428
▁expecting	-10.9437
▁organiz	-10.9447
▁purchases	-10.9457
▁dogs	-10.9477
▁co	-10.9481
p	-10.949
▁filling	-10.9502
▁drugs	-10.9517
▁custom	-10.9523
▁wave	-10.9536
▁measure	-10.9578
red	-10.9578
▁notification	-10.9589
▁envelope	-10.9591
▁regulation	-10.9593
▁pepper	-10.9604
▁seller	-10.9605
▁experiences	-10.963
▁benefit	-10.9632
▁mess	-10.9673
▁23	-10.9677
▁seasoning	-10.9684
coming	-10.9685
▁loose	-10.9685
▁sometime	-10.9685
▁meant	-10.9706
▁announce	-10.9708
▁quote	-10.971
▁flow	-10.9715
side	-10.9718
▁invite	-10.9724
▁honor	-10.9725
▁200	-10.9726
▁BTS	-10.9731
▁knife	-10.9733
▁reflect	-10.9733
▁Hotel	-10.9733
▁external	-10.9733
▁evidence	-10.9733
▁basketball	-10.9733
▁elderly	-10.9733
▁drank	-10.9733
▁downstairs	-10.9733
▁slippers	-10.9733
▁replacement	-10.9734
▁installation	-10.9734
▁Re	-10.9737
▁Same	-10.9739
▁log	-10.974
▁flexible	-10.9741
▁offline	-10.9742
▁hello	-10.9742
▁upper	-10.9742
▁naturally	-10.9745
▁nobody	-10.9746
▁errors	-10.975
ness	-10.9757
▁shorter	-10.976
▁decreased	-10.9761
▁cookies	-10.9762
▁13	-10.9762
▁1-	-10.9763
▁grown	-10.9769
▁machines	-10.977
▁reasonable	-10.9774
▁mix	-10.9776
▁sum	-10.9778
rew	-10.9796
▁reduced	-10.9798
ir	-10.9805
▁speaking	-10.9819
▁businesses	-10.9832
▁agreed	-10.9841
▁secure	-10.9843
▁hotels	-10.9854
▁processing	-10.986
ver	-10.9867
so	-10.9886
▁offering	-10.9889
▁prove	-10.9907
check	-10.9921
▁differs	-10.9925
C	-10.993
▁excuse	-10.9935
▁IT	-10.994
▁blouse	-10.9946
▁70	-10.9951
▁kiosk	-10.9957
▁girl	-10.9958
▁extension	-10.9961
▁knee	-10.9972
▁ratio	-10.9979
▁waist	-10.9983
▁shoulders	-11.0008
▁characters	-11.0011
▁sun	-11.0013
▁bite	-11.0022
▁soap	-11.0032
▁anti	-11.004
▁ears	-11.0047
▁soda	-11.0048
▁East	-11.0057
▁Ji	-11.0065
▁functions	-11.0072
▁surprise	-11.0084
▁painful	-11.0101
▁crazy	-11.0103
▁Thailand	-11.0103
▁reception	-11.0103
▁quotation	-11.0103
▁lamb	-11.0103
▁feedback	-11.0103
▁intersection	-11.0103
▁stiff	-11.0104
▁French	-11.0104
▁series	-11.0104
▁memory	-11.0104
▁squid	-11.0104
▁flour	-11.0104
▁reply	-11.0104
▁Nice	-11.0104
▁refreshing	-11.0105
▁altogether	-11.0105
▁deliveries	-11.0105
▁personality	-11.0106
▁Germany	-11.0109
▁annoying	-11.0109
▁accommodate	-11.011
▁seriously	-11.0111
▁fortunate	-11.0112
▁reschedule	-11.0119
▁digit	-11.0127
▁hardest	-11.0128
▁incident	-11.013
▁schedules	-11.0136
▁saved	-11.0141
▁updated	-11.0143
▁vote	-11.0148
▁negotiate	-11.0154
▁drops	-11.0176
▁ability	-11.0186
ory	-11.0239
▁twin	-11.0242
▁unusual	-11.025
ish	-11.0259
▁Te	-11.0269
▁Na	-11.0272
▁idols	-11.0302
ne	-11.0312
▁bandage	-11.0319
▁differ	-11.0319
▁sites	-11.0323
▁prize	-11.0337
▁souvenirs	-11.0337
▁locker	-11.0347
▁applicant	-11.0348
▁drawer	-11.0351
te	-11.036
▁shade	-11.0365
▁lip	-11.038
▁clubs	-11.0383
▁canceling	-11.041
▁paint	-11.0413
▁files	-11.0434
▁slip	-11.0439
▁records	-11.0443
▁blankets	-11.0449
▁star	-11.0452
▁audit	-11.0452
▁exclud	-11.0453
one	-11.046
room	-11.047
▁reissue	-11.047
▁compensate	-11.0475
▁de	-11.0478
▁paste	-11.0483
▁accurate	-11.0486
▁Jamsil	-11.0488
▁greasy	-11.0488
▁bulgogi	-11.0488
▁cabbage	-11.0488
▁Recently	-11.0488
▁sunscreen	-11.0488
▁manpower	-11.0488
▁strawberry	-11.0488
▁exciting	-11.0488
▁shelf	-11.0489
▁resources	-11.0492
▁sky	-11.0493
▁branches	-11.0494
▁USB	-11.0495
▁landing	-11.0499
▁Wi	-11.0502
▁valid	-11.0503
▁brands	-11.0508
▁cheer	-11.0519
▁characteristics	-11.052
▁born	-11.052
▁lock	-11.0522
▁narrow	-11.0523
▁sleepy	-11.0538
▁suite	-11.0539
▁80,000	-11.0546
000	-11.055
▁departments	-11.0551
▁Ma	-11.0557
▁units	-11.0574
▁painkillers	-11.0581
▁screening	-11.0586
▁smart	-11.0594
▁supplements	-11.0604
▁14	-11.0615
km	-11.0649
▁Assistan	-11.0661
▁defects	-11.0671
▁rough	-11.068
▁windows	-11.0714
▁volunteer	-11.0718
▁strap	-11.0727
▁wrist	-11.073
▁smartphone	-11.0735
▁sessions	-11.0748
▁passenger	-11.0763
of	-11.0767
▁ca	-11.0772
ance	-11.0773
Fi	-11.0774
▁chart	-11.0776
▁cultur	-11.0788
▁drawing	-11.0798
ese	-11.0805
▁jump	-11.0813
ar	-11.0817
▁reports	-11.0829
u	-11.0847
▁chew	-11.0869
order	-11.0881
▁toys	-11.0883
▁exclusive	-11.0885
▁calendar	-11.0888
▁honeymoon	-11.0888
▁earthquake	-11.0888
▁possibility	-11.0888
▁maintenance	-11.0888
▁resignation	-11.0888
▁ballpoint	-11.0888
▁cooperation	-11.0888
▁sightseeing	-11.0888
▁translation	-11.0888
▁skincare	-11.0889
▁discussion	-11.089
▁True	-11.0891
▁participants	-11.0892
▁popularity	-11.0893
▁useful	-11.0895
▁everywhere	-11.0895
▁etc	-11.0898
▁league	-11.0899
▁accordingly	-11.0902
▁promised	-11.0903
▁edit	-11.0905
▁Dad	-11.0905
▁stressed	-11.0906
▁grilled	-11.0909
▁revised	-11.0921
▁invest	-11.0922
▁lacking	-11.0929
▁Co	-11.0931
▁explained	-11.094
▁reviewed	-11.0945
▁rates	-11.0951
▁lessons	-11.0973
▁21	-11.0977
▁filed	-11.1003
▁headquarters	-11.1014
▁designed	-11.1018
type	-11.102
▁inquire	-11.1024
▁friendly	-11.1032
▁spoons	-11.105
▁notes	-11.1054
▁beverages	-11.1054
▁forms	-11.1076
▁figures	-11.1083
line	-11.1129
▁upon	-11.1136
▁channels	-11.1141
▁succeed	-11.1145
▁workshop	-11.1148
▁count	-11.1158
▁cabin	-11.1159
▁occur	-11.1159
▁newspaper	-11.1162
▁vegetable	-11.1163
▁Any	-11.118
▁bowls	-11.1206
▁kilo	-11.1208
▁weekday	-11.1211
▁mistakes	-11.1229
ped	-11.1238
▁bean	-11.1246
▁port	-11.1252
▁respond	-11.1279
▁realize	-11.1285
▁supplement	-11.1287
▁Dong	-11.1288
▁transit	-11.1299
▁obvious	-11.13
▁illegal	-11.1301
▁contest	-11.1302
&	-11.1303
▁Tokyo	-11.1303
▁Excel	-11.1303
▁palace	-11.1303
▁earliest	-11.1303
▁OK	-11.1304
▁duck	-11.1304
▁analysis	-11.1304
▁exhausted	-11.1304
▁moisturizing	-11.1304
▁currencies	-11.1304
▁incurred	-11.1305
▁underground	-11.1305
▁Order	-11.1305
▁unfortunately	-11.1306
▁promoting	-11.1306
▁administration	-11.1306
▁practicing	-11.1307
▁disappointing	-11.1308
▁restocked	-11.1309
▁recovery	-11.131
▁cleansing	-11.1311
0%	-11.1311
▁charging	-11.1311
▁debt	-11.1312
▁cooperate	-11.1312
▁Mina	-11.1313
▁flying	-11.1313
▁importer	-11.1313
▁highway	-11.1314
▁16	-11.1315
▁freeze	-11.1316
▁X	-11.1319
▁strict	-11.132
▁previously	-11.1321
▁stuffy	-11.1326
▁built	-11.1329
▁signal	-11.1329
▁relations	-11.1332
issuance	-11.1332
▁mushrooms	-11.1345
▁regret	-11.1345
efore	-11.1345
▁timetable	-11.1358
▁peanuts	-11.1374
aid	-11.1378
▁played	-11.1384
▁differently	-11.1416
▁supporting	-11.1425
▁19	-11.1447
ive	-11.1466
▁pro	-11.1482
▁Onl	-11.1495
▁complaints	-11.1495
▁fight	-11.1536
P	-11.1537
▁income	-11.1541
ring	-11.1543
▁tv	-11.1544
▁aside	-11.1556
▁path	-11.1563
talked	-11.1574
▁revision	-11.1576
▁network	-11.1579
▁congratulate	-11.1588
▁liquids	-11.1591
▁seniors	-11.1591
▁audience	-11.1592
dong	-11.16
▁dance	-11.1615
▁env	-11.1615
▁curl	-11.1619
▁h	-11.1624
▁Bus	-11.164
▁exams	-11.1642
▁phones	-11.1662
▁hamburgers	-11.1706
▁dispos	-11.171
▁conduct	-11.1712
▁delete	-11.1717
▁consult	-11.1733
▁proper	-11.1735
▁Probably	-11.1738
▁Starbucks	-11.1738
▁allergy	-11.1738
▁fridge	-11.1738
▁mileage	-11.1738
▁suspension	-11.1738
▁television	-11.1738
▁Southeast	-11.1738
▁Summer	-11.1738
▁sunglasses	-11.1738
▁March	-11.1738
▁dizzy	-11.1738
▁dancing	-11.1738
▁detour	-11.1738
▁clearance	-11.1738
▁wonderful	-11.1739
▁itchy	-11.1739
▁Tower	-11.1739
▁aisle	-11.1739
▁Lotte	-11.174
▁studies	-11.174
▁peaches	-11.1741
▁sharp	-11.1743
month	-11.1745
▁Boss	-11.1745
▁fold	-11.1746
▁pity	-11.1746
▁tuition	-11.1747
▁fashion	-11.1748
▁combination	-11.1748
▁plot	-11.1749
▁chili	-11.175
%	-11.1751
▁gray	-11.1752
▁500,000	-11.1753
▁taxes	-11.1754
▁pickup	-11.1756
▁caffeine	-11.1757
▁departed	-11.1762
▁everyday	-11.1767
▁feature	-11.1771
▁somewhat	-11.1771
▁boiled	-11.1774
▁mecha	-11.1785
▁operated	-11.1786
▁3.	-11.179
▁peak	-11.1792
▁referr	-11.1792
▁solved	-11.1802
▁markets	-11.1805
▁ha	-11.1807
▁sofa	-11.1811
▁languages	-11.1813
▁reader	-11.1814
▁nutrition	-11.1814
▁dumplings	-11.1824
▁Won	-11.1825
▁toner	-11.1862
▁Q	-11.1882
as	-11.1885
▁takeout	-11.1885
▁meds	-11.1893
▁r	-11.1896
▁rare	-11.1905
ach	-11.191
▁sheets	-11.1924
▁tips	-11.1931
nical	-11.1933
▁l	-11.1964
▁recover	-11.1973
smoking	-11.1977
M	-11.2021
▁premium	-11.2031
▁scholarship	-11.2038
▁singers	-11.2042
▁watermelon	-11.2047
▁bicycle	-11.2048
▁magazine	-11.2051
▁headquarter	-11.2051
▁conversation	-11.2052
▁suggestion	-11.2053
▁responses	-11.2059
ch	-11.2059
▁complain	-11.2074
city	-11.2087
like	-11.2127
▁medicines	-11.2132
▁interviews	-11.2144
ether	-11.2144
▁250	-11.2145
▁feed	-11.2146
▁begins	-11.2149
▁checkup	-11.2178
▁YouTube	-11.2186
▁CCTV	-11.2192
▁Christmas	-11.2192
▁bibimbap	-11.2192
▁ceiling	-11.2192
▁church	-11.2192
▁criteria	-11.2192
▁bridge	-11.2192
▁buffet	-11.2192
▁playground	-11.2193
▁fountain	-11.2193
▁documentary	-11.2193
▁scenery	-11.2193
▁hassle	-11.2193
▁alarm	-11.2193
▁consideration	-11.2194
▁smoothly	-11.2194
▁himself	-11.2194
▁Rice	-11.2194
▁involved	-11.2195
▁Yea	-11.2196
▁challenge	-11.2197
▁crying	-11.2198
▁desired	-11.2198
▁vary	-11.2199
▁everybody	-11.22
▁beauty	-11.2202
▁150,000	-11.2203
▁land	-11.2203
▁bedding	-11.2203
▁Sh	-11.2204
▁stronger	-11.2206
▁coughing	-11.2207
▁uploaded	-11.2207
▁cooler	-11.2207
▁seven	-11.2211
urrently	-11.2213
▁dating	-11.2213
▁fax	-11.2214
▁discussed	-11.2215
▁considered	-11.2216
▁congratulations	-11.2216
▁performances	-11.2218
▁aerobic	-11.2219
▁relieved	-11.2219
▁recorded	-11.2224
▁bare	-11.2227
▁Soup	-11.2228
▁dying	-11.2235
▁experiment	-11.2251
▁80	-11.2255
▁animals	-11.2263
▁managed	-11.2263
eep	-11.2264
▁V	-11.2268
▁handled	-11.2285
▁repairs	-11.2286
▁hat	-11.2291
▁provides	-11.2291
▁Young	-11.2298
▁picky	-11.2308
▁bear	-11.231
▁vitamins	-11.2313
ad	-11.2323
▁lips	-11.2354
▁ease	-11.2381
▁slice	-11.2395
▁wi	-11.2425
shirts	-11.2427
▁competitors	-11.2428
▁specialize	-11.2434
▁neat	-11.2444
▁swim	-11.2446
▁cafes	-11.2447
▁119	-11.2469
ntil	-11.2475
▁knowing	-11.2482
▁labor	-11.2512
▁cough	-11.2513
▁connection	-11.252
▁bouquet	-11.252
▁fingerprint	-11.2525
▁album	-11.2526
▁artwork	-11.2528
▁novel	-11.2529
▁operations	-11.2535
▁covers	-11.2543
▁vi	-11.2544
ite	-11.2545
▁matters	-11.2546
▁degree	-11.2548
▁suppos	-11.2585
▁possibl	-11.261
▁introduc	-11.2615
4	-11.2617
▁cart	-11.2623
▁seconds	-11.2626
she	-11.264
come	-11.2642
▁Bo	-11.265
▁German	-11.2661
▁ATM	-11.2669
▁April	-11.2669
▁December	-11.2669
▁Deputy	-11.2669
▁Hanbok	-11.2669
▁Pilates	-11.2669
▁cereal	-11.2669
▁modify	-11.2669
▁ridiculous	-11.2669
▁thirsty	-11.2669
▁supermarket	-11.2669
▁unlimited	-11.2669
▁factories	-11.2669
▁ferry	-11.2669
▁slippery	-11.2669
▁priority	-11.2669
▁bullet	-11.2669
▁itinerary	-11.2669
▁studio	-11.2669
▁silver	-11.2669
▁accompany	-11.2669
▁toothpaste	-11.2669
▁genre	-11.267
▁Canada	-11.267
▁ordinary	-11.2671
▁rock	-11.2672
▁belongings	-11.2673
▁12,000	-11.2674
▁unlike	-11.2674
▁activity	-11.2677
▁favorable	-11.2678
▁artificial	-11.268
▁ripped	-11.268
▁scarf	-11.2681
▁sickness	-11.2682
▁singing	-11.2682
▁scale	-11.2684
▁smallest	-11.2685
▁cutting	-11.2686
▁Up	-11.2687
▁scissors	-11.269
▁finding	-11.2697
iddle	-11.2706
▁ignore	-11.271
▁filming	-11.2713
▁arranged	-11.2714
▁teaching	-11.2716
▁attract	-11.2721
▁sleeves	-11.2723
▁yours	-11.2725
rench	-11.2727
▁affairs	-11.2728
▁hole	-11.274
▁origin	-11.2743
L	-11.2749
▁17	-11.2749
ray	-11.2751
▁rear	-11.2751
▁sooner	-11.2753
▁players	-11.2765
▁2-	-11.2771
use	-11.2778
▁posting	-11.2779
▁conditioning	-11.2787
▁recall	-11.2789
▁floors	-11.2815
▁advertisements	-11.2824
▁investigate	-11.2827
ment	-11.283
▁jobs	-11.2834
▁plant	-11.2834
▁steam	-11.2869
▁His	-11.2871
▁scenes	-11.2904
▁packages	-11.2914
▁containers	-11.2915
▁Put	-11.2921
▁accidents	-11.2921
▁pencils	-11.2951
▁towards	-11.2953
▁electronics	-11.2986
▁crosswalk	-11.3005
▁breathe	-11.3007
▁blind	-11.3009
▁spill	-11.302
▁mackerel	-11.302
▁operates	-11.302
▁pamphlet	-11.3022
▁americano	-11.3024
▁superior	-11.3024
▁bracelet	-11.3025
▁uniform	-11.3027
▁god	-11.3028
▁career	-11.3038
▁ad	-11.3045
▁Min	-11.3054
▁shrimps	-11.3055
▁compar	-11.3055
▁pricey	-11.3069
▁cigarette	-11.307
▁pairs	-11.3075
▁wage	-11.3078
▁author	-11.3111
▁sport	-11.3125
▁plug	-11.3143
▁signs	-11.3143
▁dis	-11.3145
▁discomfort	-11.3146
▁nurs	-11.3147
▁publish	-11.3154
▁toothbrush	-11.3166
▁Apparently	-11.3169
▁Nowadays	-11.3169
▁discontinued	-11.3169
▁ginseng	-11.3169
▁identity	-11.3169
▁absence	-11.3169
▁grandmother	-11.3169
▁vanilla	-11.3169
▁Terminal	-11.3169
▁exemption	-11.3169
▁capital	-11.3169
▁lemon	-11.3169
▁stomachache	-11.3169
▁mild	-11.3169
▁teeth	-11.3169
▁category	-11.3169
▁Pork	-11.3169
▁settlement	-11.3169
▁245	-11.317
▁dead	-11.3171
▁portable	-11.3171
▁assistance	-11.3172
▁handling	-11.3172
▁suffer	-11.3173
▁paperwork	-11.3173
▁chest	-11.3177
▁PR	-11.3178
▁Children	-11.3179
▁darker	-11.3179
▁General	-11.3179
▁exceeded	-11.318
▁resolved	-11.318
▁growth	-11.3181
▁Time	-11.3181
▁matches	-11.3182
▁generally	-11.3184
▁worries	-11.3187
tional	-11.319
▁Dear	-11.3193
▁indicated	-11.3195
▁ear	-11.3196
▁host	-11.3196
▁faulty	-11.3197
▁invited	-11.3199
▁font	-11.3204
▁deposited	-11.3206
▁collected	-11.3209
▁approve	-11.321
▁passes	-11.3212
▁introduction	-11.3213
▁majored	-11.3214
▁autumn	-11.3217
▁growing	-11.3218
appy	-11.3232
▁funds	-11.3241
severance	-11.3244
top	-11.3259
▁8,000	-11.3284
size	-11.3305
▁stickers	-11.3305
▁insert	-11.3311
▁degrees	-11.3319
▁artworks	-11.3319
together	-11.3322
▁kilos	-11.3339
▁knees	-11.3349
▁technical	-11.3357
▁breath	-11.3358
aking	-11.3373
▁inner	-11.3375
▁packaged	-11.3377
piece	-11.34
off	-11.3403
▁midterms	-11.3415
B	-11.342
hanging	-11.3422
▁5-	-11.3432
wrap	-11.3454
our	-11.3455
▁situations	-11.3478
"	-11.3481
▁worrying	-11.3485
▁fift	-11.349
▁presents	-11.3496
▁testing	-11.3514
▁bu	-11.3526
▁fail	-11.3532
▁treadmill	-11.3539
▁failure	-11.3539
▁recruits	-11.3542
▁lodging	-11.3544
▁shift	-11.3548
▁suitcase	-11.355
▁ingredient	-11.3551
▁disease	-11.3551
▁gown	-11.3551
▁sticker	-11.3559
▁pattern	-11.3559
▁gel	-11.3562
▁rose	-11.3569
▁advertise	-11.357
▁buildings	-11.3597
▁spots	-11.3598
▁aftersale	-11.3648
▁loan	-11.3652
▁finals	-11.3657
▁provid	-11.3671
▁flash	-11.3684
▁writer	-11.3691
▁Museum	-11.3695
▁Singapore	-11.3695
▁Spanish	-11.3695
▁accessories	-11.3695
▁garbage	-11.3695
▁mascara	-11.3695
▁phrase	-11.3695
▁forecast	-11.3695
▁dairy	-11.3695
▁Yesterday	-11.3695
▁gallery	-11.3695
▁lawsuit	-11.3695
▁messenger	-11.3695
▁KTX	-11.3695
▁absent	-11.3695
▁village	-11.3695
▁Business	-11.3695
▁River	-11.3695
▁lady	-11.3695
▁quiz	-11.3695
▁randomly	-11.3695
▁acne	-11.3696
▁radio	-11.3696
▁otherwise	-11.3696
▁refrain	-11.3696
▁Anyway	-11.3696
▁troublesome	-11.3697
▁cruise	-11.3697
▁sufficient	-11.3697
▁trading	-11.3699
▁talented	-11.37
▁credits	-11.3701
▁freezer	-11.3702
▁science	-11.3702
▁chewy	-11.3703
▁neighbor	-11.3704
▁notified	-11.3705
▁reflected	-11.3706
▁flu	-11.3708
▁boots	-11.371
▁mis	-11.3711
▁gathered	-11.3712
▁bitter	-11.3713
▁1000	-11.3713
▁advertised	-11.3718
▁logo	-11.372
▁shooting	-11.3721
slept	-11.3721
▁suggested	-11.3723
▁subtitles	-11.3723
▁bunch	-11.3725
▁adjusted	-11.3727
▁60,000	-11.3735
▁closely	-11.3736
▁borrowed	-11.3738
▁trending	-11.3738
▁touched	-11.3739
▁calculated	-11.374
▁dorm	-11.3743
▁tracking	-11.3745
▁leading	-11.3757
▁snow	-11.3769
▁supported	-11.3772
▁postponed	-11.3778
▁stored	-11.379
▁st	-11.3798
▁answering	-11.3801
▁spices	-11.3802
▁tissues	-11.381
▁decent	-11.3815
connecting	-11.3817
▁mass	-11.3821
▁pages	-11.3846
▁uniforms	-11.3846
▁wipe	-11.3862
▁suggestions	-11.3862
▁summarize	-11.3867
▁shared	-11.3879
ent	-11.3906
▁protect	-11.3907
ling	-11.391
▁"	-11.3913
▁executives	-11.3923
▁rise	-11.3925
▁wire	-11.3938
▁digest	-11.3974
▁earn	-11.3981
▁aid	-11.3984
til	-11.3994
▁toy	-11.4016
▁respect	-11.4085
▁soybean	-11.4089
▁warning	-11.4092
50,000	-11.4094
▁vessel	-11.4094
▁preference	-11.4106
▁interval	-11.4107
▁lid	-11.4109
ful	-11.4111
▁minor	-11.4119
▁li	-11.412
▁vehicles	-11.4124
▁trains	-11.4126
ul	-11.4127
▁saving	-11.414
▁truck	-11.4152
▁4.	-11.4189
▁matern	-11.4226
▁guarantee	-11.423
▁purposes	-11.4231
▁imagine	-11.4234
▁assemble	-11.4235
▁luck	-11.4243
▁renew	-11.4246
▁competitive	-11.425
▁Switzerland	-11.425
▁VAT	-11.425
▁allergies	-11.425
▁efficiency	-11.425
▁eyeliner	-11.425
▁jealous	-11.425
▁karaoke	-11.425
▁prettier	-11.425
▁recognition	-11.425
▁barcode	-11.425
▁fantastic	-11.425
▁interpretation	-11.425
▁Bluetooth	-11.4251
▁coriander	-11.4251
▁celebration	-11.4251
▁organic	-11.4251
▁forehead	-11.4251
▁zipper	-11.4251
▁moisture	-11.4251
▁sector	-11.4252
▁France	-11.4252
▁diarrhea	-11.4252
▁annex	-11.4253
▁stopping	-11.4253
▁deciding	-11.4253
▁managing	-11.4255
▁clause	-11.4257
▁global	-11.4263
▁attitude	-11.4264
▁drip	-11.4264
▁title	-11.427
▁approximately	-11.4271
▁evacuate	-11.4273
▁sexual	-11.4274
fuel	-11.428
▁reducer	-11.429
ur	-11.4292
▁burning	-11.4295
▁sweating	-11.4295
▁roof	-11.4295
▁bone	-11.4303
▁bath	-11.4311
▁needle	-11.4314
▁sharing	-11.4316
round	-11.4321
▁likes	-11.4324
▁comments	-11.4328
▁eyebrows	-11.4329
▁components	-11.4329
▁cucumbers	-11.4329
mL	-11.4331
▁desp	-11.4349
aught	-11.435
▁touching	-11.4354
▁colleagues	-11.4362
▁stands	-11.4383
▁150	-11.4387
oke	-11.4393
▁explaining	-11.4421
floor	-11.4424
▁occurs	-11.4446
▁economic	-11.4453
▁boil	-11.4479
▁leftovers	-11.4485
▁exception	-11.4495
▁vouchers	-11.45
▁memo	-11.4512
▁difficulty	-11.4514
el	-11.4528
▁hell	-11.4535
▁mart	-11.4573
issuing	-11.4573
▁installments	-11.4591
▁remain	-11.4653
▁promise	-11.4661
▁infection	-11.4676
▁scandal	-11.4682
▁sibling	-11.4682
▁invitation	-11.4687
▁essay	-11.4687
▁cardigan	-11.4689
▁episode	-11.4691
▁painkiller	-11.4697
▁filter	-11.4698
▁applications	-11.4712
▁35	-11.4713
▁shake	-11.4715
▁serving	-11.4724
be	-11.4727
▁Whi	-11.4729
▁bug	-11.4742
king	-11.4753
▁Mi	-11.4776
x	-11.478
▁tube	-11.4787
ical	-11.48
▁disappear	-11.4808
▁Start	-11.4812
▁procedures	-11.4818
▁refuse	-11.4819
▁prescribe	-11.4819
▁approach	-11.4824
▁afford	-11.4835
▁produc	-11.4837
▁thankful	-11.4837
▁Beijing	-11.4839
▁Google	-11.4839
▁Honestly	-11.4839
▁Instagram	-11.4839
▁Perhaps	-11.4839
▁Shinchon	-11.4839
▁cocktail	-11.4839
▁collision	-11.4839
▁garden	-11.4839
▁genuine	-11.4839
▁limousine	-11.4839
▁porridge	-11.4839
▁Luckily	-11.4839
▁vaccination	-11.4839
▁eligible	-11.4839
▁craving	-11.4839
▁description	-11.4839
▁potential	-11.4839
▁harmful	-11.4839
▁pudding	-11.4839
▁rubber	-11.4839
▁duties	-11.4839
▁Subway	-11.4839
▁rotten	-11.4839
▁modern	-11.4839
▁beige	-11.4839
▁Especially	-11.4839
▁permission	-11.4839
▁interpreter	-11.4839
▁catering	-11.4839
▁patent	-11.4839
▁secretary	-11.4839
▁distribution	-11.4839
▁cashier	-11.484
▁constantly	-11.484
▁recruitment	-11.484
▁navy	-11.484
▁repairman	-11.484
▁Spain	-11.484
▁continuously	-11.484
▁coverage	-11.484
▁Western	-11.484
▁refrigerated	-11.4841
▁folder	-11.4841
▁Kpop	-11.4842
▁specialty	-11.4842
▁North	-11.4843
▁euros	-11.4844
▁chips	-11.4846
▁Head	-11.4848
▁sincerely	-11.4848
▁slight	-11.4848
▁camping	-11.4849
▁nature	-11.4849
▁hide	-11.4849
▁Nope	-11.4849
▁lump	-11.4849
▁clerk	-11.485
▁thirty	-11.485
man	-11.4851
▁tasting	-11.4851
▁15%	-11.4851
▁collection	-11.4852
▁inspect	-11.4853
▁moist	-11.4853
▁bothered	-11.4858
▁Hana	-11.486
▁consulting	-11.4863
▁behalf	-11.4865
▁rainy	-11.4866
▁realized	-11.4868
▁reached	-11.4869
▁artifacts	-11.487
▁tru	-11.4876
▁settled	-11.4877
▁recharge	-11.4878
▁created	-11.4879
1	-11.4879
▁declare	-11.488
bsolutely	-11.4889
▁launching	-11.4899
5	-11.4925
▁greatly	-11.4931
▁kill	-11.495
▁tone	-11.4964
▁headed	-11.4979
▁viewing	-11.502
▁magazines	-11.5026
▁pizzas	-11.5051
▁delivering	-11.5061
▁pose	-11.5081
▁240	-11.5082
▁joint	-11.5086
▁Human	-11.509
▁label	-11.5125
▁1,	-11.5128
▁utilize	-11.5138
▁burnt	-11.5143
ious	-11.5146
class	-11.5156
ried	-11.5163
▁pa	-11.5168
▁efforts	-11.5173
ter	-11.5175
ant	-11.5179
go	-11.518
you	-11.5189
▁1.5	-11.5202
▁dri	-11.5223
▁buttons	-11.5226
ial	-11.5226
▁rings	-11.5239
▁27	-11.5241
colored	-11.5246
▁chat	-11.5273
▁bump	-11.528
▁shots	-11.5289
▁subjects	-11.5295
▁engineer	-11.5297
▁toast	-11.5304
▁boy	-11.531
▁compliment	-11.5314
▁supplier	-11.5316
▁costume	-11.5317
▁attendant	-11.5318
▁detergent	-11.5318
▁advantage	-11.5319
▁dislike	-11.5321
▁curtain	-11.5321
▁earphone	-11.5322
▁movement	-11.5323
▁frame	-11.533
▁metal	-11.534
▁tissue	-11.5345
▁nowhere	-11.5348
▁certificates	-11.5358
▁oven	-11.5367
▁Ex	-11.5379
▁con	-11.5389
▁spice	-11.5392
▁noises	-11.5403
▁analyz	-11.5404
▁tooth	-11.5417
▁Ho	-11.5424
▁grill	-11.5438
▁swallow	-11.5448
▁achieve	-11.5448
▁translate	-11.5451
▁pouch	-11.5461
▁robot	-11.5462
)	-11.5464
▁England	-11.5464
▁aircraft	-11.5464
▁apparently	-11.5464
▁corridor	-11.5464
▁inflammation	-11.5464
▁marriage	-11.5464
▁necessarily	-11.5464
▁retrieve	-11.5464
▁satisfaction	-11.5464
▁temporarily	-11.5464
▁terrace	-11.5464
▁vacancies	-11.5464
▁disagree	-11.5464
▁impression	-11.5464
▁smile	-11.5464
▁gradually	-11.5464
▁memorable	-11.5464
▁partnership	-11.5464
▁lonely	-11.5464
▁sunset	-11.5464
▁honey	-11.5464
▁attractive	-11.5464
▁nonsense	-11.5464
▁7:30	-11.5464
▁savory	-11.5464
▁prior	-11.5464
▁mandatory	-11.5464
▁embarrassed	-11.5464
▁Like	-11.5465
▁Driver	-11.5465
▁burst	-11.5465
▁tonkatsu	-11.5465
▁football	-11.5465
▁renewal	-11.5466
▁signboard	-11.5466
▁Coke	-11.5466
▁reality	-11.5466
▁consent	-11.5466
▁recipe	-11.5466
▁knock	-11.5467
▁begun	-11.5467
▁straighten	-11.5467
▁flood	-11.5468
▁handmade	-11.5468
▁dispatched	-11.5469
▁cracked	-11.547
▁parties	-11.5471
▁brighter	-11.5474
▁Jung	-11.5475
▁overnight	-11.5475
▁quietly	-11.5475
▁investors	-11.5478
▁accumulated	-11.548
▁virus	-11.5484
▁extended	-11.5485
▁Year	-11.5489
▁excluded	-11.5491
▁statistics	-11.5494
▁sticky	-11.5497
▁VI	-11.5501
▁tuna	-11.5503
▁upgraded	-11.5504
▁meantime	-11.5506
▁analyze	-11.5506
▁4-	-11.5507
▁grains	-11.5511
▁judge	-11.5511
▁inexpensive	-11.5518
▁soju	-11.552
▁squats	-11.5524
▁rival	-11.5527
▁practical	-11.553
▁tofu	-11.5533
▁pets	-11.5533
▁fly	-11.5534
▁pet	-11.5538
▁Olympics	-11.5543
▁36	-11.5549
▁sprain	-11.5552
▁describe	-11.5554
▁hired	-11.5557
▁Product	-11.5567
▁watches	-11.5569
house	-11.5571
▁fo	-11.5575
▁drying	-11.5586
▁onion	-11.5592
▁methods	-11.5595
2	-11.5595
▁mad	-11.56
over	-11.5605
▁appreciated	-11.5624
▁becoming	-11.5629
▁consist	-11.5636
▁stocked	-11.5639
▁scores	-11.5664
▁Consider	-11.5685
▁Chang	-11.5689
▁bench	-11.5702
box	-11.5723
▁exceeds	-11.573
▁pillows	-11.5737
▁textbooks	-11.5739
▁nurses	-11.5745
▁breaks	-11.5748
▁3,	-11.575
board	-11.5761
▁waiter	-11.5778
▁separated	-11.5782
▁digesti	-11.5783
▁congratulat	-11.5789
▁museums	-11.5806
▁belong	-11.5827
▁articles	-11.5841
▁flat	-11.5843
▁Base	-11.5845
▁ending	-11.5848
view	-11.5854
b	-11.5866
style	-11.5873
▁stars	-11.5885
▁mountains	-11.5895
flavored	-11.5904
▁regard	-11.5925
paid	-11.5929
▁sides	-11.5945
▁leak	-11.5953
▁inject	-11.5957
▁bathtub	-11.5962
▁essential	-11.5962
▁sausage	-11.5962
▁vegan	-11.5962
▁greeting	-11.5971
▁breast	-11.598
▁ages	-11.598
▁nutrient	-11.5982
▁household	-11.5986
▁symptom	-11.5988
▁manner	-11.5991
▁remind	-11.6002
▁structure	-11.6048
▁lesson	-11.6072
▁skipp	-11.6073
▁airlines	-11.6088
▁5,	-11.6094
▁rains	-11.6094
▁locate	-11.6112
▁comfort	-11.6118
▁central	-11.6127
▁examine	-11.6128
▁fluent	-11.6128
▁success	-11.613
▁Cambodia	-11.613
▁Daejeon	-11.613
▁appetite	-11.613
▁cuisine	-11.613
▁ladies	-11.613
▁romantic	-11.613
▁society	-11.613
▁Yongsan	-11.613
▁families	-11.613
▁pilates	-11.613
▁sponge	-11.613
▁handicapped	-11.613
▁SNS	-11.613
▁puppy	-11.613
▁Seul	-11.6131
▁Service	-11.6131
▁observatory	-11.6131
▁pantry	-11.6131
▁supervisor	-11.6131
▁internship	-11.6131
▁sunlight	-11.6131
▁bargain	-11.6131
▁electricity	-11.6131
▁Duty	-11.6131
▁investigation	-11.6131
▁unavailable	-11.6131
▁audio	-11.6131
▁crispy	-11.6132
▁wifi	-11.6132
▁stroller	-11.6132
▁swelling	-11.6134
▁bob	-11.6134
▁rich	-11.6135
▁backward	-11.6135
▁Thankfully	-11.6135
▁hallway	-11.6135
▁incorrectly	-11.6135
▁pension	-11.6138
▁caus	-11.6139
▁countryside	-11.6139
▁visible	-11.6139
▁poorly	-11.614
▁automated	-11.6144
▁combined	-11.6145
ern	-11.6146
▁Office	-11.6147
▁proposed	-11.6149
▁Ha	-11.615
▁200,000	-11.615
▁meaningful	-11.6152
▁edge	-11.6152
▁acceptable	-11.6153
▁guaranteed	-11.6155
▁Find	-11.6155
▁gloves	-11.6156
▁firm	-11.6157
▁incredible	-11.6158
▁strengthen	-11.6162
▁Weren	-11.6169
▁PC	-11.6172
▁humid	-11.6176
▁heater	-11.6178
▁edition	-11.6184
▁candidates	-11.6186
▁drawn	-11.6187
▁5%	-11.6195
▁infants	-11.6195
▁smelled	-11.6202
▁apples	-11.6202
▁tools	-11.6208
▁finishes	-11.6209
▁speeding	-11.6209
▁meters	-11.6211
▁river	-11.6212
▁greater	-11.6224
▁layers	-11.6226
▁towed	-11.6226
▁valuables	-11.6236
▁antibiotics	-11.6246
are	-11.6257
▁scar	-11.6259
▁bend	-11.6263
▁bones	-11.6267
▁manners	-11.6272
▁accommodations	-11.6281
▁kit	-11.6284
▁Were	-11.6288
▁lipsticks	-11.6289
▁noticed	-11.6293
▁spaces	-11.6303
▁dealing	-11.6304
▁convention	-11.6321
▁90	-11.6321
▁disinfect	-11.6343
▁pads	-11.6358
▁Inter	-11.6374
▁shut	-11.6409
▁withdraw	-11.6417
▁ex	-11.6447
ups	-11.645
▁fingers	-11.6468
▁ads	-11.6469
▁continues	-11.6474
patient	-11.6493
▁answers	-11.6502
▁springs	-11.6509
▁230	-11.6546
▁fork	-11.6563
▁hadn	-11.6582
3,000	-11.6583
,500	-11.6594
▁solutions	-11.661
▁Out	-11.6623
▁messages	-11.6623
shaped	-11.6624
▁sat	-11.6628
ill	-11.6632
quality	-11.6635
▁sponsor	-11.6671
▁auditorium	-11.6675
▁joke	-11.6679
▁meaning	-11.6684
▁tumbler	-11.6692
▁interns	-11.6695
▁calculation	-11.6697
▁fluid	-11.6697
▁colleague	-11.6702
▁dumpling	-11.6703
▁vitamin	-11.6703
▁guard	-11.671
▁foreigner	-11.6726
▁tape	-11.6732
▁player	-11.6736
▁houses	-11.6741
sorted	-11.6747
▁treatments	-11.6752
▁trainer	-11.6752
▁melt	-11.6756
▁holder	-11.6765
▁Bu	-11.6779
mong	-11.678
▁26	-11.6791
▁monitors	-11.6798
▁crack	-11.6803
▁releas	-11.6805
raised	-11.6806
▁finalize	-11.6831
▁crash	-11.6836
▁standards	-11.6837
▁28	-11.6839
▁restock	-11.6839
et	-11.6841
▁mosquito	-11.6842
▁precise	-11.6842
▁formula	-11.6845
▁Gwanghwamun	-11.6845
▁amenities	-11.6845
▁cautious	-11.6845
▁conflict	-11.6845
▁constipation	-11.6845
▁glitter	-11.6845
▁humidifier	-11.6845
▁hygiene	-11.6845
▁luxurious	-11.6845
▁remittance	-11.6845
▁ribbon	-11.6845
▁tenderloin	-11.6845
▁platform	-11.6845
▁spiciness	-11.6845
▁Minjung	-11.6845
▁Palace	-11.6845
▁division	-11.6845
▁intensity	-11.6845
▁urine	-11.6845
▁marathon	-11.6845
▁Indeed	-11.6845
▁charcoal	-11.6845
▁Stew	-11.6845
▁identify	-11.6845
▁enteritis	-11.6845
▁retirement	-11.6845
▁cheesecake	-11.6845
▁width	-11.6845
▁strawberries	-11.6845
▁translator	-11.6845
▁burdensome	-11.6845
▁consultant	-11.6845
▁bothersome	-11.6846
▁prayer	-11.6846
▁consistently	-11.6846
▁scanner	-11.6846
▁Besides	-11.6846
▁Gate	-11.6847
▁Italy	-11.6847
▁unfair	-11.6848
▁odd	-11.6849
▁overdue	-11.6849
▁Noodles	-11.6851
▁tomatoes	-11.6851
▁excessive	-11.6854
▁forgotten	-11.6855
▁Apple	-11.6856
▁mustard	-11.6857
▁fairly	-11.6858
▁3000	-11.686
▁active	-11.6862
▁More	-11.6862
▁wrinkles	-11.6862
▁painted	-11.6868
▁rising	-11.6868
▁imagined	-11.6872
▁Hye	-11.6872
▁9:30	-11.6872
▁efficient	-11.6872
▁affected	-11.6872
▁conducting	-11.6874
▁conveniently	-11.6877
▁appeared	-11.6879
▁schools	-11.688
▁dresses	-11.6882
▁stretching	-11.6883
▁locked	-11.6887
▁tear	-11.6888
▁requirements	-11.6894
how	-11.6899
▁beers	-11.6903
▁candles	-11.6906
umber	-11.6906
▁answered	-11.6908
▁restrictions	-11.6926
▁script	-11.6927
▁coin	-11.693
▁sh	-11.6935
▁eight	-11.694
▁sing	-11.6955
▁experts	-11.697
▁Grand	-11.6972
misunderstanding	-11.6983
▁Tak	-11.6987
▁7.	-11.6993
▁pressing	-11.6995
handed	-11.6996
▁servings	-11.701
▁curtains	-11.7011
▁IV	-11.7019
▁participated	-11.7022
▁fishing	-11.7027
ri	-11.7033
▁curls	-11.7057
▁novels	-11.7063
▁1.	-11.7084
▁wa	-11.7095
ke	-11.7111
▁proceeding	-11.7112
▁bandages	-11.7119
▁die	-11.712
▁auto	-11.7125
▁2,	-11.7131
▁receiver	-11.7136
▁polish	-11.7141
▁Ye	-11.7156
▁rolls	-11.7169
▁boxing	-11.7195
▁passports	-11.7204
ny	-11.7214
payment	-11.7223
▁reactions	-11.7224
cy	-11.7225
▁allows	-11.723
▁runn	-11.7239
▁pan	-11.7271
▁differentiate	-11.7273
ine	-11.7274
▁king	-11.7283
▁burns	-11.7289
▁acid	-11.7297
▁tower	-11.7329
▁steame	-11.7332
▁cats	-11.7341
▁Intern	-11.7345
▁redo	-11.7354
gu	-11.736
▁600	-11.7364
▁arms	-11.7365
▁6-	-11.7365
▁amounts	-11.7387
▁overlap	-11.7388
▁plays	-11.7397
▁classic	-11.7398
▁exhibit	-11.7428
▁cameras	-11.7436
▁probation	-11.7452
▁alternative	-11.7455
▁talent	-11.7457
▁liquor	-11.7461
▁adjustment	-11.7461
de	-11.7463
▁junior	-11.7463
▁4,	-11.7467
▁correction	-11.7471
▁cutlet	-11.7472
▁companion	-11.7473
▁profits	-11.7476
▁expert	-11.7486
▁laptops	-11.7486
▁brew	-11.749
▁circle	-11.7493
▁fac	-11.7496
▁Under	-11.7496
▁Da	-11.7497
▁pub	-11.7501
▁violate	-11.7518
▁dip	-11.7518
uxe	-11.754
▁abs	-11.7543
▁rating	-11.7545
▁mu	-11.7555
▁31	-11.7559
▁commercials	-11.7559
▁leads	-11.7561
▁Tom	-11.7561
ook	-11.7564
have	-11.757
▁arrivals	-11.7572
▁intention	-11.7578
▁incredibl	-11.7582
▁manufacture	-11.7586
▁lo	-11.7595
▁photograph	-11.7596
▁Australia	-11.7598
▁accumulate	-11.7599
▁parent	-11.76
age	-11.7604
▁disturb	-11.7604
▁propose	-11.7604
▁surprising	-11.7612
▁Bulgogi	-11.7614
▁London	-11.7614
▁Tteokbokki	-11.7614
▁century	-11.7614
▁certified	-11.7614
▁council	-11.7614
▁criminal	-11.7614
▁injury	-11.7614
▁ketchup	-11.7614
▁modified	-11.7614
▁octopus	-11.7614
▁perhaps	-11.7614
▁preliminar	-11.7614
▁reputation	-11.7614
▁rhinitis	-11.7614
▁Disneyland	-11.7614
▁picnic	-11.7614
▁bloated	-11.7614
▁district	-11.7614
▁hidden	-11.7614
▁vacancy	-11.7614
▁certification	-11.7614
▁photoshoot	-11.7614
▁policies	-11.7614
▁understood	-11.7614
▁Daegu	-11.7614
▁participation	-11.7614
▁problematic	-11.7614
▁Administration	-11.7614
▁lazy	-11.7614
▁Gwangju	-11.7614
▁pleasure	-11.7614
▁bucket	-11.7614
▁jammed	-11.7614
▁Uber	-11.7614
▁passageway	-11.7614
▁tailor	-11.7614
▁sirloin	-11.7614
▁Italian	-11.7615
▁villa	-11.7615
▁hometown	-11.7615
▁yeah	-11.7615
▁drove	-11.7615
▁institute	-11.7616
▁childcare	-11.7616
▁commuting	-11.7616
▁cleanser	-11.7616
▁udon	-11.7616
▁hi	-11.7617
▁documentation	-11.7617
▁selection	-11.7619
▁dining	-11.762
▁unbelievable	-11.7621
▁scratches	-11.7621
▁successfully	-11.7622
▁secretly	-11.7623
▁Thai	-11.7623
▁manufacturer	-11.7624
▁apology	-11.7624
▁renewed	-11.7624
▁honestly	-11.7625
▁severely	-11.7625
▁deduct	-11.7625
▁Yons	-11.7627
▁extent	-11.7627
▁assessment	-11.7629
▁grandfather	-11.7629
▁rehabilitation	-11.7629
▁distributed	-11.7629
▁solid	-11.763
▁determined	-11.7631
▁graph	-11.7632
▁cancelation	-11.7632
▁ab	-11.7633
▁scratched	-11.7634
▁retake	-11.7635
▁gap	-11.7638
▁fighting	-11.764
▁incorrect	-11.7642
▁mold	-11.7643
▁90,000	-11.7647
▁assembly	-11.7648
▁mock	-11.7651
▁aspects	-11.7654
▁pickles	-11.7655
▁appliances	-11.7655
▁headphones	-11.7655
▁coloring	-11.7663
▁boost	-11.7663
▁Wh	-11.767
▁Depend	-11.7671
▁crossing	-11.7674
▁exclude	-11.7676
▁debate	-11.7677
▁J	-11.7677
▁macarons	-11.7679
night	-11.7681
▁roots	-11.7683
▁smoked	-11.7683
▁repeat	-11.7684
▁rope	-11.7686
▁partial	-11.7691
▁producer	-11.7695
▁lightly	-11.7697
▁emails	-11.77
▁nicely	-11.7702
▁streets	-11.7705
can	-11.7714
▁habits	-11.7716
▁foam	-11.7718
▁Pres	-11.7725
▁scents	-11.7726
▁adjusting	-11.7727
▁practiced	-11.773
wear	-11.7744
▁plain	-11.776
▁cooling	-11.776
▁inquir	-11.7776
▁users	-11.7779
▁bake	-11.7802
▁giv	-11.7803
well	-11.781
lso	-11.7829
id	-11.7841
▁eco	-11.7841
▁Gil	-11.7852
▁albums	-11.7852
ely	-11.7862
▁k	-11.7864
▁nor	-11.7885
▁King	-11.7886
ize	-11.7889
▁plants	-11.7898
▁whom	-11.7909
gi	-11.7929
▁ar	-11.7929
esources	-11.7931
▁farm	-11.7934
▁van	-11.7938
ivil	-11.794
▁stains	-11.7942
▁images	-11.7958
▁raised	-11.7971
nned	-11.7974
keeping	-11.7974
▁notebooks	-11.7979
▁forever	-11.7989
▁transactions	-11.8014
▁yen	-11.8017
▁levels	-11.8018
ortunately	-11.8034
water	-11.8041
▁faces	-11.8054
▁root	-11.8054
8,000	-11.8073
ated	-11.8085
cost	-11.81
▁se	-11.8108
▁damages	-11.8125
▁styles	-11.8129
▁8,	-11.8163
▁Fi	-11.817
ipped	-11.8197
omething	-11.82
wrapping	-11.8203
▁influence	-11.8245
hipped	-11.8251
▁grape	-11.8271
▁fi	-11.8273
▁franchise	-11.8279
▁net	-11.8285
▁composition	-11.8288
▁rash	-11.829
▁surcharge	-11.8294
▁Food	-11.8295
▁acquaintance	-11.8301
▁peanut	-11.8305
▁crab	-11.8307
▁concern	-11.8307
by	-11.831
ide	-11.8312
ral	-11.8312
▁cord	-11.8319
ier	-11.8331
▁skill	-11.8353
rs	-11.8363
▁sp	-11.8373
▁mo	-11.8376
▁reduc	-11.8387
▁va	-11.8387
▁easie	-11.8388
▁mango	-11.8403
▁reserv	-11.8406
surely	-11.8416
▁resolve	-11.8428
▁laugh	-11.8429
▁appeal	-11.8431
▁divid	-11.8431
▁dispatch	-11.844
▁batter	-11.8442
▁violent	-11.8444
▁actress	-11.8445
▁smooth	-11.8445
▁eyelash	-11.8445
▁aroma	-11.8447
▁jelly	-11.8447
▁John	-11.8447
▁apologies	-11.8447
▁applicable	-11.8447
▁availability	-11.8447
▁cathedral	-11.8447
▁gimbap	-11.8447
▁interrupt	-11.8447
▁intranet	-11.8447
▁kindergarten	-11.8447
▁muffler	-11.8447
▁questionnaire	-11.8447
▁recession	-11.8447
▁wheelchair	-11.8447
▁whiskey	-11.8447
▁Breakfast	-11.8447
▁military	-11.8447
▁cherry	-11.8447
▁disabled	-11.8447
▁beyond	-11.8447
▁obtain	-11.8447
▁Gimpo	-11.8447
▁unfamiliar	-11.8447
▁unconscious	-11.8447
▁steady	-11.8447
▁surface	-11.8447
▁addictive	-11.8447
▁revenue	-11.8447
▁soundproof	-11.8447
▁trademark	-11.8447
▁ballpark	-11.8447
▁flew	-11.8447
▁Honey	-11.8447
▁disadvantage	-11.8447
▁resolution	-11.8447
▁Finally	-11.8447
▁phenomenon	-11.8447
▁barbequ	-11.8447
▁rooftop	-11.8448
▁starving	-11.8448
▁neither	-11.8448
▁accessory	-11.8448
▁bookshelf	-11.8448
▁Everybody	-11.8448
▁buckwheat	-11.8448
▁diagnosis	-11.8448
▁depressed	-11.8448
▁memories	-11.8448
▁powerful	-11.8448
▁occasionally	-11.8448
▁death	-11.8449
▁Yuna	-11.8449
▁improving	-11.8449
▁chairman	-11.8449
▁debating	-11.8449
▁Fair	-11.8449
▁inevitable	-11.8449
▁chilly	-11.8451
▁diverse	-11.8451
▁duration	-11.8452
▁positively	-11.8455
▁spoke	-11.8455
▁flooded	-11.8456
▁blonde	-11.8457
▁overslept	-11.8458
▁estate	-11.8458
▁continu	-11.8458
▁Hil	-11.8458
▁avocado	-11.8458
▁suffered	-11.8459
▁Marketing	-11.8459
▁400	-11.8459
▁impressed	-11.846
▁verified	-11.8463
▁swipe	-11.8464
▁awful	-11.8464
▁legally	-11.8464
▁Turn	-11.8465
▁quicker	-11.8465
▁freebies	-11.8467
▁messy	-11.8467
▁native	-11.8469
▁reward	-11.8469
▁engineering	-11.8471
▁relaxed	-11.8472
▁flies	-11.8475
▁trendy	-11.8477
▁Firstly	-11.848
▁expectations	-11.848
▁exporter	-11.8482
▁fake	-11.8483
▁seating	-11.8483
▁burned	-11.8484
▁dryer	-11.8485
▁chain	-11.8488
▁doubt	-11.8489
▁projector	-11.8492
▁fund	-11.8494
▁switched	-11.8498
▁loaded	-11.8498
▁tree	-11.8502
▁attractions	-11.8505
▁7,000	-11.8517
▁oysters	-11.8517
▁Hope	-11.8521
▁Koreans	-11.8522
▁exporting	-11.8525
▁burgers	-11.8528
▁somehow	-11.8533
▁lanes	-11.8534
▁courses	-11.8535
▁Write	-11.8538
▁knit	-11.8549
▁discussing	-11.855
▁knows	-11.8555
▁aches	-11.8557
sh	-11.8563
▁supports	-11.8572
▁presented	-11.8576
▁cartons	-11.8579
▁Customers	-11.8581
▁ratings	-11.8586
▁harm	-11.8591
ily	-11.8629
▁lets	-11.8631
▁Think	-11.8635
▁marin	-11.8649
▁remembered	-11.8649
▁comment	-11.865
um	-11.8657
▁shadow	-11.8659
turning	-11.8664
▁wears	-11.8673
▁Too	-11.8679
▁forks	-11.8683
▁India	-11.8696
▁assume	-11.8714
▁9,	-11.8717
▁Su	-11.8742
les	-11.8742
▁newspapers	-11.8745
▁drawers	-11.877
▁priced	-11.8776
▁Use	-11.8776
▁extensions	-11.8782
▁lab	-11.8799
▁5.	-11.8802
▁desks	-11.8802
▁organization	-11.881
▁indoors	-11.8824
▁unma	-11.8836
▁Hot	-11.8856
▁8.	-11.8869
▁7,	-11.8879
▁heal	-11.8879
▁shirts	-11.8883
signing	-11.8899
▁6:30	-11.8903
▁Personal	-11.8924
▁en	-11.8927
▁ba	-11.8928
▁800	-11.8934
sales	-11.8949
▁war	-11.895
K	-11.8959
ro	-11.8963
▁guides	-11.8973
jang	-11.8999
8	-11.9014
▁bathrooms	-11.9043
▁flavors	-11.9046
▁del	-11.9047
▁sa	-11.9054
▁devices	-11.9057
care	-11.908
▁topics	-11.909
▁guardians	-11.9095
▁balls	-11.9097
(	-11.9129
friendly	-11.913
refundable	-11.9138
▁core	-11.9154
here	-11.9157
mi	-11.9172
▁gender	-11.9177
▁boats	-11.9177
▁reference	-11.9181
▁camp	-11.9184
▁recipient	-11.9184
▁affiliate	-11.9184
▁cabinet	-11.9187
▁hangover	-11.9197
300	-11.9202
▁cha	-11.9206
▁beginner	-11.9207
▁targets	-11.9207
▁vendor	-11.9208
ak	-11.9209
▁pineapple	-11.921
▁valuable	-11.9213
▁Customer	-11.9213
▁advanced	-11.9218
▁carton	-11.9233
▁bedroom	-11.9236
▁animal	-11.9241
▁presenter	-11.9246
▁string	-11.9246
▁fares	-11.925
▁wo	-11.925
00,000	-11.9268
▁plac	-11.9278
heating	-11.9282
ki	-11.9287
▁remov	-11.9311
▁improvement	-11.9318
▁adapt	-11.933
▁thesis	-11.9331
3	-11.934
▁annoy	-11.9342
▁climb	-11.9342
▁emphasize	-11.9346
▁speech	-11.9353
▁negative	-11.9353
▁meticulous	-11.9354
▁engine	-11.9354
▁unfortunate	-11.9354
▁Gyeongbok	-11.9356
▁Hongdae	-11.9356
▁PowerPoint	-11.9356
▁TOEIC	-11.9356
▁athletic	-11.9356
▁barbecue	-11.9356
▁conclusion	-11.9356
▁crustaceans	-11.9356
▁garlic	-11.9356
▁harassment	-11.9356
▁hectic	-11.9356
▁principle	-11.9356
▁steadily	-11.9356
▁trekking	-11.9356
▁yogurt	-11.9356
▁Bacon	-11.9356
▁flustered	-11.9356
▁piano	-11.9356
▁bruise	-11.9356
▁Coffee	-11.9356
▁PPT	-11.9356
▁corporation	-11.9356
▁orientation	-11.9356
▁courage	-11.9356
▁bidding	-11.9356
▁Regardless	-11.9356
▁Itaewon	-11.9357
▁HQ	-11.9357
▁stories	-11.9357
▁Black	-11.9357
▁2019	-11.9357
▁freight	-11.9357
▁shaved	-11.9357
▁Rather	-11.9357
▁manufacturing	-11.9357
▁collided	-11.9357
▁wandering	-11.9357
▁objection	-11.9358
▁decaffeinated	-11.9358
▁freshmen	-11.9358
▁rode	-11.9358
▁audition	-11.9358
▁banned	-11.9358
▁10:30	-11.9358
▁frequent	-11.9358
▁silent	-11.9358
▁counterparty	-11.9359
▁Jang	-11.9359
▁pleasant	-11.9359
▁outsourcing	-11.9359
▁pillar	-11.9359
▁eyelashes	-11.9359
▁sunblock	-11.9359
▁styling	-11.9359
▁Feel	-11.936
▁deck	-11.936
▁publicity	-11.9361
▁celebrating	-11.9361
▁roaming	-11.9361
▁basically	-11.9362
▁handsome	-11.9364
▁120,000	-11.9364
▁deducted	-11.9364
▁melted	-11.9366
▁stationary	-11.9366
▁elsewhere	-11.9369
▁inserted	-11.937
▁carriage	-11.9372
▁mus	-11.9372
▁5000	-11.9373
▁halfway	-11.9373
▁climbing	-11.9373
▁inches	-11.9374
▁actively	-11.9376
▁Drink	-11.938
▁sweeter	-11.9382
fish	-11.9382
▁routes	-11.9383
▁48	-11.9385
▁finalized	-11.9385
▁achieved	-11.9387
▁classroom	-11.9387
▁breathing	-11.9388
▁employed	-11.939
▁measurements	-11.9392
▁volunteering	-11.9398
▁deleted	-11.94
▁vacan	-11.9401
▁assets	-11.9406
▁1,500	-11.9408
▁blocking	-11.9415
▁promotions	-11.9416
▁safer	-11.9417
▁Bring	-11.9425
▁south	-11.9426
▁interfere	-11.9426
▁Mine	-11.943
▁useless	-11.9436
▁trees	-11.9441
▁rushed	-11.9441
▁however	-11.9442
▁painter	-11.9442
▁heads	-11.9443
▁slot	-11.9444
▁recording	-11.9467
led	-11.9468
▁bugs	-11.9478
▁Walk	-11.9478
▁hourly	-11.9482
▁Red	-11.9484
▁browse	-11.9489
▁motion	-11.9492
▁graded	-11.9502
▁bedrooms	-11.9504
▁startup	-11.952
▁convert	-11.9521
▁confirming	-11.9522
▁Song	-11.9523
▁softer	-11.9523
place	-11.9535
▁someday	-11.954
▁Lot	-11.9553
▁Over	-11.9555
▁liking	-11.9565
▁towing	-11.9569
sided	-11.9578
▁22	-11.958
▁onions	-11.9599
▁rese	-11.9607
▁joints	-11.9611
▁rub	-11.9616
▁literal	-11.9616
▁12.	-11.9619
ized	-11.9622
▁tint	-11.9626
▁banks	-11.9637
▁led	-11.9641
hat	-11.9653
▁wild	-11.9658
▁gra	-11.9672
timer	-11.9679
▁registering	-11.9686
car	-11.9687
▁God	-11.969
▁Her	-11.9703
trip	-11.9715
book	-11.9723
F	-11.9731
▁envelopes	-11.9739
▁environmental	-11.9741
▁formed	-11.9748
▁lighting	-11.9748
▁negotiations	-11.9752
▁ch	-11.9757
00	-11.9765
▁demands	-11.9768
▁seated	-11.9771
E	-11.9772
▁34	-11.9777
N	-11.9779
▁admit	-11.978
▁refunds	-11.9798
ink	-11.9807
▁235	-11.9823
▁32	-11.983
turn	-11.9831
frequenc	-11.9866
op	-11.9872
ig	-11.991
▁visits	-11.992
▁bothers	-11.9926
▁regions	-11.9948
▁Sun	-11.997
▁lectures	-11.9989
▁alive	-12.0014
▁applie	-12.0026
su	-12.0051
▁ro	-12.0058
▁creat	-12.006
▁pile	-12.0087
distance	-12.0115
speed	-12.0123
med	-12.0128
R	-12.0133
▁limits	-12.0136
▁explanations	-12.0138
▁trial	-12.0146
▁brochures	-12.0151
O	-12.016
▁mon	-12.0176
▁cloud	-12.0176
▁object	-12.0195
▁victim	-12.0197
ability	-12.0202
ate	-12.0205
▁protagonist	-12.0205
▁garment	-12.0205
▁surrounding	-12.0206
▁athlete	-12.0207
▁Gi	-12.0207
▁expression	-12.0208
ung	-12.021
▁seatbelt	-12.021
▁antibiotic	-12.0213
▁component	-12.0213
▁cucumber	-12.0213
▁eyebrow	-12.0213
▁salons	-12.0225
ctor	-12.0225
▁blade	-12.0233
eat	-12.0234
▁layer	-12.024
▁workbook	-12.0241
▁Si	-12.0249
▁initial	-12.0249
cular	-12.025
▁suck	-12.0255
▁circula	-12.0262
▁deals	-12.0288
▁mini	-12.0289
▁viewers	-12.0293
▁lane	-12.0305
▁apple	-12.0306
▁perfumes	-12.0328
▁Youtube	-12.0331
▁minimize	-12.0331
▁communicate	-12.0332
▁wax	-12.0337
▁scream	-12.034
ned	-12.0343
▁Russia	-12.0343
ba	-12.0347
▁administer	-12.0348
▁establish	-12.0348
▁prohibit	-12.0349
▁id	-12.035
▁Pot	-12.0351
▁generous	-12.0353
▁illness	-12.0354
▁immediate	-12.0354
▁continuous	-12.0354
▁approximate	-12.0356
▁Chicago	-12.0356
▁February	-12.0356
▁January	-12.0356
▁Registration	-12.0356
▁Shanghai	-12.0356
▁ancestors	-12.0356
▁attorney	-12.0356
▁badminton	-12.0356
▁balcony	-12.0356
▁caramel	-12.0356
▁chauffeur	-12.0356
▁congested	-12.0356
▁quantities	-12.0356
▁quarantine	-12.0356
▁suspect	-12.0356
inflammator	-12.0356
▁Facebook	-12.0356
▁grapefruit	-12.0356
▁shellfish	-12.0356
▁tournament	-12.0356
▁workforce	-12.0356
▁expertise	-12.0356
▁heartburn	-12.0356
▁turbulence	-12.0356
▁frustrating	-12.0356
▁sprite	-12.0356
▁summary	-12.0356
▁horror	-12.0356
▁agencies	-12.0356
▁luckily	-12.0356
▁violation	-12.0356
▁outdated	-12.0356
▁desperately	-12.0356
▁harsh	-12.0356
▁lawyer	-12.0356
▁ligament	-12.0356
▁guidance	-12.0356
▁Women	-12.0357
▁childhood	-12.0357
▁Francis	-12.0357
▁complimentary	-12.0357
▁competitiveness	-12.0357
▁hairdryer	-12.0357
▁slide	-12.0357
▁reduction	-12.0357
▁Reservation	-12.0357
▁spacious	-12.0357
▁scooter	-12.0357
▁LG	-12.0357
▁heavily	-12.0357
▁specify	-12.0357
▁inquiries	-12.0357
▁waterfall	-12.0357
▁restructuring	-12.0357
▁predict	-12.0357
nformation	-12.0358
▁rejected	-12.0358
▁sterilizer	-12.0358
▁controlled	-12.0358
jin	-12.0358
▁percentage	-12.0358
▁scanned	-12.0358
▁trunk	-12.0358
▁protection	-12.0359
▁referee	-12.0359
▁knowledge	-12.0359
▁adopted	-12.0359
▁actresses	-12.0359
▁combine	-12.036
▁routine	-12.036
▁shocked	-12.036
▁incur	-12.036
▁fellow	-12.036
▁spoiled	-12.036
▁spelling	-12.036
▁absorbed	-12.0361
▁significant	-12.0361
▁experiencing	-12.0362
▁exposed	-12.0362
▁entertain	-12.0362
▁overweight	-12.0362
▁fought	-12.0363
▁thankfully	-12.0363
▁transparent	-12.0363
▁accurately	-12.0363
▁creative	-12.0364
▁intense	-12.0365
▁housework	-12.0365
▁Namsa	-12.0365
▁walnuts	-12.0366
▁outfield	-12.0366
▁scold	-12.0366
▁Sung	-12.0367
▁photography	-12.0367
▁bankbook	-12.037
▁hotter	-12.0373
▁pretend	-12.0373
▁vibe	-12.0373
▁satisfactory	-12.0374
▁kilograms	-12.0374
▁verification	-12.0375
▁herself	-12.0375
▁profitable	-12.0377
▁login	-12.0377
▁diapers	-12.038
▁insist	-12.0381
▁entirely	-12.0381
▁established	-12.0382
▁assignments	-12.0384
▁willing	-12.0385
▁charm	-12.0385
▁union	-12.0385
fully	-12.0385
▁lamp	-12.0386
▁curve	-12.0388
▁strongly	-12.0395
▁editing	-12.0395
▁complaining	-12.0396
▁utensils	-12.0396
▁anchov	-12.0397
▁responding	-12.04
▁analyzed	-12.0403
▁appointed	-12.0404
only	-12.0405
▁solv	-12.0406
▁Air	-12.0406
▁guidelines	-12.0411
▁spreading	-12.0416
▁visual	-12.042
▁stone	-12.0425
▁heel	-12.0428
▁remover	-12.044
▁stable	-12.0441
▁pancakes	-12.0442
▁addresses	-12.0454
▁substances	-12.0457
▁Free	-12.046
▁toppings	-12.046
▁onboard	-12.046
hile	-12.0461
▁cardio	-12.0463
▁fishy	-12.0469
▁specifications	-12.0473
▁invit	-12.0483
▁takeoff	-12.0487
▁dubb	-12.0487
▁pin	-12.0488
▁55	-12.049
▁specifics	-12.0492
▁dressed	-12.0493
▁stated	-12.0494
▁4,000	-12.0505
▁rained	-12.0513
▁workbooks	-12.0515
▁Tuesdays	-12.0518
▁caps	-12.0546
▁generate	-12.0561
▁daytime	-12.0567
▁interna	-12.0573
▁las	-12.0594
il	-12.06
▁advantages	-12.0603
▁outcome	-12.0608
▁force	-12.0622
▁intervals	-12.0625
▁Taxi	-12.0654
▁bracelets	-12.0658
▁ho	-12.066
uk	-12.0662
▁Buy	-12.0677
▁undergo	-12.0679
▁Watch	-12.0699
▁Ju	-12.07
▁hop	-12.0704
▁Old	-12.0718
▁shades	-12.0733
▁increases	-12.0773
cious	-12.0778
▁Americanos	-12.0791
▁ours	-12.0797
▁Gree	-12.0797
▁sub	-12.0799
▁goals	-12.0814
▁ham	-12.0822
▁refills	-12.0835
▁myster	-12.0861
▁settings	-12.0861
▁refundable	-12.0864
▁tra	-12.087
minutes	-12.0872
looking	-12.0872
▁disc	-12.091
▁struggle	-12.0915
hose	-12.0919
▁owners	-12.0926
▁steps	-12.0942
▁mat	-12.0974
▁AI	-12.0999
▁masks	-12.1003
▁arts	-12.1018
▁rides	-12.1026
▁Art	-12.1036
▁braise	-12.1046
▁stu	-12.1048
▁aim	-12.1049
▁Exi	-12.107
▁di	-12.1117
▁10-	-12.112
▁lay	-12.1127
ga	-12.1138
G	-12.1139
▁AS	-12.1145
nt	-12.1146
ship	-12.1146
uch	-12.1163
▁dolls	-12.1181
raising	-12.1195
served	-12.12
level	-12.1203
▁periods	-12.1209
ju	-12.1217
▁locals	-12.123
ok	-12.125
▁headaches	-12.1254
▁Ri	-12.1257
▁habit	-12.1258
▁mist	-12.1263
▁75	-12.1276
▁De	-12.1281
▁workouts	-12.1284
ack	-12.1288
▁perspective	-12.1293
▁appetizer	-12.1293
▁disinfectant	-12.1294
▁sentence	-12.1294
▁drone	-12.1301
▁incentive	-12.1306
▁expenditure	-12.1306
▁bubble	-12.1307
▁definite	-12.1312
▁swimsuit	-12.1312
▁objective	-12.1313
▁occasion	-12.1314
nything	-12.1315
▁webtoon	-12.1319
▁tattoo	-12.132
tir	-12.1324
▁Olympic	-12.1324
down	-12.1324
▁circumstance	-12.1324
▁views	-12.1334
▁rail	-12.1339
▁modification	-12.134
▁pig	-12.1343
9	-12.1344
▁capture	-12.1345
▁Water	-12.135
▁recommending	-12.1367
ending	-12.1391
▁wet	-12.1394
ca	-12.1397
▁ta	-12.1398
▁tool	-12.1399
▁thread	-12.1401
li	-12.1424
people	-12.1432
▁pace	-12.1437
▁erase	-12.144
▁decline	-12.1442
▁engrave	-12.1446
▁visitor	-12.1447
▁master	-12.1447
▁advise	-12.1448
▁divorce	-12.1448
aged	-12.145
▁peel	-12.1452
▁distribute	-12.1455
▁stole	-12.1457
▁suspend	-12.146
▁crowd	-12.1461
▁Jack	-12.1464
▁radish	-12.1465
▁passionate	-12.1465
punctu	-12.1467
▁Kakao	-12.1467
▁Bibimbap	-12.1467
▁California	-12.1467
▁Jajangmyeon	-12.1467
▁League	-12.1467
▁Pangyo	-12.1467
▁Philippines	-12.1467
▁Seattle	-12.1467
▁acrylic	-12.1467
▁associate	-12.1467
▁cilantro	-12.1467
▁confusion	-12.1467
▁curator	-12.1467
▁emotional	-12.1467
▁fatigue	-12.1467
▁hoodie	-12.1467
▁kimbap	-12.1467
▁microwave	-12.1467
▁necessities	-12.1467
▁poisoning	-12.1467
▁risotto	-12.1467
▁trustworthy	-12.1467
▁underneath	-12.1467
▁volleyball	-12.1467
▁amateur	-12.1467
▁salaries	-12.1467
▁Jeonju	-12.1467
▁collaboration	-12.1467
▁microphone	-12.1467
▁queue	-12.1467
▁strategies	-12.1467
▁sandals	-12.1467
embark	-12.1467
▁cliff	-12.1467
▁residence	-12.1467
▁knives	-12.1467
▁submission	-12.1467
▁James	-12.1468
▁lactobacillus	-12.1468
▁buzz	-12.1468
▁demonstration	-12.1468
▁glue	-12.1468
▁twenty	-12.1468
▁President	-12.1468
▁GPA	-12.1468
▁circling	-12.1468
▁hostel	-12.1468
▁dormitory	-12.1468
▁abdom	-12.1468
▁roommate	-12.1468
▁copier	-12.1468
▁Winter	-12.1468
▁compartment	-12.1468
▁cheeseburger	-12.1468
▁matri	-12.1468
▁challenging	-12.1468
▁campus	-12.1468
▁layout	-12.1469
▁Suwon	-12.1469
▁Help	-12.1469
▁cities	-12.1469
▁disaster	-12.1469
▁mucus	-12.1469
▁USA	-12.1469
▁carpool	-12.1469
▁supplied	-12.1469
▁Residen	-12.1469
▁diligent	-12.147
▁debit	-12.147
▁PT	-12.147
▁5:30	-12.147
▁significantly	-12.147
▁breakdown	-12.1471
▁infected	-12.1471
▁embarrassing	-12.1471
▁crew	-12.1471
▁sections	-12.1471
▁noontime	-12.1471
▁mosquitoes	-12.1472
▁categorize	-12.1472
▁console	-12.1472
▁stitches	-12.1472
▁thief	-12.1472
▁taxation	-12.1472
▁highlighter	-12.1473
▁debut	-12.1473
▁political	-12.1473
gung	-12.1473
▁pickpocketed	-12.1473
▁70%	-12.1473
▁ondol	-12.1474
▁headset	-12.1474
▁nine	-12.1475
▁quickest	-12.1475
amily	-12.1475
▁thicker	-12.1475
▁exclusively	-12.1475
▁lens	-12.1476
▁obviously	-12.1476
▁nap	-12.1476
▁Jejudo	-12.1476
▁moldy	-12.1476
▁cried	-12.1477
▁abalone	-12.1478
▁passion	-12.1478
▁sandwiches	-12.1479
▁400,000	-12.1479
▁workload	-12.1481
▁brushes	-12.1481
▁hosted	-12.1482
▁30-	-12.1482
▁Russian	-12.1482
▁snore	-12.1483
▁comedy	-12.1485
▁square	-12.1487
▁confidence	-12.1487
▁evaluate	-12.1487
▁recovered	-12.1488
▁gently	-12.1488
▁officially	-12.1488
▁curly	-12.1489
▁tester	-12.1489
▁Wave	-12.149
ong	-12.149
▁conscious	-12.1491
▁yard	-12.1491
▁trail	-12.1491
▁remake	-12.1492
▁Minist	-12.1495
▁postcards	-12.1495
▁blend	-12.1497
▁grey	-12.1497
▁boiling	-12.1499
▁props	-12.15
▁arrangement	-12.1501
▁salve	-12.1508
pped	-12.151
▁shapes	-12.1511
▁stretched	-12.1513
▁teenagers	-12.1513
▁corn	-12.1513
▁accountant	-12.1514
▁noticeable	-12.1515
▁filmed	-12.1515
▁jumping	-12.1516
▁caution	-12.1516
▁cola	-12.1516
▁cheaply	-12.1517
▁goodness	-12.1518
▁workplace	-12.152
▁interviewers	-12.1521
▁wishes	-12.1523
▁workdays	-12.1525
▁lifting	-12.1526
▁army	-12.153
▁counted	-12.1538
▁measured	-12.1539
▁ticketing	-12.154
▁brakes	-12.1542
▁ski	-12.1542
▁bleaching	-12.1545
▁straws	-12.155
▁Joo	-12.155
▁thigh	-12.1552
dental	-12.1559
▁Ea	-12.1567
▁Woo	-12.1571
▁bandaids	-12.1581
▁typos	-12.1581
▁forced	-12.1586
▁permed	-12.1586
▁bestsellers	-12.1599
▁blades	-12.1614
▁Thursdays	-12.1616
▁kindly	-12.1618
▁transfers	-12.1647
▁ringing	-12.1653
specially	-12.1655
▁dyeing	-12.166
▁crabs	-12.1661
▁outer	-12.1667
▁seasons	-12.1668
▁circles	-12.1676
▁industri	-12.1677
▁hesitat	-12.1682
▁guards	-12.1707
▁angle	-12.1716
▁vend	-12.1727
ited	-12.1732
gging	-12.1735
▁waves	-12.1736
0	-12.1762
▁700	-12.1773
▁shy	-12.178
no	-12.1788
▁sorted	-12.1789
▁absurd	-12.1795
dom	-12.1799
don	-12.1804
▁superiors	-12.1806
▁Ra	-12.1806
member	-12.1815
▁su	-12.182
▁fingerprints	-12.1823
▁enhance	-12.183
▁bent	-12.1832
▁sender	-12.1845
▁exceptional	-12.1846
▁keys	-12.1853
mer	-12.1855
▁ox	-12.186
weet	-12.1869
▁gentle	-12.189
▁presenting	-12.1891
▁fry	-12.1892
▁contacts	-12.1894
T	-12.1904
cial	-12.1911
▁flavored	-12.1911
▁lockers	-12.1913
▁du	-12.1914
▁var	-12.192
▁pe	-12.1925
going	-12.1928
▁vice	-12.1932
-3	-12.1938
▁201	-12.1944
▁acu	-12.1951
▁par	-12.1953
▁measures	-12.1954
▁Cha	-12.1961
▁belts	-12.198
▁designers	-12.1987
▁feelings	-12.1989
▁telepho	-12.1996
rious	-12.2002
▁cm	-12.2006
▁strengths	-12.2008
▁basics	-12.2018
▁paints	-12.2021
▁values	-12.2025
10	-12.205
school	-12.205
▁cinema	-12.2062
▁com	-12.2072
▁sauces	-12.2078
▁dreams	-12.2083
▁locations	-12.2086
ditional	-12.2095
▁wasted	-12.2098
hwa	-12.2099
▁chargers	-12.2106
▁extract	-12.211
▁butter	-12.2114
▁pockets	-12.2118
ty	-12.2159
▁civi	-12.217
▁halls	-12.2179
service	-12.2185
qualified	-12.2191
light	-12.2198
ied	-12.2242
▁trends	-12.227
▁spit	-12.227
ort	-12.2299
▁cargo	-12.2328
▁beg	-12.2355
▁licenses	-12.2359
site	-12.2364
▁stamps	-12.2379
▁na	-12.2382
▁hook	-12.2398
na	-12.24
arbor	-12.2403
▁Sti	-12.2425
ontact	-12.2444
▁posts	-12.2458
▁offices	-12.2472
wrapped	-12.2475
▁ph	-12.2487
dollar	-12.2487
▁House	-12.2497
▁doll	-12.2515
▁blank	-12.2516
▁highlight	-12.2524
▁toilets	-12.2528
▁contractor	-12.2528
ut	-12.2536
▁bid	-12.254
▁freshener	-12.2542
▁ceramic	-12.2542
▁ink	-12.2545
▁instructor	-12.2546
scented	-12.2546
▁theft	-12.2551
▁extinguisher	-12.2556
▁subscription	-12.2556
▁madeleine	-12.2556
▁vibration	-12.2556
▁bundle	-12.2556
▁molar	-12.2558
tunately	-12.2561
▁racket	-12.2563
▁tariff	-12.2568
▁institution	-12.2569
cooked	-12.257
▁flyer	-12.2572
▁bestseller	-12.2572
▁appearance	-12.2573
▁carrot	-12.2573
▁restriction	-12.2573
▁specification	-12.2576
▁instruction	-12.2576
▁900	-12.2579
▁equi	-12.258
▁ju	-12.258
▁Bean	-12.2581
▁85	-12.2582
▁ruin	-12.2586
▁developer	-12.259
eel	-12.2602
▁source	-12.261
▁typo	-12.2611
dry	-12.2617
▁physic	-12.2622
▁Shop	-12.2647
▁opera	-12.2659
sure	-12.2659
▁grad	-12.2666
▁po	-12.2677
▁equal	-12.2681
ee	-12.2684
▁180	-12.2687
▁Indonesia	-12.269
▁tutor	-12.2691
▁tub	-12.2693
titude	-12.2694
▁snake	-12.2695
▁resign	-12.2696
▁deserve	-12.2696
▁Market	-12.27
▁discard	-12.271
▁la	-12.2712
▁retail	-12.2714
▁priva	-12.2716
▁greet	-12.2716
▁element	-12.2717
▁elephant	-12.2717
▁COEX	-12.2717
▁Director	-12.2717
▁Haeundae	-12.2717
▁Support	-12.2717
▁accompanied	-12.2717
▁blossom	-12.2717
▁champagne	-12.2717
▁comprehensive	-12.2717
▁curiosity	-12.2717
▁drowsy	-12.2717
▁elegant	-12.2717
▁expansion	-12.2717
▁feminine	-12.2717
▁frustrated	-12.2717
▁guitar	-12.2717
▁hobbies	-12.2717
▁horrible	-12.2717
▁indigestion	-12.2717
▁influenza	-12.2717
▁lettuce	-12.2717
▁nickname	-12.2717
▁parsley	-12.2717
▁physiotherapy	-12.2717
▁pregnancy	-12.2717
▁rescue	-12.2717
▁stupid	-12.2717
▁venture	-12.2717
▁antiseptic	-12.2717
▁Hospital	-12.2717
▁archery	-12.2717
▁heroine	-12.2717
▁minibar	-12.2717
▁ambiguous	-12.2717
▁dermatologist	-12.2717
▁happiness	-12.2717
▁railroad	-12.2717
▁veranda	-12.2717
▁unstable	-12.2717
culation	-12.2718
▁luxury	-12.2718
▁hesitant	-12.2718
▁tongue	-12.2718
▁doorbell	-12.2718
▁Sadly	-12.2718
▁lemonade	-12.2718
▁hyper	-12.2718
▁fireworks	-12.2718
▁crossroad	-12.2718
▁completion	-12.2718
▁grandma	-12.2718
▁dutch	-12.2718
▁fuss	-12.2718
▁envious	-12.2718
▁matte	-12.2718
▁shattered	-12.2718
▁verbal	-12.2718
▁restricted	-12.2718
▁reveal	-12.2718
▁laboratory	-12.2718
▁sprout	-12.2718
▁borough	-12.2718
▁meaningless	-12.2718
▁hairband	-12.2718
▁panel	-12.2718
▁wallpaper	-12.2718
▁Eiff	-12.2719
▁leadership	-12.2719
▁diary	-12.2719
▁jog	-12.2719
▁hung	-12.2719
▁postponing	-12.2719
▁Jong	-12.2719
▁Center	-12.2719
▁huh	-12.2719
▁clogged	-12.2719
▁effectiveness	-12.272
▁insufficient	-12.272
▁palate	-12.272
▁freshman	-12.272
▁diffuser	-12.272
▁nursery	-12.272
▁landscape	-12.272
▁freezing	-12.272
▁politics	-12.272
▁Kyo	-12.2721
▁remit	-12.2721
▁Word	-12.2721
▁snorkeling	-12.2721
▁transition	-12.2722
▁endure	-12.2722
▁collapsed	-12.2722
▁struggling	-12.2722
▁Follow	-12.2723
▁tourism	-12.2723
▁blender	-12.2723
▁coast	-12.2724
▁bacon	-12.2724
▁toothbrushes	-12.2724
▁irritated	-12.2724
▁tender	-12.2725
▁colorful	-12.2726
▁orienta	-12.2726
▁eyesight	-12.2726
▁wool	-12.2726
▁sight	-12.2726
▁Rome	-12.2727
▁Jun	-12.2728
▁patches	-12.2729
▁truth	-12.2729
▁refreshments	-12.2729
▁sensor	-12.2732
▁leaked	-12.2732
▁Pa	-12.2732
▁accru	-12.2732
verseas	-12.2733
▁45,000	-12.2734
▁strain	-12.2734
▁tutoring	-12.2735
▁aquarium	-12.2735
▁steal	-12.2735
▁thinner	-12.2735
▁peeling	-12.2735
▁published	-12.2737
▁internally	-12.2738
mia	-12.2738
▁settl	-12.2739
▁Choi	-12.2739
▁Teacher	-12.2739
▁accessible	-12.2739
▁resigning	-12.2739
▁react	-12.2741
▁tidy	-12.2743
▁roughly	-12.2743
▁roasted	-12.2744
▁Li	-12.2744
▁trace	-12.2744
▁warmer	-12.2747
▁risky	-12.2748
▁teammates	-12.275
▁manufactured	-12.2753
▁flush	-12.2753
▁losses	-12.2753
▁effectively	-12.2755
▁vision	-12.2757
▁chores	-12.2758
▁downloaded	-12.2758
▁protest	-12.2759
▁2000	-12.276
▁clams	-12.2762
▁trot	-12.2763
▁Ahn	-12.2763
▁CD	-12.2763
▁Brit	-12.2763
▁donations	-12.2765
▁blackout	-12.2765
rely	-12.2767
▁stained	-12.2768
▁marry	-12.2769
▁Student	-12.2769
▁grand	-12.2771
▁translated	-12.2774
▁breach	-12.2776
baking	-12.2777
▁lecturer	-12.2777
▁farther	-12.2781
▁attendees	-12.2786
▁u	-12.2786
▁newlyweds	-12.2788
▁compensated	-12.2789
▁anybody	-12.2789
▁backside	-12.279
▁info	-12.2792
▁6,	-12.2792
▁fasten	-12.2795
▁panic	-12.2797
▁avoided	-12.2799
▁301	-12.28
▁subways	-12.28
▁primar	-12.2802
▁dear	-12.2807
▁deliciously	-12.2808
▁pu	-12.2809
▁highe	-12.2812
▁permit	-12.2828
▁overdo	-12.283
▁hike	-12.2831
▁hosting	-12.2834
▁ade	-12.2839
▁fortunately	-12.284
▁attended	-12.2861
▁chill	-12.2864
▁carrots	-12.2865
▁texted	-12.2879
▁pigs	-12.2882
▁lowered	-12.2886
▁modifications	-12.2887
mediate	-12.2893
▁amend	-12.2896
▁strings	-12.2903
▁seatbelts	-12.2906
▁backed	-12.291
▁forgetting	-12.2919
▁generation	-12.2926
▁pineapples	-12.2926
▁wrongly	-12.2931
▁concerts	-12.2936
▁concerns	-12.2936
▁comic	-12.2939
▁acquaintances	-12.2946
▁pure	-12.2951
▁Change	-12.2952
tually	-12.2956
▁topping	-12.2959
▁caring	-12.2966
▁San	-12.2967
▁needles	-12.297
ding	-12.2978
▁Hav	-12.2989
art	-12.2991
▁grapes	-12.2995
▁typical	-12.2999
▁24-	-12.3001
▁movements	-12.3025
ranked	-12.3028
hopping	-12.3035
▁argue	-12.3038
▁lime	-12.3051
send	-12.3052
▁preferences	-12.3063
▁suitcases	-12.3084
ei	-12.3086
▁Y	-12.3098
ik	-12.3099
▁americanos	-12.3104
tting	-12.3124
ile	-12.3134
▁bicycles	-12.3143
▁Pay	-12.3171
▁20-	-12.3174
price	-12.3197
for	-12.3218
▁falls	-12.3228
utting	-12.3241
ratory	-12.3248
ked	-12.3261
▁Cut	-12.3265
ap	-12.3269
njoy	-12.3272
▁Lu	-12.3275
▁aired	-12.329
head	-12.3298
▁Chi	-12.3305
ton	-12.3317
▁dine	-12.3319
▁compu	-12.3323
▁Gu	-12.3324
▁partners	-12.3329
▁officer	-12.333
▁actions	-12.3337
▁skirts	-12.3342
▁salads	-12.3352
▁shaped	-12.3357
▁chin	-12.3365
ice	-12.3373
▁injections	-12.3379
▁Ice	-12.339
ization	-12.3397
▁utiliz	-12.3429
ction	-12.3437
▁BB	-12.3451
▁bands	-12.3452
ns	-12.346
▁forum	-12.3461
▁majors	-12.3481
▁elevators	-12.3483
▁firstly	-12.3489
▁Eat	-12.3491
▁distinct	-12.3494
▁lasts	-12.3497
▁libera	-12.3511
▁shipments	-12.3519
▁expo	-12.3529
30	-12.3533
inning	-12.3537
▁speakers	-12.3541
▁coats	-12.357
▁rows	-12.3582
anagement	-12.3583
ware	-12.363
▁gut	-12.364
ified	-12.3645
ompany	-12.3649
▁laws	-12.3675
read	-12.3696
iness	-12.3699
▁rip	-12.3702
famous	-12.371
tion	-12.3712
ay	-12.3725
effective	-12.3745
mental	-12.3757
▁jackets	-12.3767
▁exhibitions	-12.377
mobile	-12.3792
▁directors	-12.38
▁Je	-12.3804
sleeve	-12.3817
▁ne	-12.3835
written	-12.3838
▁Found	-12.3849
but	-12.3854
▁marks	-12.3861
rivi	-12.3867
opened	-12.3867
young	-12.3874
▁integrate	-12.3881
ping	-12.3884
pyeong	-12.389
▁citizen	-12.3897
▁y	-12.3902
▁Centr	-12.3907
▁8:30	-12.3909
J	-12.3912
iming	-12.3913
esthetic	-12.3928
using	-12.3938
▁0.	-12.3947
▁12,	-12.395
ccounting	-12.3958
▁factor	-12.3965
po	-12.3969
▁dishwasher	-12.397
▁layover	-12.397
▁iPhone	-12.397
▁margin	-12.3971
▁expire	-12.3975
▁disposa	-12.3977
▁pickpocket	-12.3979
▁9.	-12.3982
▁caregiver	-12.3984
▁illustration	-12.3984
take	-12.3984
▁newbie	-12.399
▁pumpkin	-12.399
▁St	-12.3992
▁limitation	-12.3997
▁substance	-12.4
▁bandaid	-12.4001
▁crime	-12.4001
▁mushroom	-12.4003
▁infant	-12.4004
▁earring	-12.4005
▁squat	-12.4005
▁balm	-12.4008
▁Ar	-12.401
pending	-12.4012
▁versions	-12.402
▁inch	-12.4026
▁olive	-12.4033
▁dial	-12.4033
▁residents	-12.4042
▁ranking	-12.4062
ha	-12.4062
ama	-12.4065
nity	-12.4067
▁mug	-12.4078
▁120	-12.4094
picy	-12.4094
illa	-12.41
▁Fil	-12.4101
phone	-12.412
▁decorate	-12.4126
▁excess	-12.4129
▁desire	-12.4133
▁implement	-12.4138
▁administrati	-12.4141
▁rewrit	-12.4142
▁constant	-12.4144
▁thorough	-12.4144
▁accomplish	-12.4144
▁consistent	-12.4145
▁pear	-12.4145
▁terminate	-12.4145
▁realistic	-12.4145
▁grocer	-12.4146
▁Never	-12.4146
▁Bridge	-12.4146
▁Dongdaemun	-12.4146
▁Hollywood	-12.4146
▁Okinawa	-12.4146
▁PIC	-12.4146
▁Vancouver	-12.4146
▁baguette	-12.4146
▁brilliant	-12.4146
▁counselor	-12.4146
▁deficit	-12.4146
▁dolphin	-12.4146
▁engraving	-12.4146
▁fluorescen	-12.4146
▁fracture	-12.4146
▁gauze	-12.4146
▁hurricane	-12.4146
▁insomnia	-12.4146
▁ivory	-12.4146
▁lavatory	-12.4146
▁nauseous	-12.4146
▁parasol	-12.4146
▁protocol	-12.4146
▁tangerine	-12.4146
▁technological	-12.4146
▁technologies	-12.4146
▁tetanus	-12.4146
▁vague	-12.4146
▁vinegar	-12.4146
▁November	-12.4146
▁PDF	-12.4146
▁alleviate	-12.4146
▁animation	-12.4146
▁compromise	-12.4146
▁renovation	-12.4146
▁stimulat	-12.4146
▁Cebu	-12.4146
▁barley	-12.4146
▁consumption	-12.4146
▁gelato	-12.4146
▁tardiness	-12.4146
▁Africa	-12.4146
▁keyword	-12.4146
▁shoelaces	-12.4146
▁garage	-12.4146
▁voluntarily	-12.4146
▁dentist	-12.4146
▁minimal	-12.4146
▁squeez	-12.4146
▁unreasonable	-12.4146
▁Hurry	-12.4146
▁ugly	-12.4146
▁Fresh	-12.4146
▁omelet	-12.4146
▁suspicious	-12.4146
▁irritating	-12.4146
▁vomit	-12.4146
▁impatient	-12.4146
▁Gyeong	-12.4146
▁appreciation	-12.4146
▁properties	-12.4146
▁elaborate	-12.4146
▁index	-12.4146
▁leaflet	-12.4146
▁elastic	-12.4146
▁prototype	-12.4146
▁hairdresser	-12.4146
▁ultrasound	-12.4146
▁Quickly	-12.4146
▁flowerpot	-12.4146
▁humanities	-12.4146
inch	-12.4146
▁circulation	-12.4146
▁blurry	-12.4146
▁profile	-12.4146
▁briefcase	-12.4146
▁funeral	-12.4146
elecommunication	-12.4146
▁cartoon	-12.4147
▁shaky	-12.4147
▁11:30	-12.4147
▁11:00	-12.4147
▁property	-12.4147
▁distracted	-12.4147
▁column	-12.4147
▁buddy	-12.4147
▁confidential	-12.4147
▁uncooked	-12.4147
▁dropping	-12.4147
▁sportswear	-12.4147
▁rotation	-12.4147
▁religion	-12.4147
▁alert	-12.4148
▁copied	-12.4148
▁superb	-12.4148
▁seaweed	-12.4148
▁extraordinary	-12.4148
▁importance	-12.4148
▁Cool	-12.4148
▁classified	-12.4148
▁snoring	-12.4148
▁memorize	-12.4148
▁prevention	-12.4149
▁palm	-12.4149
▁unavoidable	-12.4149
▁unused	-12.4149
▁pores	-12.4149
▁lenses	-12.4149
▁refreshed	-12.4149
▁cooperating	-12.4149
▁Bank	-12.4149
▁Myeong	-12.4149
▁bestselling	-12.415
▁neatly	-12.4151
▁faith	-12.4151
▁precisely	-12.4151
▁powerpoint	-12.4152
▁merger	-12.4152
▁25%	-12.4152
▁grasp	-12.4152
▁Somehow	-12.4152
▁thumb	-12.4153
▁satisfying	-12.4153
▁prioritize	-12.4153
▁stricter	-12.4153
▁Long	-12.4153
▁passage	-12.4154
GB	-12.4154
▁preserved	-12.4154
▁affordable	-12.4154
▁overpass	-12.4155
▁remodeling	-12.4155
▁scout	-12.4156
▁Sis	-12.4156
▁shocking	-12.4157
▁arrow	-12.4157
▁Store	-12.4158
▁unexpectedly	-12.4159
▁calmly	-12.4159
▁outlet	-12.4159
▁classmates	-12.416
▁pajamas	-12.416
▁subscribers	-12.416
▁Thanksgiving	-12.416
▁merit	-12.416
▁4:00	-12.416
▁herbs	-12.4161
▁reimbursed	-12.4161
▁statue	-12.4162
▁crashed	-12.4162
▁skilled	-12.4162
▁operator	-12.4162
▁shorts	-12.4163
▁concluded	-12.4164
▁inspected	-12.4165
▁publisher	-12.4166
▁insured	-12.4167
▁pipes	-12.417
▁edited	-12.4172
▁erased	-12.4173
▁Cake	-12.4173
▁plasters	-12.4173
▁risen	-12.4173
▁louder	-12.4174
▁enclose	-12.4175
leg	-12.4175
▁outsiders	-12.4176
▁sebum	-12.4176
▁Australian	-12.4176
▁drain	-12.4177
▁swing	-12.4177
▁consume	-12.4177
▁brain	-12.4178
▁expanded	-12.4179
▁precautions	-12.4182
▁cooker	-12.4184
▁emphasized	-12.4184
▁punch	-12.4185
▁wounded	-12.4185
▁burdened	-12.4185
▁lodge	-12.4186
▁slower	-12.4187
▁groom	-12.4191
▁reliever	-12.4192
▁performed	-12.4193
hyun	-12.4193
▁Le	-12.4194
▁stor	-12.4197
:20	-12.4197
▁cheering	-12.4198
▁folding	-12.42
▁sleeve	-12.4203
▁Yu	-12.4205
▁cry	-12.4205
▁exempted	-12.4208
▁Mc	-12.4208
▁forwarder	-12.4211
▁insoles	-12.4215
▁directed	-12.4216
▁101	-12.4218
ying	-12.4225
▁enterprises	-12.4228
▁surf	-12.4228
▁serial	-12.4229
▁Electronics	-12.423
▁heated	-12.4233
▁represents	-12.4236
▁sting	-12.4236
ential	-12.4236
7	-12.4236
▁occupied	-12.424
▁regain	-12.424
▁output	-12.424
▁massages	-12.4245
anna	-12.4249
▁invoices	-12.4251
▁dough	-12.4252
▁tank	-12.4252
▁benefi	-12.4254
hicken	-12.4255
:10	-12.4255
▁Deliver	-12.4264
▁outfit	-12.4268
▁balanced	-12.4272
▁loading	-12.4273
▁decorations	-12.4273
▁keychains	-12.4274
▁praise	-12.4275
▁engagement	-12.4275
▁glow	-12.4278
▁historical	-12.4284
▁enjoyable	-12.4287
▁mop	-12.4288
ie	-12.429
▁stitch	-12.4292
▁2,500	-12.43
▁reporters	-12.4304
▁pains	-12.4305
co	-12.4311
▁Compare	-12.4311
▁developers	-12.4318
▁customize	-12.4321
▁enquir	-12.4322
▁bacteria	-12.4329
ives	-12.4336
▁factors	-12.4342
▁tattoos	-12.4342
▁webtoons	-12.4343
▁infra	-12.4345
▁occasions	-12.4347
▁outgoing	-12.4351
▁consultations	-12.4352
▁reinstall	-12.4353
▁contribute	-12.4361
▁choices	-12.4366
un	-12.4367
▁reorganize	-12.4371
ard	-12.4377
▁objects	-12.4377
▁loosen	-12.4386
▁Kang	-12.4387
▁inbox	-12.4392
▁firms	-12.4394
▁welcom	-12.4402
▁compete	-12.4406
oyal	-12.4407
▁float	-12.4412
▁couples	-12.4413
▁110	-12.4415
▁returns	-12.4417
▁companions	-12.4422
▁Vis	-12.4431
▁user	-12.4434
▁died	-12.4439
▁talents	-12.444
▁overlaps	-12.4441
▁massager	-12.4444
▁melts	-12.4447
door	-12.4448
guide	-12.4457
▁Yoo	-12.4459
▁displaying	-12.4465
we	-12.4482
▁0	-12.4485
oth	-12.4485
▁boo	-12.4489
▁detergents	-12.4501
▁bond	-12.4501
▁unisex	-12.4502
▁costumes	-12.4503
mething	-12.4504
ld	-12.4513
▁slack	-12.4521
▁tied	-12.4522
▁savings	-12.4525
80,000	-12.4527
leaning	-12.4541
▁upside	-12.4559
nly	-12.4562
pay	-12.4582
▁ban	-12.4586
former	-12.461
ssed	-12.4614
▁conversations	-12.4641
▁watermelons	-12.4642
▁joy	-12.4646
▁straps	-12.4673
▁sake	-12.4675
▁tongs	-12.469
▁shorten	-12.4727
▁excuses	-12.4746
▁economical	-12.4754
▁examin	-12.4758
▁Hyun	-12.4759
▁slim	-12.4766
▁gre	-12.4768
▁Ev	-12.4781
▁girls	-12.4788
v	-12.4797
▁cor	-12.4799
▁Saturdays	-12.4805
3%	-12.4819
▁15-	-12.4833
▁bumpe	-12.4851
▁lattes	-12.4854
▁fals	-12.4854
air	-12.4855
▁oral	-12.4857
ome	-12.4867
▁hats	-12.4872
▁combos	-12.4878
tum	-12.4883
▁notices	-12.4912
ian	-12.493
▁roles	-12.4934
▁cons	-12.4936
▁pros	-12.4953
sides	-12.4955
▁carriers	-12.4956
Do	-12.4972
▁juices	-12.4982
nk	-12.4988
sum	-12.4999
dual	-12.5002
lo	-12.5015
cent	-12.5021
▁AC	-12.5021
rilled	-12.5041
earned	-12.5078
▁pil	-12.5085
▁hy	-12.5097
▁instruct	-12.5097
ving	-12.5111
▁bikes	-12.5122
tory	-12.5125
ow	-12.5126
▁professionals	-12.5169
▁compress	-12.5193
▁inconveniences	-12.5265
▁39	-12.5267
▁concentrat	-12.5294
4,000	-12.5295
▁staffs	-12.5305
▁Yo	-12.5314
tic	-12.5325
▁65	-12.5333
▁ton	-12.534
▁birthdays	-12.5341
▁individuals	-12.5363
▁sand	-12.5368
▁max	-12.5381
ah	-12.5386
get	-12.5394
men	-12.5407
▁Mondays	-12.5422
▁sta	-12.5446
▁sticks	-12.5448
▁Clean	-12.5451
▁sole	-12.5457
▁45	-12.547
▁typ	-12.548
▁specializ	-12.5486
▁retire	-12.5489
▁arch	-12.5494
▁correspond	-12.5494
▁38	-12.5499
▁Tax	-12.5515
rest	-12.5525
ge	-12.5529
wash	-12.553
▁Work	-12.5551
standing	-12.5561
wide	-12.5563
▁danger	-12.557
▁teachers	-12.557
▁min	-12.5578
improvement	-12.5581
AM	-12.5583
▁releases	-12.5589
workers	-12.5597
▁Sa	-12.5597
Q	-12.5599
rough	-12.5611
▁Gee	-12.5612
▁sore	-12.5617
▁distances	-12.5619
▁GP	-12.5621
▁qui	-12.5623
▁lung	-12.5635
▁deduction	-12.5638
lash	-12.5645
▁kiwi	-12.5647
▁dinosaur	-12.565
▁lobster	-12.565
▁sidewalk	-12.5655
▁blister	-12.5657
▁attempt	-12.5658
per	-12.5659
▁notepad	-12.566
▁Airline	-12.5661
▁eyeshadow	-12.5662
▁toenail	-12.5663
▁chemical	-12.5663
▁keychain	-12.5664
▁decoration	-12.5665
▁adapter	-12.5665
▁pancake	-12.5667
▁clip	-12.5668
▁oyster	-12.5668
▁macaron	-12.5668
▁candidate	-12.5668
▁characteristic	-12.5669
▁cousin	-12.567
▁investigat	-12.567
▁cur	-12.5675
▁YouTuber	-12.5676
▁cookie	-12.5677
▁cop	-12.5683
adian	-12.5692
▁eel	-12.5692
▁dig	-12.5697
▁guid	-12.5697
▁fa	-12.5698
▁stages	-12.5698
▁tire	-12.5703
▁Sundays	-12.5704
▁candle	-12.571
▁rank	-12.5713
W	-12.5717
▁touring	-12.5724
▁websites	-12.5724
pa	-12.5724
▁stews	-12.5756
▁pr	-12.5756
▁patt	-12.5768
▁theaters	-12.5769
▁replac	-12.5769
▁sparkl	-12.5772
▁grain	-12.5775
▁promis	-12.5787
▁conclude	-12.5792
▁confuse	-12.5793
▁29	-12.5795
▁blink	-12.5795
▁accord	-12.5796
▁determine	-12.5796
▁zip	-12.5801
▁bleed	-12.5803
▁absorb	-12.5804
ia	-12.5807
▁numb	-12.5809
riginally	-12.5809
▁distinguish	-12.5809
rafting	-12.5809
▁leisure	-12.5809
▁consecutive	-12.581
▁casual	-12.581
elebrities	-12.581
▁jack	-12.5812
1:1	-12.5812
▁caffe	-12.5813
▁Micro	-12.5813
+	-12.5813
‘	-12.5813
▁Bangkok	-12.5813
▁Brazil	-12.5813
▁Budapest	-12.5813
▁Colombia	-12.5813
▁Gucci	-12.5813
▁Halloween	-12.5813
▁Kimbap	-12.5813
▁Literature	-12.5813
▁Mugunghwa	-12.5813
▁Octopus	-12.5813
▁Prabang	-12.5813
▁Prague	-12.5813
▁Rubens	-12.5813
▁Senior	-12.5813
▁Zealand	-12.5813
▁barista	-12.5813
▁behavior	-12.5813
▁boycott	-12.5813
▁bulb	-12.5813
▁campaign	-12.5813
▁cappuccino	-12.5813
▁clumsy	-12.5813
▁concealer	-12.5813
▁counseling	-12.5813
▁elbow	-12.5813
▁exhausting	-12.5813
▁fierce	-12.5813
▁fragile	-12.5813
▁fragran	-12.5813
▁frappuccino	-12.5813
▁grammar	-12.5813
▁hanbok	-12.5813
▁hundred	-12.5813
▁landslide	-12.5813
▁laundromat	-12.5813
▁mannequin	-12.5813
▁nightscape	-12.5813
▁paparazzi	-12.5813
▁philosoph	-12.5813
▁photocopier	-12.5813
▁pimples	-12.5813
▁rehab	-12.5813
▁renowned	-12.5813
▁repetitive	-12.5813
▁spectacular	-12.5813
▁unattended	-12.5813
▁universities	-12.5813
▁unpleasant	-12.5813
▁vinyl	-12.5813
▁vocabulary	-12.5813
▁Burger	-12.5813
▁Louvre	-12.5813
▁antidiarrheal	-12.5813
▁courtesy	-12.5813
▁migraine	-12.5813
▁protein	-12.5813
▁unplugged	-12.5813
▁Interesting	-12.5813
▁admittance	-12.5813
▁crucial	-12.5813
▁decaf	-12.5813
▁emotions	-12.5813
▁flesh	-12.5813
▁malfunction	-12.5813
▁specified	-12.5813
▁spirit	-12.5813
▁ventilation	-12.5813
▁caretaker	-12.5813
▁identical	-12.5813
▁nationwide	-12.5813
▁relics	-12.5813
▁Everland	-12.5813
▁brunch	-12.5813
▁desert	-12.5813
▁pollution	-12.5813
▁soondae	-12.5813
▁sunrise	-12.5813
▁deliberat	-12.5813
▁squad	-12.5813
▁toxic	-12.5813
▁sustain	-12.5813
▁Gyeongju	-12.5813
▁Ondol	-12.5813
▁Turkey	-12.5813
▁authentication	-12.5813
▁bowel	-12.5813
▁jogging	-12.5813
▁tastier	-12.5813
▁Twice	-12.5813
▁disconnected	-12.5813
▁spinach	-12.5813
▁Sprite	-12.5813
▁bobbed	-12.5813
▁stroke	-12.5813
▁valley	-12.5813
▁Sarah	-12.5813
▁seasickness	-12.5813
▁dispenser	-12.5813
▁horse	-12.5813
▁consciousness	-12.5813
▁flatfish	-12.5813
▁reimbursement	-12.5813
▁Seriously	-12.5813
▁groceries	-12.5813
▁spinning	-12.5813
▁virtual	-12.5813
▁establishment	-12.5813
▁jewelry	-12.5813
▁glance	-12.5813
▁bomb	-12.5813
▁mattress	-12.5813
▁context	-12.5813
▁Coex	-12.5813
▁nauseated	-12.5813
▁humor	-12.5813
▁flashlight	-12.5813
▁leakage	-12.5813
▁5:00	-12.5813
▁funnier	-12.5813
▁softener	-12.5813
▁swab	-12.5813
▁amendment	-12.5813
▁sanitary	-12.5813
▁healthier	-12.5813
▁dramatically	-12.5813
▁plugged	-12.5813
▁communicating	-12.5813
▁relocated	-12.5813
▁repeatedly	-12.5813
▁trimming	-12.5813
▁10:00	-12.5813
▁palette	-12.5813
▁personalities	-12.5814
▁Hangang	-12.5814
▁meatball	-12.5814
▁stressful	-12.5814
▁railway	-12.5814
▁intelligence	-12.5814
▁similarities	-12.5814
▁awareness	-12.5814
▁bummer	-12.5814
▁banner	-12.5814
▁twisted	-12.5814
▁blusher	-12.5814
▁rapidly	-12.5814
▁fantas	-12.5814
▁storyline	-12.5814
▁omitted	-12.5815
▁anemia	-12.5815
▁tiramisu	-12.5815
▁mailbox	-12.5815
▁lading	-12.5815
▁shutter	-12.5815
▁Amazing	-12.5815
▁commemorate	-12.5815
▁expiry	-12.5815
▁occurring	-12.5815
▁panty	-12.5816
▁relieving	-12.5816
▁carelessly	-12.5816
▁industries	-12.5816
▁removal	-12.5816
▁postman	-12.5816
▁midway	-12.5816
▁Custom	-12.5816
▁whitening	-12.5817
▁sunny	-12.5817
▁shortcut	-12.5817
▁hottest	-12.5817
▁Fish	-12.5817
▁withdrawal	-12.5818
▁2020	-12.5818
▁candies	-12.5818
▁2:30	-12.5818
▁kidding	-12.5819
▁gaming	-12.582
▁fluently	-12.582
▁desktop	-12.5821
▁substitute	-12.5822
▁implemented	-12.5822
~3	-12.5822
▁diagnosed	-12.5822
▁unlikely	-12.5823
▁flaw	-12.5823
▁surprisingly	-12.5823
▁peeled	-12.5823
▁disorder	-12.5823
▁diving	-12.5823
▁medal	-12.5824
▁quad	-12.5824
▁jumper	-12.5824
▁illegally	-12.5824
▁bumper	-12.5825
▁handover	-12.5825
▁disposal	-12.5825
▁taller	-12.5826
▁kindness	-12.5827
▁shortage	-12.5827
▁swam	-12.5827
▁Fine	-12.5829
▁40%	-12.5829
▁nation	-12.583
▁equ	-12.5831
▁bride	-12.5831
▁blinking	-12.5831
▁aspirin	-12.5831
▁Hal	-12.5831
▁carving	-12.5832
▁independent	-12.5834
▁addict	-12.5834
▁publication	-12.5835
▁decorated	-12.5838
▁intent	-12.5838
▁Gold	-12.5838
▁3:30	-12.5838
▁DM	-12.5839
ened	-12.584
▁Cannes	-12.584
▁flip	-12.584
▁2:00	-12.5841
▁Colo	-12.5842
▁smudge	-12.5843
▁salespeople	-12.5844
▁evaluated	-12.5844
▁engraved	-12.5845
▁advised	-12.5846
▁circuit	-12.5846
▁layoffs	-12.5847
▁203	-12.5847
▁Regard	-12.5847
▁rotate	-12.5848
▁withdrawn	-12.5848
▁trench	-12.5848
▁foul	-12.585
▁brightly	-12.585
▁handbag	-12.5851
▁honored	-12.5851
▁dent	-12.5852
▁loudly	-12.5853
▁influencer	-12.5855
▁indicators	-12.5855
▁pitchers	-12.5855
▁Though	-12.5855
▁balloons	-12.5855
▁earplugs	-12.5855
▁indicate	-12.5856
▁donate	-12.5861
▁Insurance	-12.5863
▁swallowing	-12.5863
▁lake	-12.587
▁wholesale	-12.587
▁teamwork	-12.587
▁bleached	-12.5871
▁enroll	-12.5871
▁skiing	-12.5872
▁coordinate	-12.5872
▁cheat	-12.5872
▁merge	-12.5876
▁sweaty	-12.5877
▁shine	-12.5879
truck	-12.5879
▁shareholders	-12.5884
▁gums	-12.5887
ural	-12.5887
▁commerce	-12.5887
▁tale	-12.5887
▁Trade	-12.5888
▁spin	-12.5889
▁Gwang	-12.589
▁maintained	-12.5894
▁mature	-12.5897
ol	-12.5898
▁skewer	-12.59
▁stove	-12.5901
▁legit	-12.5904
▁Gim	-12.5905
▁pitch	-12.5908
▁casting	-12.5908
▁demanding	-12.5913
▁durable	-12.5917
▁72	-12.5921
▁authorized	-12.5923
first	-12.5924
▁invent	-12.5925
▁pears	-12.5926
▁abilities	-12.5927
seum	-12.5928
vid	-12.5928
▁pump	-12.593
▁screws	-12.5936
▁flowing	-12.5939
▁downloading	-12.5944
▁wings	-12.5946
hipping	-12.5947
▁outline	-12.5947
▁formal	-12.5953
▁dissolve	-12.5953
▁announcements	-12.5957
▁esc	-12.5959
▁earning	-12.5959
▁clips	-12.5961
▁comp	-12.5962
▁preview	-12.5963
▁eyeshadows	-12.5966
▁toenails	-12.5966
▁citr	-12.5967
▁olives	-12.5968
▁coating	-12.5968
▁Lo	-12.5972
▁reporter	-12.5973
▁SIM	-12.5976
timers	-12.5977
▁intake	-12.5979
rying	-12.5979
▁fil	-12.5983
▁placement	-12.5983
▁Rais	-12.5984
fi	-12.5993
▁candy	-12.5999
▁Runn	-12.5999
▁downside	-12.6001
▁bowling	-12.6001
▁fade	-12.6006
▁expires	-12.6006
ronic	-12.601
ven	-12.6014
▁testers	-12.6015
ail	-12.6015
▁flyers	-12.602
▁tariffs	-12.602
▁understandable	-12.6022
▁tires	-12.6032
▁longest	-12.6034
ight	-12.6035
▁Shin	-12.6036
▁ra	-12.605
ear	-12.6051
▁bee	-12.606
terior	-12.6064
▁tow	-12.6068
▁Sit	-12.6079
▁cycle	-12.6082
give	-12.6082
▁Legal	-12.6093
▁stroll	-12.6096
▁mangos	-12.6097
▁vendors	-12.6102
▁Interna	-12.6118
▁organizations	-12.6123
▁collar	-12.6124
▁0.5	-12.6124
ra	-12.6126
working	-12.6138
een	-12.6141
▁sip	-12.6157
▁calculations	-12.6184
▁fluids	-12.6184
rank	-12.6188
▁Tour	-12.6193
▁Ro	-12.6199
▁flo	-12.6207
▁maps	-12.621
▁nutrients	-12.6213
-1	-12.6219
▁wages	-12.6239
▁scars	-12.624
▁compliments	-12.6246
▁engineers	-12.6248
▁winds	-12.6251
▁minors	-12.6256
▁packet	-12.6258
▁episodes	-12.6268
▁Shi	-12.6275
ries	-12.6281
▁borrowing	-12.6282
▁seam	-12.6285
▁Train	-12.6289
▁memori	-12.629
▁pointing	-12.6293
▁gr	-12.6296
▁diseases	-12.6312
▁fields	-12.6317
▁continued	-12.6318
▁10.	-12.632
▁patterns	-12.6322
▁ache	-12.6322
▁pamphlets	-12.635
ot	-12.6351
▁mater	-12.6364
back	-12.6365
gan	-12.6383
dai	-12.6396
▁sodas	-12.6403
edition	-12.6408
change	-12.6416
▁updo	-12.6416
▁audiences	-12.6432
▁wis	-12.6445
▁checkups	-12.6446
▁Sang	-12.6463
▁trained	-12.6476
▁evenly	-12.6478
gic	-12.6482
▁wrists	-12.6486
▁drawings	-12.6487
added	-12.6493
▁systems	-12.6515
omputer	-12.6518
▁thi	-12.6529
▁bet	-12.6534
▁wan	-12.6548
▁Par	-12.6559
▁Operati	-12.6564
▁10,	-12.6574
1,	-12.6577
▁leaders	-12.6585
itness	-12.6586
employment	-12.6591
▁agendas	-12.6594
▁mint	-12.66
ased	-12.6606
▁conditioners	-12.6613
ka	-12.6618
days	-12.6621
▁flag	-12.6623
▁carve	-12.6626
▁cram	-12.6634
ab	-12.6635
▁distincti	-12.6642
my	-12.6649
equat	-12.6651
▁exits	-12.666
▁Ch	-12.6679
▁risks	-12.668
soothing	-12.6682
▁banking	-12.6737
▁6:30.	-12.6739
temporary	-12.6744
▁fr	-12.675
▁55.	-12.6771
ickness	-12.6781
▁thre	-12.68
▁artists	-12.6809
rous	-12.6813
▁cushions	-12.6813
▁bookstores	-12.6816
▁ampu	-12.6839
▁unpack	-12.6843
ordered	-12.6847
seong	-12.6856
▁travers	-12.6859
ndang	-12.6876
val	-12.6896
que	-12.6896
▁Say	-12.6899
ree	-12.6903
bag	-12.6909
▁purifiers	-12.692
▁220	-12.6922
▁sue	-12.6929
ification	-12.6932
▁Hang	-12.6953
50	-12.6958
2.	-12.696
V	-12.6973
▁Ga	-12.6979
▁claims	-12.6981
quired	-12.6981
long	-12.6994
2,000	-12.6996
▁forming	-12.6998
▁salmons	-12.7
▁postures	-12.7004
▁skat	-12.7011
▁focuse	-12.7019
ame	-12.7026
▁rec	-12.7042
watch	-12.707
▁clapp	-12.7079
▁featur	-12.7098
▁LC	-12.7123
200	-12.714
issue	-12.7162
ist	-12.7167
▁nominate	-12.7179
if	-12.719
▁appointments	-12.719
▁West	-12.7195
▁corners	-12.7204
aving	-12.7208
shot	-12.7212
▁Ja	-12.7224
▁tags	-12.7231
▁cleaners	-12.7235
▁bars	-12.7246
▁competitions	-12.725
▁liter	-12.7254
▁95	-12.7266
▁hip	-12.7267
serve	-12.7276
▁medi	-12.7293
▁911	-12.7293
4.	-12.7296
ating	-12.7321
right	-12.7323
aste	-12.7328
print	-12.734
400	-12.7345
zing	-12.7355
▁scrap	-12.7383
▁gates	-12.7386
▁slippe	-12.7388
▁thoughts	-12.739
large	-12.7394
▁chopp	-12.7395
▁Dr	-12.7431
ari	-12.7442
▁pric	-12.7448
season	-12.745
bone	-12.7454
▁ointments	-12.7463
issued	-12.7469
hours	-12.7476
▁overload	-12.7482
▁authorit	-12.7483
▁lotions	-12.7485
pcs	-12.7485
▁sim	-12.7505
found	-12.7513
▁350	-12.7516
tems	-12.7524
▁drives	-12.753
mall	-12.7544
drama	-12.7546
bye	-12.7548
identification	-12.7555
▁contra	-12.7566
Z	-12.7573
sharing	-12.7578
▁ultra	-12.7582
kilo	-12.7587
▁obs	-12.7607
▁absolute	-12.7612
bo	-12.7622
wave	-12.7626
▁tha	-12.7626
▁Fri	-12.7631
▁eggplant	-12.7635
▁lizard	-12.7635
▁subcontractor	-12.7636
▁apparel	-12.7637
▁technician	-12.7637
dicated	-12.7638
▁nut	-12.7644
▁explode	-12.7649
▁manicure	-12.7649
▁novice	-12.7651
▁compound	-12.7654
ks	-12.7656
▁moisturizer	-12.7656
▁banana	-12.7656
▁screw	-12.7657
▁achievement	-12.7657
▁magnet	-12.7659
▁res	-12.766
▁imprint	-12.7661
▁straw	-12.7661
soft	-12.7664
▁sedan	-12.7667
▁strip	-12.7671
▁requirement	-12.7671
▁relation	-12.7671
▁attraction	-12.7672
▁brake	-12.7677
ific	-12.7723
Y	-12.7727
▁cancellations	-12.7736
▁spi	-12.7745
known	-12.775
▁suggests	-12.7753
priced	-12.7754
▁troubl	-12.7759
:50	-12.7767
▁66	-12.7772
▁sho	-12.7772
▁spoil	-12.7777
▁tablet	-12.7777
▁4000	-12.7778
hill	-12.7778
▁Tea	-12.778
▁roast	-12.7786
▁disappoint	-12.7787
▁reimburse	-12.7791
▁prospect	-12.7793
▁shock	-12.7801
▁chunk	-12.7804
▁warrant	-12.7805
ris	-12.7806
wner	-12.7806
▁anonymous	-12.7809
▁vivid	-12.781
▁weakness	-12.7811
▁uncle	-12.7812
▁theatre	-12.7812
▁handicap	-12.7813
▁bankrupt	-12.7813
▁voluntar	-12.7813
▁implicit	-12.7813
▁“	-12.7813
dynamic	-12.7813
”	-12.7813
▁24/7	-12.7813
▁Airbnb	-12.7813
▁Android	-12.7813
▁Assembly	-12.7813
▁Caravaggio	-12.7813
▁Catholic	-12.7813
▁Christian	-12.7813
▁Corvina	-12.7813
▁Festival	-12.7813
▁Jinhae	-12.7813
▁Klimt	-12.7813
▁Netflix	-12.7813
▁Pepsi	-12.7813
▁Stadium	-12.7813
▁Sydney	-12.7813
▁Tylenol	-12.7813
▁Ulsan	-12.7813
▁VAR	-12.7813
▁VISA	-12.7813
▁Yeouido	-12.7813
▁anesthesia	-12.7813
▁anthelmintic	-12.7813
▁ashtray	-12.7813
▁ceremonies	-12.7813
▁cliché	-12.7813
▁coconut	-12.7813
▁congestion	-12.7813
▁contagious	-12.7813
▁cumbersome	-12.7813
▁curriculum	-12.7813
▁cutlery	-12.7813
▁diabetes	-12.7813
▁dissertation	-12.7813
▁dumbbell	-12.7813
▁emoticon	-12.7813
▁entrée	-12.7813
▁etiquette	-12.7813
▁gloomy	-12.7813
▁infringement	-12.7813
▁injuries	-12.7813
▁intravenous	-12.7813
▁journey	-12.7813
▁liniment	-12.7813
▁manuscript	-12.7813
▁milkshake	-12.7813
▁motorbike	-12.7813
▁numerous	-12.7813
▁opportunities	-12.7813
▁ponytail	-12.7813
▁portfolio	-12.7813
▁prawns	-12.7813
▁predecessor	-12.7813
▁prejudice	-12.7813
▁premiere	-12.7813
▁scenario	-12.7813
▁sneezing	-12.7813
▁suicide	-12.7813
▁thermometer	-12.7813
▁vicinity	-12.7813
▁vulnerable	-12.7813
▁Labor	-12.7813
▁Marvel	-12.7813
▁demolition	-12.7813
▁granddaughter	-12.7813
▁lavender	-12.7813
▁throbbing	-12.7813
▁vaccinated	-12.7813
▁Fortress	-12.7813
▁Portland	-12.7813
▁irritation	-12.7813
▁tastiest	-12.7813
▁gossip	-12.7813
▁lactose	-12.7813
▁scrub	-12.7813
▁escape	-12.7813
▁$600	-12.7813
▁Finance	-12.7813
▁yacht	-12.7813
▁Passport	-12.7813
▁bodies	-12.7813
▁crunch	-12.7813
▁wristband	-12.7813
▁Building	-12.7813
▁pollack	-12.7813
▁reckless	-12.7813
▁pottery	-12.7813
▁punishment	-12.7813
▁robbed	-12.7813
▁anxious	-12.7813
▁induction	-12.7813
▁Pohang	-12.7813
▁Prize	-12.7813
▁irrelevant	-12.7813
▁scope	-12.7813
▁Myeongdong	-12.7813
▁simulation	-12.7813
▁temperatures	-12.7813
▁admirable	-12.7813
▁capsule	-12.7813
▁pharmacies	-12.7813
▁unlucky	-12.7813
▁encounter	-12.7813
▁Express	-12.7813
▁cooperative	-12.7813
▁apron	-12.7813
▁Mountain	-12.7813
permanent	-12.7813
▁exposure	-12.7813
▁unnecessary	-12.7813
▁mushy	-12.7813
▁disgusting	-12.7813
diction	-12.7813
▁cycling	-12.7813
▁pelvis	-12.7813
▁nagging	-12.7813
▁prolonged	-12.7813
▁pedal	-12.7813
▁crackdown	-12.7813
▁depression	-12.7813
▁Ilsan	-12.7813
▁insane	-12.7813
▁Bali	-12.7813
▁12:30	-12.7813
▁scheme	-12.7813
▁Very	-12.7813
▁conjunctivitis	-12.7813
▁tiresome	-12.7813
▁pedicure	-12.7813
shabu	-12.7814
▁trimmed	-12.7814
▁embroidered	-12.7814
▁provision	-12.7814
▁spicier	-12.7814
▁shredder	-12.7814
▁Studio	-12.7814
▁overheated	-12.7814
▁gastro	-12.7814
▁Bible	-12.7814
▁Grandma	-12.7814
▁fluctuation	-12.7814
▁perilla	-12.7814
▁Tempura	-12.7814
▁validity	-12.7814
▁prepped	-12.7814
▁homegrown	-12.7814
▁Lisa	-12.7815
▁greedy	-12.7815
▁unpopular	-12.7815
▁reddish	-12.7815
▁uniqueness	-12.7815
▁accomplishment	-12.7815
▁consumable	-12.7815
dilute	-12.7815
istics	-12.7815
▁happier	-12.7815
▁overlapped	-12.7815
▁punished	-12.7815
▁brightness	-12.7815
▁Steve	-12.7815
▁dump	-12.7815
▁toiletries	-12.7816
▁eighth	-12.7816
▁hacked	-12.7816
▁Psy	-12.7816
▁steep	-12.7816
Aid	-12.7816
▁footage	-12.7816
▁updating	-12.7816
▁yourselves	-12.7816
▁tricky	-12.7817
▁shredded	-12.7817
▁blush	-12.7817
▁Jane	-12.7817
▁roundtrip	-12.7817
▁destroyed	-12.7817
▁exchanges	-12.7817
▁castle	-12.7817
▁forearm	-12.7817
▁Non	-12.7818
▁freelancer	-12.7818
▁commence	-12.7818
▁passionately	-12.7818
▁slipping	-12.7818
▁Traveler	-12.7818
▁sesame	-12.7818
▁mainboard	-12.7819
▁inflow	-12.7819
▁LA	-12.7819
▁freedom	-12.7819
▁meticulously	-12.7819
▁lightning	-12.7819
▁Cola	-12.782
▁vaccine	-12.782
▁peaceful	-12.782
▁cheated	-12.782
▁considerate	-12.7821
▁chipped	-12.7821
▁roundabout	-12.7821
▁programming	-12.7821
▁88	-12.7821
▁downward	-12.7821
▁milder	-12.7821
▁sharpen	-12.7821
▁domestically	-12.7822
▁Fast	-12.7822
▁negotiating	-12.7822
▁disrupt	-12.7822
▁proofread	-12.7822
▁bunches	-12.7822
▁noticing	-12.7822
▁hinder	-12.7822
▁vibrate	-12.7823
▁Spring	-12.7823
▁bolt	-12.7823
▁ruined	-12.7824
▁ornament	-12.7824
genic	-12.7824
▁offended	-12.7824
▁inexperienced	-12.7825
▁strained	-12.7825
▁violating	-12.7826
▁thermos	-12.7827
▁hires	-12.7828
▁innocent	-12.7828
▁editor	-12.7828
▁magnificent	-12.7828
▁resigned	-12.7828
▁pounds	-12.7828
▁Cultur	-12.7829
▁Game	-12.783
▁upsetting	-12.783
▁confess	-12.783
rmal	-12.783
▁rounds	-12.7831
▁unfavorabl	-12.7832
▁oats	-12.7832
▁preschoolers	-12.7833
▁miles	-12.7833
ridden	-12.7833
▁bushy	-12.7834
▁Hmm	-12.7834
▁widely	-12.7835
▁remotely	-12.7835
▁photographed	-12.7836
▁backseat	-12.7836
▁instantly	-12.7837
▁survive	-12.7837
▁sponsored	-12.7837
▁elders	-12.7838
▁diner	-12.7838
▁teens	-12.784
▁bonuses	-12.7841
▁vase	-12.7842
▁lag	-12.7844
▁tasteless	-12.7844
▁tiles	-12.7844
▁disk	-12.7844
▁cancer	-12.7844
▁CG	-12.7845
▁flashy	-12.7845
otic	-12.7846
▁Flight	-12.7846
▁aloe	-12.7846
▁hazard	-12.7847
rder	-12.7847
▁MC	-12.7849
▁quieter	-12.7849
▁sty	-12.785
▁formally	-12.785
▁tense	-12.7851
▁broad	-12.7851
▁nerves	-12.7852
▁Joong	-12.7853
▁divorced	-12.7854
▁clue	-12.7857
▁flier	-12.7858
▁discriminati	-12.7858
▁oldest	-12.7858
▁edible	-12.7858
▁appealing	-12.7858
▁financially	-12.7862
▁lifted	-12.7863
▁grass	-12.7864
▁creators	-12.7864
▁tracked	-12.7868
▁Jo	-12.7869
▁smokers	-12.7869
▁purse	-12.787
▁upfront	-12.787
born	-12.7871
▁Bill	-12.7874
▁dries	-12.7875
▁comforting	-12.7876
▁pho	-12.7876
▁pray	-12.7879
▁fresher	-12.788
▁approaching	-12.7881
▁010	-12.7881
▁discover	-12.7881
▁evidentia	-12.7882
▁bible	-12.7883
▁lengthen	-12.7883
▁crossed	-12.789
▁awarded	-12.789
▁Eun	-12.7892
▁examined	-12.7894
▁hits	-12.7895
▁afterschool	-12.7898
▁rang	-12.7899
▁drier	-12.7899
▁handouts	-12.79
▁intestines	-12.79
▁locally	-12.7901
▁Lim	-12.7902
SIM	-12.7903
▁gladly	-12.7903
liness	-12.7904
▁recovering	-12.7906
▁bonds	-12.7906
▁greatest	-12.7907
▁pouring	-12.7908
▁progressed	-12.7909
▁fishes	-12.7909
▁Bora	-12.7909
▁insects	-12.7909
▁race	-12.791
▁swear	-12.791
▁categori	-12.791
▁wider	-12.7913
▁fairy	-12.7913
▁cleared	-12.7917
▁calf	-12.7922
▁therefore	-12.7922
intentionally	-12.7926
▁murals	-12.793
▁remarks	-12.793
▁rack	-12.7931
▁anchor	-12.7932
▁freak	-12.7932
▁hairpins	-12.7932
▁billiards	-12.7934
▁winner	-12.7934
ual	-12.7938
▁lovely	-12.7939
▁similarly	-12.7945
▁prospects	-12.7945
▁unnatural	-12.796
▁mealtime	-12.7962
▁sedans	-12.7962
▁drastic	-12.7965
▁magnets	-12.7968
▁intra	-12.7969
▁Mix	-12.7972
▁complet	-12.7975
iscounts	-12.7978
▁ineffective	-12.7983
etween	-12.7985
▁Seok	-12.7995
▁teas	-12.7996
▁innovati	-12.7997
▁carbon	-12.7997
▁chemicals	-12.7999
▁Read	-12.8001
▁Airlines	-12.8002
▁notepads	-12.8002
▁adapters	-12.8002
▁mutual	-12.801
lumni	-12.8011
▁25-	-12.8012
▁Post	-12.8013
ody	-12.8013
▁stance	-12.8015
▁mended	-12.8017
▁Prepar	-12.8021
actic	-12.8023
▁Che	-12.8026
▁crimes	-12.8026
iliar	-12.8026
rated	-12.8029
▁tap	-12.803
▁blame	-12.8035
stern	-12.8037
▁Yoon	-12.804
▁auditor	-12.8041
▁router	-12.8053
▁plus	-12.8061
▁institutions	-12.8067
▁scu	-12.8077
▁graduates	-12.8081
▁rushing	-12.8082
▁insight	-12.8089
▁intend	-12.8092
▁taxed	-12.8095
▁dutyfree	-12.8108
▁exists	-12.8112
▁vest	-12.8115
800	-12.8119
food	-12.8126
▁le	-12.8131
▁era	-12.8133
▁athletes	-12.8135
▁exist	-12.8137
▁expressions	-12.8139
▁protagonists	-12.8139
ology	-12.8143
▁provider	-12.8143
▁tears	-12.8153
▁140	-12.8159
▁bra	-12.8161
▁lighten	-12.8169
▁beginners	-12.817
lose	-12.8179
▁Ge	-12.8179
▁Hee	-12.8182
▁tapes	-12.8188
▁warn	-12.8194
▁steaks	-12.8199
▁2018	-12.8214
▁garments	-12.8219
ions	-12.8225
▁cutlets	-12.8237
▁juniors	-12.8241
▁corrections	-12.8242
▁snail	-12.8243
eves	-12.8254
▁ver	-12.8269
▁subscribe	-12.8272
▁copying	-12.8301
pointed	-12.8315
▁shakes	-12.832
▁Travel	-12.8326
▁exhibits	-12.8327
▁frames	-12.8331
▁handy	-12.8331
▁dope	-12.8335
▁40-	-12.8336
▁holders	-12.8336
▁suppliers	-12.8337
▁controversi	-12.8343
lessly	-12.8348
▁filters	-12.8351
▁(	-12.8361
blew	-12.837
▁financ	-12.8372
that	-12.8373
▁Se	-12.8378
▁roses	-12.838
▁cardigans	-12.838
▁Bab	-12.8387
▁Opera	-12.8387
▁bio	-12.8388
run	-12.8389
▁trucks	-12.8408
▁12-	-12.8408
▁warming	-12.8416
ade	-12.8417
inal	-12.8421
lace	-12.8429
▁writers	-12.8432
▁33	-12.8432
▁timing	-12.8443
▁regards	-12.8445
▁billing	-12.8455
▁evenings	-12.8465
▁doubled	-12.8479
▁mackerels	-12.848
▁fails	-12.8501
▁Ben	-12.8507
▁bouquets	-12.8515
ml	-12.8523
zed	-12.8541
ji	-12.8543
▁define	-12.8546
▁Securit	-12.859
▁rev	-12.8597
▁regrets	-12.8628
▁lit	-12.8649
vel	-12.8655
▁motivat	-12.8658
dy	-12.8662
shed	-12.8667
▁aunt	-12.8714
▁soy	-12.8716
▁kiosks	-12.8716
▁Hangu	-12.8716
ze	-12.8717
ince	-12.8722
chon	-12.8728
orders	-12.8751
▁cables	-12.8754
ten	-12.8757
▁cuts	-12.8758
▁complement	-12.8781
▁dyes	-12.8781
▁crush	-12.8796
mber	-12.8812
▁ge	-12.8817
nother	-12.8832
▁oppos	-12.8872
yeong	-12.8874
▁insurances	-12.8875
▁closet	-12.8912
soo	-12.8924
▁ongoing	-12.8925
think	-12.8932
▁ill	-12.8934
z	-12.8958
▁troubles	-12.8974
▁Av	-12.8976
▁gi	-12.8977
▁signatures	-12.8989
elling	-12.8991
▁ankles	-12.9002
ism	-12.901
mp	-12.9021
fat	-12.9025
▁diversif	-12.9027
▁vo	-12.9032
abies	-12.904
▁Bee	-12.9067
▁bro	-12.9075
▁105	-12.9085
legation	-12.909
▁experimental	-12.9097
▁fear	-12.9111
aring	-12.9113
▁sweets	-12.912
sign	-12.9122
mails	-12.9124
▁remembering	-12.9127
▁regrett	-12.9129
yen	-12.9134
ease	-12.9136
not	-12.9139
ngest	-12.9142
U	-12.9161
hair	-12.917
low	-12.9173
▁soups	-12.9185
min	-12.9189
▁hopes	-12.9201
sal	-12.9205
ved	-12.9208
▁nu	-12.921
▁reasonabl	-12.9224
ties	-12.9227
▁Ki	-12.9232
▁lied	-12.9256
▁mats	-12.9261
holding	-12.9262
▁bites	-12.9266
▁adopt	-12.9286
ord	-12.9314
▁Los	-12.9318
nam	-12.9325
▁Seo	-12.9325
other	-12.9328
▁protecti	-12.933
-5	-12.9348
color	-12.9351
▁assum	-12.9364
wing	-12.9374
▁academi	-12.9388
▁reserves	-12.9395
▁bang	-12.9396
▁starter	-12.9419
biza	-12.9421
write	-12.9429
ef	-12.9429
inner	-12.945
ledge	-12.9462
▁codes	-12.9467
▁wallets	-12.9473
jung	-12.9475
selling	-12.9475
▁designing	-12.9476
▁pi	-12.9476
ities	-12.9483
▁pools	-12.9491
▁extras	-12.9492
▁160	-12.9509
through	-12.951
▁north	-12.9516
case	-12.9553
cut	-12.9565
▁Meet	-12.9568
▁apps	-12.9577
▁exports	-12.958
checkouts	-12.9601
.8	-12.9605
▁baskets	-12.9609
▁42	-12.9613
▁walls	-12.9621
▁films	-12.9637
▁Enter	-12.964
ts	-12.9656
▁witnesse	-12.9656
▁los	-12.9661
checked	-12.9668
▁agreements	-12.9696
▁prim	-12.9722
▁secur	-12.9723
▁oppose	-12.9723
▁represent	-12.9725
▁grounds	-12.9725
taking	-12.9729
▁nas	-12.974
▁41	-12.9741
hand	-12.9765
filled	-12.9773
ological	-12.9779
▁Soo	-12.9784
lot	-12.9793
▁doctors	-12.9797
▁landl	-12.9803
▁Jud	-12.9803
pack	-12.9808
ta	-12.9809
:30	-12.9811
between	-12.9827
▁Text	-12.9834
weight	-12.9857
land	-12.9861
gers	-12.9889
sory	-12.9895
face	-12.9899
tch	-12.99
anning	-12.9909
location	-12.991
▁figur	-12.9913
happy	-12.9916
▁hill	-12.9923
▁stra	-12.9923
China	-12.9929
▁pie	-12.9931
cigarette	-12.9946
page	-12.9947
▁tram	-12.9948
▁brows	-12.9948
bottle	-12.9966
▁viewer	-12.9975
▁plum	-12.9975
alcohol	-12.9978
conditioner	-12.9987
▁bi	-12.9997
▁wines	-13.0004
development	-13.0013
▁arise	-13.0014
pass	-13.0014
purpose	-13.0015
▁da	-13.0021
packed	-13.0022
▁agrees	-13.0023
ore	-13.0025
length	-13.0027
fault	-13.003
work	-13.0038
sk	-13.004
table	-13.004
▁sur	-13.0048
anniversary	-13.0054
▁combin	-13.0056
▁Map	-13.0059
Free	-13.0062
portion	-13.0062
throat	-13.0063
wait	-13.0065
▁Fo	-13.0067
law	-13.0069
introduction	-13.0071
intestin	-13.0074
mark	-13.0075
foam	-13.0076
engagement	-13.0078
making	-13.0088
shared	-13.0093
sports	-13.0095
ure	-13.0101
warming	-13.0106
bacteria	-13.0118
sistance	-13.0121
angle	-13.0124
xcept	-13.0126
ffairs	-13.013
▁argument	-13.0134
▁crystal	-13.0134
▁instrument	-13.0134
▁scribble	-13.0134
there	-13.0137
▁encourage	-13.0148
▁sculpture	-13.0149
▁phamplet	-13.0149
▁muffin	-13.015
▁cheek	-13.0151
▁errand	-13.0151
bank	-13.0151
▁eyelid	-13.0152
▁waffle	-13.0152
▁knot	-13.0152
eye	-13.0154
▁newcomer	-13.0156
cigarettes	-13.0159
▁billiard	-13.016
▁checkpoint	-13.016
▁remark	-13.0163
done	-13.0164
▁hairpin	-13.0164
▁enterprise	-13.0165
▁newlywed	-13.0165
▁artifact	-13.0167
▁appliance	-13.0168
▁affair	-13.0168
▁subtitle	-13.0169
▁mural	-13.017
▁congratulation	-13.0172
▁aspect	-13.0173
▁guideline	-13.0179
▁headphone	-13.0179
▁statistic	-13.0182
▁attendee	-13.0185
yeon	-13.0189
▁insect	-13.019
▁crap	-13.0196
▁graphic	-13.0196
ning	-13.0205
20	-13.0206
▁coincide	-13.0211
▁cabs	-13.0215
▁interests	-13.0218
▁calculat	-13.0231
▁rib	-13.0233
▁Marat	-13.0234
▁wheel	-13.0236
▁propos	-13.0237
▁clam	-13.0242
je	-13.0247
▁coffees	-13.0254
star	-13.0255
▁assembl	-13.0262
nose	-13.0265
▁simplif	-13.0268
▁surviv	-13.0282
▁blond	-13.0282
▁indicat	-13.0283
▁Chu	-13.0284
▁cramp	-13.0284
▁$1	-13.0285
▁emphasiz	-13.0287
▁Tru	-13.0287
▁merchandise	-13.0288
▁stream	-13.0292
▁circu	-13.0293
▁filler	-13.0297
▁Suji	-13.0297
▁remodel	-13.0298
▁Mexic	-13.0298
▁grind	-13.0303
opped	-13.0304
▁staple	-13.0306
▁moisturize	-13.0306
▁freelance	-13.0306
abilities	-13.0307
▁fulfill	-13.0308
▁ultimate	-13.031
▁aggressive	-13.031
▁rapid	-13.031
▁n	-13.0311
▁random	-13.0311
▁appoint	-13.0311
▁gum	-13.0311
▁positions	-13.0312
onjac	-13.0312
▁preschool	-13.0312
▁nausea	-13.0312
▁jewel	-13.0312
▁energetic	-13.0312
▁condens	-13.0312
▁immers	-13.0312
▁Turk	-13.0313
▁explanat	-13.0313
▁Champions	-13.0313
Benz	-13.0313
ficiency	-13.0313
hôte	-13.0313
▁Aladdin	-13.0313
▁BMW	-13.0313
▁Barcelona	-13.0313
▁Birthday	-13.0313
▁Broadway	-13.0313
▁Commerce	-13.0313
▁DHL	-13.0313
▁Hangeul	-13.0313
▁Hawaii	-13.0313
▁Lamborghini	-13.0313
▁Malatang	-13.0313
▁Malaysia	-13.0313
▁Medusa	-13.0313
▁Mokpo	-13.0313
▁Nepal	-13.0313
▁Netherlands	-13.0313
▁Organization	-13.0313
▁Petersburg	-13.0313
▁Phillippines	-13.0313
▁Safety	-13.0313
▁Sejong	-13.0313
▁Sherlock	-13.0313
▁Sonata	-13.0313
▁Toronto	-13.0313
▁Vatican	-13.0313
▁Village	-13.0313
▁Vitamin	-13.0313
▁Yosemite	-13.0313
▁arcade	-13.0313
▁choreography	-13.0313
▁chubby	-13.0313
▁concession	-13.0313
▁constipants	-13.0313
▁counterfeit	-13.0313
▁couscous	-13.0313
▁crayons	-13.0313
▁creativity	-13.0313
▁creepy	-13.0313
▁discoloration	-13.0313
▁flickering	-13.0313
▁fraud	-13.0313
▁frizzy	-13.0313
▁identified	-13.0313
▁infirmary	-13.0313
▁infrastructure	-13.0313
▁kimbab	-13.0313
▁miracle	-13.0313
▁misunderstood	-13.0313
▁nonetheless	-13.0313
▁occupation	-13.0313
▁optician	-13.0313
▁overwhelmed	-13.0313
▁perpetrator	-13.0313
▁persuade	-13.0313
▁pigmentation	-13.0313
▁poisonous	-13.0313
▁politicians	-13.0313
▁prettiest	-13.0313
▁procrastinat	-13.0313
▁profusely	-13.0313
▁pronunciation	-13.0313
▁psychological	-13.0313
▁puppies	-13.0313
▁reckon	-13.0313
▁rollercoaster	-13.0313
▁scrumptious	-13.0313
▁skeptical	-13.0313
▁sloppy	-13.0313
▁sneeze	-13.0313
▁steroid	-13.0313
▁subordinate	-13.0313
▁tremendous	-13.0313
▁trigger	-13.0313
▁tteokbokki	-13.0313
▁umpire	-13.0313
▁unrealistic	-13.0313
▁violence	-13.0313
▁zombie	-13.0313
▁emcee	-13.0313
▁forbidden	-13.0313
▁horseriding	-13.0313
▁jaywalk	-13.0313
▁turkey	-13.0313
ACC	-13.0313
▁Basically	-13.0313
▁Powerpoint	-13.0313
▁Sausage	-13.0313
▁Secretary	-13.0313
▁botox	-13.0313
▁cherries	-13.0313
▁denied	-13.0313
▁leggings	-13.0313
▁relapse	-13.0313
▁reluctant	-13.0313
▁scallop	-13.0313
▁subsidiary	-13.0313
▁comparison	-13.0313
▁criticism	-13.0313
▁feedstuff	-13.0313
▁twelve	-13.0313
▁Salad	-13.0313
▁Smith	-13.0313
▁embezzlement	-13.0313
▁plaza	-13.0313
▁Corporation	-13.0313
▁Unbelievable	-13.0313
▁architecture	-13.0313
▁crisis	-13.0313
▁encore	-13.0313
▁grandparents	-13.0313
▁literature	-13.0313
▁turtle	-13.0313
▁dictionary	-13.0313
▁toothache	-13.0313
▁Minji	-13.0313
▁casino	-13.0313
▁eyedrops	-13.0313
▁literacy	-13.0313
▁unconditional	-13.0313
guration	-13.0313
▁bathrobe	-13.0313
▁authorization	-13.0313
▁probability	-13.0313
▁capabilities	-13.0313
▁cubes	-13.0313
licious	-13.0313
▁Fruit	-13.0313
▁gorgonzola	-13.0313
▁Kalguksu	-13.0313
▁Otherwise	-13.0313
▁cavity	-13.0313
▁dissatisfied	-13.0313
▁replied	-13.0313
▁seasick	-13.0313
▁unhealthy	-13.0313
▁booze	-13.0313
▁energize	-13.0313
▁hepatitis	-13.0313
▁Francisco	-13.0313
▁Macau	-13.0313
▁weapon	-13.0313
▁cherryade	-13.0313
▁Cheonho	-13.0313
▁ghost	-13.0313
▁Cross	-13.0313
▁veganism	-13.0313
▁sponsorship	-13.0313
▁unbearable	-13.0313
▁Laos	-13.0313
▁SUV	-13.0313
▁respondents	-13.0313
▁scones	-13.0313
▁shortcomings	-13.0313
▁jab	-13.0313
▁authorities	-13.0313
▁piping	-13.0313
▁diagonally	-13.0313
▁depreciation	-13.0313
hansan	-13.0313
▁disability	-13.0313
▁$1,000	-13.0313
▁Ramen	-13.0313
▁6:50	-13.0313
▁particles	-13.0313
▁pronto	-13.0313
▁silk	-13.0313
▁stinks	-13.0313
▁Luck	-13.0313
▁Punch	-13.0313
▁elasticity	-13.0313
▁coincidence	-13.0313
storied	-13.0313
▁happily	-13.0313
▁alteration	-13.0313
▁kitten	-13.0313
▁detection	-13.0313
▁quota	-13.0313
▁Tofu	-13.0313
▁ophthalmolog	-13.0313
▁polar	-13.0313
▁bazaar	-13.0313
▁reconsider	-13.0313
▁cannabis	-13.0313
▁bitterness	-13.0314
▁accent	-13.0314
▁masterpiece	-13.0314
▁sketch	-13.0314
▁critical	-13.0314
▁Susan	-13.0314
▁Gogh	-13.0314
▁Master	-13.0314
▁flattered	-13.0314
▁calves	-13.0314
▁compact	-13.0314
▁wobbly	-13.0314
▁notorious	-13.0314
▁recycling	-13.0314
▁periodically	-13.0314
▁sitcom	-13.0314
▁devastated	-13.0314
▁unclear	-13.0314
▁geography	-13.0314
▁embroidery	-13.0314
▁shiny	-13.0314
▁detector	-13.0314
▁guesthouse	-13.0314
▁queen	-13.0314
▁airfare	-13.0314
▁worthwhile	-13.0314
▁possession	-13.0314
▁Mala	-13.0314
▁distributor	-13.0314
▁consensu	-13.0314
▁stability	-13.0314
▁carpet	-13.0315
▁Luna	-13.0315
▁Macao	-13.0315
▁differentiation	-13.0315
▁melody	-13.0315
PA	-13.0315
▁ER	-13.0315
▁restraints	-13.0315
▁dramatic	-13.0315
▁Coach	-13.0315
▁UK	-13.0315
▁Wrap	-13.0315
▁tilted	-13.0315
▁USD	-13.0315
▁Child	-13.0315
▁aggressively	-13.0315
▁waistline	-13.0316
▁mocha	-13.0316
▁fainted	-13.0316
▁displeased	-13.0316
▁remitted	-13.0316
▁ventilate	-13.0316
▁illustrator	-13.0316
▁permitted	-13.0316
▁Cream	-13.0316
▁irregular	-13.0316
▁Anyhow	-13.0316
▁weaknesses	-13.0316
▁2015	-13.0316
▁busiest	-13.0316
▁atopy	-13.0317
▁hydrating	-13.0317
▁Nike	-13.0317
▁Kick	-13.0317
▁realizing	-13.0317
▁prediction	-13.0317
▁neckline	-13.0317
▁canteen	-13.0318
▁secondhand	-13.0318
▁topper	-13.0318
▁decreasing	-13.0318
▁laver	-13.0318
▁hunger	-13.0318
▁Employee	-13.0318
▁pursue	-13.0318
▁Jose	-13.0318
▁innovation	-13.0318
▁PP	-13.0319
▁sweetness	-13.0319
▁freshness	-13.0319
▁gross	-13.0319
▁wiping	-13.0319
▁situps	-13.0319
▁platter	-13.0319
▁equally	-13.0319
▁qualify	-13.0319
▁Spider	-13.0319
▁nabe	-13.0319
▁Patti	-13.0319
▁Guam	-13.0319
▁thoughtlessly	-13.0319
▁moles	-13.0319
▁polite	-13.0319
▁dosage	-13.0319
▁diligently	-13.0319
▁hiding	-13.0319
▁stingy	-13.032
▁blackboard	-13.032
▁1:30	-13.032
▁textile	-13.032
journ	-13.032
▁hardcover	-13.0321
▁postage	-13.0321
▁convey	-13.0321
▁semi	-13.0321
imate	-13.0321
▁stylist	-13.0321
romatic	-13.0321
▁benchmark	-13.0321
▁noiseless	-13.0321
▁photographer	-13.0321
▁sheep	-13.0321
▁crown	-13.0321
▁timeframe	-13.0321
▁guidebook	-13.0321
▁Already	-13.0322
▁yolk	-13.0322
▁1.2	-13.0322
▁Cafe	-13.0322
▁predictable	-13.0322
▁Page	-13.0322
▁assault	-13.0322
▁macro	-13.0323
▁comforter	-13.0323
▁screwed	-13.0323
▁newborn	-13.0323
▁mindset	-13.0323
▁wrinkled	-13.0323
▁navigate	-13.0324
▁underwater	-13.0324
▁homestay	-13.0324
▁binding	-13.0324
▁reissuing	-13.0324
▁friendship	-13.0324
▁snowboard	-13.0324
▁formatting	-13.0325
▁module	-13.0325
▁pouches	-13.0325
▁Mango	-13.0325
▁Window	-13.0327
▁activate	-13.0327
▁quietest	-13.0327
▁701	-13.0328
▁housekeeping	-13.0328
ug	-13.0328
▁brace	-13.0328
▁Lake	-13.0329
▁heaven	-13.033
▁debuted	-13.033
▁discarded	-13.033
▁securely	-13.033
▁dribble	-13.033
▁tightened	-13.033
▁Udo	-13.033
▁soggy	-13.0331
▁offseason	-13.0331
▁highlighted	-13.0331
▁skinny	-13.0332
▁prompt	-13.0332
▁Merc	-13.0332
best	-13.0332
▁guns	-13.0332
▁sprinkled	-13.0332
▁showcase	-13.0333
▁restore	-13.0334
▁administered	-13.0334
▁browsing	-13.0334
iography	-13.0334
▁digestion	-13.0335
uffle	-13.0335
▁mics	-13.0335
▁3:00	-13.0337
avy	-13.0337
▁journalist	-13.0337
ookie	-13.0337
▁fritters	-13.0338
▁parlors	-13.0338
▁nuggets	-13.0339
▁bloggers	-13.0339
unblock	-13.034
aneous	-13.034
▁resp	-13.0341
▁swearing	-13.0341
▁Somi	-13.0341
▁cheating	-13.0341
▁Exercis	-13.0342
▁ladder	-13.0342
▁asset	-13.0342
▁Wine	-13.0342
▁sweater	-13.0343
▁cal	-13.0344
▁exhibited	-13.0345
▁Mong	-13.0346
▁weaker	-13.0348
▁viral	-13.035
titis	-13.0351
▁terminated	-13.0352
▁appropriately	-13.0353
▁Cass	-13.0353
▁careless	-13.0353
▁competent	-13.0353
▁401	-13.0354
▁manually	-13.0355
▁roam	-13.0356
▁SAT	-13.0356
▁aqua	-13.0357
▁tension	-13.0357
▁machinery	-13.0357
▁persistent	-13.0358
▁dividend	-13.0358
▁Chul	-13.0361
parag	-13.0363
▁jet	-13.0364
▁melons	-13.0365
▁underway	-13.0365
▁folk	-13.0365
myeon	-13.0366
▁intensi	-13.0368
▁offense	-13.0368
▁responded	-13.0368
▁tightly	-13.037
▁booting	-13.037
▁poems	-13.0371
▁laughing	-13.0372
▁awake	-13.0372
▁motive	-13.0373
YO	-13.0373
▁toaster	-13.0374
▁1001	-13.0375
▁patiently	-13.0377
deok	-13.0378
yber	-13.0378
▁lunges	-13.0379
~6	-13.038
▁renovate	-13.038
▁announcer	-13.0382
▁Eggs	-13.0382
▁qualifications	-13.0382
▁tab	-13.0382
▁surfboards	-13.0382
▁grading	-13.0383
▁dragg	-13.0387
ew	-13.0387
▁bind	-13.0391
PG	-13.0391
▁wristwatch	-13.0392
▁sc	-13.0392
▁stopover	-13.0394
▁handbook	-13.0396
ership	-13.0396
▁Guest	-13.0397
▁grilling	-13.0398
▁onwards	-13.0399
▁defeat	-13.0401
▁heavi	-13.0402
▁Yong	-13.0403
▁Miss	-13.0403
▁modest	-13.0403
▁curled	-13.0405
▁Euros	-13.0407
▁refused	-13.0414
▁entic	-13.0415
▁crib	-13.0415
▁leaf	-13.0415
nterprise	-13.0416
▁Ages	-13.0416
▁nasty	-13.0416
ntrance	-13.0417
▁whoever	-13.0417
OB	-13.0418
▁lively	-13.0419
▁thighs	-13.042
urprisingly	-13.042
hearted	-13.0422
▁interviewee	-13.0423
▁giveaways	-13.0427
▁orthopedics	-13.0427
▁bagel	-13.0428
▁wiped	-13.0431
▁purchasers	-13.0435
▁recruited	-13.0435
~2	-13.0436
jeon	-13.0437
osis	-13.0445
▁Madam	-13.0445
▁followers	-13.0447
▁attack	-13.0449
pha	-13.0451
gyo	-13.0451
▁collaborate	-13.0452
▁circulate	-13.0453
bel	-13.0457
▁withered	-13.0457
▁offside	-13.0457
▁mixing	-13.0461
▁cramps	-13.0464
▁trusted	-13.0467
▁mugs	-13.0471
▁newcomers	-13.0472
▁ti	-13.0474
▁assembled	-13.0475
▁fur	-13.0479
lic	-13.0481
▁Dy	-13.0483
▁stings	-13.0487
▁Val	-13.0488
▁donating	-13.0493
▁belove	-13.0498
70	-13.0498
700	-13.0498
hoose	-13.0502
▁makeover	-13.0509
▁frank	-13.0509
▁Cheon	-13.051
▁bananas	-13.0517
▁relaxing	-13.0517
▁achievements	-13.0517
▁organs	-13.0518
▁gig	-13.0518
▁comb	-13.052
story	-13.052
▁changeroom	-13.0521
▁slacks	-13.0524
▁stabb	-13.0533
▁carryon	-13.0533
▁swell	-13.0536
▁Appl	-13.0537
▁lungs	-13.0539
▁52	-13.0539
▁Daehan	-13.0541
▁specials	-13.0541
▁saf	-13.0549
▁Gr	-13.0553
▁responsi	-13.0555
600	-13.0556
action	-13.056
▁attempts	-13.056
▁icebox	-13.0561
▁blisters	-13.0562
▁bin	-13.0562
▁Ry	-13.0565
pply	-13.0568
▁shampooing	-13.0572
▁border	-13.0585
▁Leav	-13.0587
alu	-13.0594
▁pressured	-13.0602
▁staring	-13.0603
▁broom	-13.0604
▁cords	-13.0605
▁rankings	-13.0605
▁outlets	-13.0606
▁pumpkins	-13.0607
▁newbies	-13.0608
▁limitations	-13.0608
▁La	-13.0608
▁pickpockets	-13.0614
lasting	-13.0615
▁reache	-13.0615
▁grant	-13.0616
▁x	-13.0619
▁crop	-13.0622
ber	-13.0625
lea	-13.063
▁partake	-13.0634
alty	-13.0636
▁Music	-13.0644
▁Port	-13.0653
▁officers	-13.0663
▁costly	-13.0669
▁durian	-13.0669
▁measur	-13.0669
▁boarded	-13.0674
▁drafting	-13.0676
ajor	-13.068
▁pole	-13.0683
▁aged	-13.0683
rested	-13.0686
han	-13.0688
▁pac	-13.0693
▁cents	-13.0693
▁swimsuits	-13.0698
rcul	-13.0707
▁3,500	-13.0708
▁br	-13.0723
▁contribut	-13.0738
▁surroundings	-13.0743
▁opener	-13.075
otato	-13.0754
5%	-13.0757
meter	-13.077
fry	-13.0774
▁restrain	-13.078
▁busted	-13.0782
▁deed	-13.0794
▁starve	-13.08
▁symbol	-13.0805
▁dim	-13.0812
▁designat	-13.0818
▁reverse	-13.0822
▁equip	-13.0829
▁surcharges	-13.0832
py	-13.0839
AN	-13.084
▁loans	-13.0843
▁festivals	-13.0847
▁observe	-13.0856
▁liquors	-13.0874
▁hospitals	-13.0876
▁corrected	-13.0886
▁mission	-13.0895
▁reorder	-13.0899
vil	-13.0902
bi	-13.0905
▁Sport	-13.0905
lease	-13.0906
▁reheat	-13.0912
▁heals	-13.0918
▁tumblers	-13.0922
▁adjustments	-13.0925
▁Mon	-13.0929
▁advertiser	-13.0945
▁leaks	-13.0948
rashes	-13.0953
assurance	-13.0965
▁shad	-13.0967
aging	-13.0974
▁130	-13.0984
ood	-13.0992
edium	-13.0992
tandard	-13.0996
▁attendants	-13.0997
13	-13.1005
▁happie	-13.1005
wise	-13.1013
affle	-13.1024
▁mince	-13.1026
orn	-13.1029
▁Spr	-13.1036
▁tighten	-13.1039
▁pointless	-13.1042
▁essays	-13.1057
▁invitations	-13.1058
▁Deli	-13.1073
▁pubs	-13.1081
store	-13.1087
▁economics	-13.1091
▁exceptions	-13.1096
▁exc	-13.11
▁compos	-13.1102
▁Add	-13.1105
eafood	-13.111
▁dieting	-13.1111
ngers	-13.1112
▁shifts	-13.1125
▁Sea	-13.1128
ging	-13.1132
▁Fridays	-13.1141
▁coughs	-13.1145
▁lodgings	-13.1146
ered	-13.1153
joy	-13.1157
▁Hae	-13.1173
▁authors	-13.1198
onald	-13.1205
▁bri	-13.1216
zes	-13.122
▁mal	-13.1222
▁dances	-13.1224
▁troubled	-13.1231
week	-13.1233
▁connections	-13.1238
▁Sin	-13.1245
break	-13.1247
im	-13.1252
▁exchangeable	-13.1259
▁gosh	-13.126
hairman	-13.1273
▁Bye	-13.1274
look	-13.1278
tiny	-13.1282
iled	-13.1291
▁issuer	-13.1309
da	-13.1325
▁100-	-13.1346
son	-13.1356
▁prints	-13.1358
tropolitan	-13.1378
ho	-13.1378
▁poll	-13.139
▁cu	-13.1392
▁repack	-13.1398
▁relatives	-13.14
▁Sam	-13.1404
la	-13.1409
▁pl	-13.1424
▁volunteers	-13.1437
▁commun	-13.1451
▁$	-13.1461
▁gla	-13.1461
▁soaps	-13.1463
▁wires	-13.1466
lementary	-13.1478
▁rat	-13.1513
meeting	-13.1519
6	-13.153
▁dull	-13.1539
will	-13.154
▁restrooms	-13.1543
▁Spa	-13.1543
▁notifications	-13.1552
▁forty	-13.1566
away	-13.1567
▁devote	-13.1567
▁119?	-13.1576
▁booths	-13.1594
▁skis	-13.1604
▁Ba	-13.1609
▁serviced	-13.1614
spi	-13.1621
jeong	-13.1622
▁widen	-13.1633
▁Ko	-13.1639
sources	-13.1655
▁retir	-13.1679
▁lean	-13.17
woo	-13.1703
▁tray	-13.1706
ulated	-13.1715
▁143	-13.1719
▁jams	-13.1719
▁insides	-13.1726
7,000	-13.1729
ings	-13.1729
aked	-13.1767
ept	-13.1771
aux	-13.1798
▁zones	-13.1811
▁lists	-13.1842
▁pee	-13.1872
▁acknowledge	-13.1908
sive	-13.1925
inger	-13.1926
approved	-13.1931
exchange	-13.1943
eval	-13.1956
▁Bot	-13.1957
hood	-13.1961
▁0.3	-13.1986
ably	-13.1993
▁scann	-13.1994
▁spam	-13.2003
try	-13.2004
eum	-13.201
▁ratt	-13.2014
▁ac	-13.2016
oney	-13.2018
▁vital	-13.2024
▁wounds	-13.2046
rt	-13.2066
ture	-13.2068
yung	-13.2093
▁surge	-13.2102
aimed	-13.2107
ced	-13.2113
▁pickle	-13.214
▁finances	-13.2141
▁cru	-13.2143
bet	-13.2166
▁aging	-13.2167
▁vale	-13.2168
▁mirrors	-13.2169
▁subt	-13.2182
▁perms	-13.2183
let	-13.2199
iff	-13.2209
▁compa	-13.223
▁77	-13.223
H	-13.2245
,900	-13.2251
▁favors	-13.2281
▁uni	-13.2283
▁11.	-13.2284
earing	-13.2293
subway	-13.2297
▁Di	-13.2298
nning	-13.2314
ake	-13.2318
tness	-13.2325
▁pest	-13.2326
▁rearrange	-13.2349
▁airing	-13.2362
mance	-13.2378
▁anus	-13.2387
▁theme	-13.2388
amp	-13.2398
▁7-	-13.2411
▁cultures	-13.2411
▁liver	-13.2412
▁organ	-13.2431
▁outdoors	-13.2439
▁thus	-13.2456
▁legaliz	-13.2463
▁Publi	-13.2469
▁summariz	-13.2472
umbling	-13.2476
▁vegetarians	-13.2481
rid	-13.2485
▁Doo	-13.249
▁gory	-13.2496
▁goose	-13.25
▁Roa	-13.25
soon	-13.2502
▁enhanc	-13.2514
▁improves	-13.2515
▁sl	-13.2523
arned	-13.2532
7.	-13.2535
6.	-13.254
▁Pan	-13.2544
illed	-13.2553
just	-13.2556
▁surveys	-13.2559
▁haircuts	-13.2565
ick	-13.2566
itting	-13.2573
than	-13.2591
paper	-13.2595
▁masseu	-13.2601
▁wil	-13.2616
uction	-13.2618
▁Sta	-13.2622
▁57	-13.2634
ternal	-13.2637
list	-13.2638
▁Stea	-13.2643
▁spas	-13.2646
lanning	-13.265
gency	-13.2657
▁lessen	-13.2672
ball	-13.2674
▁travels	-13.2684
▁devi	-13.2693
▁198	-13.2694
▁contributi	-13.2701
▁cla	-13.2707
hy	-13.2707
ewing	-13.2743
tro	-13.2754
enter	-13.2754
kind	-13.2755
hort	-13.276
▁controvers	-13.2763
▁Regula	-13.2768
▁Convenient	-13.2777
▁bass	-13.2778
stood	-13.2778
mb	-13.2781
▁updates	-13.2784
purchase	-13.2787
bus	-13.2792
▁malls	-13.2797
▁3?	-13.2805
▁uncertain	-13.284
▁bas	-13.284
bit	-13.285
stop	-13.2855
changed	-13.2866
▁tri	-13.2872
ypically	-13.2881
tter	-13.2885
▁Ten	-13.2891
5,	-13.2891
▁Bas	-13.2913
this	-13.2924
105.	-13.2928
▁heartb	-13.2931
depth	-13.2931
▁wraps	-13.2932
▁Week	-13.2933
grams	-13.2937
family	-13.2938
pen	-13.2938
▁tops	-13.2943
ime	-13.2947
eliveries	-13.2953
tal	-13.2969
sed	-13.2972
books	-13.2977
live	-13.2977
ingle	-13.2983
▁11,	-13.2992
apply	-13.2993
delivered	-13.3011
▁Mad	-13.302
▁Whe	-13.3021
▁stri	-13.3022
65	-13.3037
▁280	-13.3043
rist	-13.3045
▁detect	-13.3048
▁Manag	-13.3048
▁8?	-13.3056
▁Stand	-13.3056
finished	-13.3071
90	-13.3073
▁20.	-13.3075
spicy	-13.3089
▁chocolates	-13.3094
pepper	-13.3115
▁High	-13.3122
▁walks	-13.3128
driving	-13.3136
▁Bi	-13.3142
▁53	-13.3161
white	-13.3163
ound	-13.3172
▁compell	-13.3174
party	-13.3178
▁cumulat	-13.3186
▁persist	-13.3189
▁Sho	-13.319
Kim	-13.3192
▁musc	-13.3193
▁Mode	-13.3195
TV	-13.3198
ith	-13.3203
blue	-13.3204
holder	-13.3205
uddenly	-13.3214
life	-13.3214
12	-13.322
field	-13.3232
▁scal	-13.3232
kids	-13.3237
tle	-13.3242
▁revers	-13.3244
▁prob	-13.326
▁immun	-13.3268
Go	-13.3268
center	-13.3272
▁forest	-13.3275
registered	-13.3284
▁cells	-13.3288
▁clap	-13.3294
position	-13.3299
▁historic	-13.3299
▁officials	-13.3304
block	-13.3307
cking	-13.331
▁shiver	-13.331
graduate	-13.3323
blood	-13.3325
dmission	-13.333
▁wander	-13.333
ck	-13.3336
interest	-13.3344
boo	-13.3344
Man	-13.3345
.1	-13.3345
mouth	-13.3354
cies	-13.3358
▁bikin	-13.3359
▁requir	-13.3359
▁powders	-13.336
She	-13.3362
ents	-13.3364
▁foundations	-13.3368
▁Gre	-13.3369
▁54	-13.3371
▁judg	-13.3371
third	-13.3375
June	-13.3384
▁tr	-13.3386
boiled	-13.3393
vitamins	-13.3395
perform	-13.3399
scale	-13.3399
▁states	-13.3407
▁Jin	-13.3408
occupied	-13.3409
authorized	-13.341
visual	-13.3411
shop	-13.3412
hosting	-13.3419
conditioning	-13.3419
wo	-13.3423
thick	-13.3424
utumn	-13.3431
ttendance	-13.3435
▁bud	-13.3436
put	-13.3438
consum	-13.3446
weak	-13.3447
▁oversea	-13.3449
▁cra	-13.346
▁advanc	-13.3462
▁sprinkle	-13.3463
▁Underst	-13.3464
▁technique	-13.3466
▁appl	-13.3466
▁staircase	-13.3467
▁shelve	-13.3467
▁comedian	-13.3469
23	-13.3469
▁butcher	-13.347
▁blackhead	-13.3475
reporting	-13.3476
▁hormone	-13.3482
▁DVD	-13.3482
▁piercing	-13.3482
▁dispute	-13.3483
▁orthopedic	-13.3489
▁buttock	-13.3489
ou	-13.3491
see	-13.3493
▁shareholder	-13.3496
▁Electronic	-13.3497
flu	-13.3497
▁Dae	-13.3498
▁utensil	-13.3499
▁insole	-13.35
▁measurement	-13.3502
▁interact	-13.3503
▁teenager	-13.3503
▁shopper	-13.3504
▁gene	-13.3507
▁Mu	-13.3508
oo	-13.3509
▁glove	-13.3511
▁expectation	-13.3514
▁intestine	-13.3529
▁dancer	-13.353
1111	-13.353
itive	-13.3531
▁Apart	-13.3532
▁cokes	-13.3549
aek	-13.3552
▁Rose	-13.3557
▁bibl	-13.3561
▁chore	-13.3563
rage	-13.3572
mature	-13.3573
▁temp	-13.3574
▁trac	-13.3579
ada	-13.3581
bags	-13.3582
si	-13.3584
▁202	-13.3584
▁yo	-13.3585
essed	-13.3589
keys	-13.359
▁Blue	-13.3591
▁Gues	-13.3592
zza	-13.3594
ess	-13.3594
mun	-13.3596
▁Age	-13.3601
wood	-13.3602
▁Season	-13.3605
▁endoscop	-13.3606
▁Hol	-13.3606
▁criticiz	-13.3607
lac	-13.3609
12,	-13.3612
▁unbelievabl	-13.3613
▁dirt	-13.3614
▁giveaway	-13.3614
▁Hamburg	-13.3619
▁refresh	-13.3623
nvestigate	-13.3623
▁journal	-13.3624
▁developments	-13.3625
▁overflow	-13.3625
▁involve	-13.3626
▁irritate	-13.3626
▁emphasi	-13.3626
▁satisfy	-13.3628
evelopment	-13.3628
▁dub	-13.363
bump	-13.3636
▁expose	-13.3637
▁pharmac	-13.3638
ncrease	-13.3638
▁crisp	-13.3639
nstant	-13.3639
ster	-13.3641
▁trick	-13.3642
▁surround	-13.3642
Pop	-13.3642
erge	-13.3642
bviously	-13.3642
▁illustrat	-13.3643
erfect	-13.3643
▁cheerlead	-13.3643
▁nav	-13.3643
▁flex	-13.3644
▁subcontract	-13.3644
▁physi	-13.3644
▁simultaneous	-13.3645
▁systematic	-13.3645
▁$20	-13.3646
▁Graduat	-13.3646
▁arbitrar	-13.3646
▁delinquen	-13.3646
▁Disney	-13.3646
hinestone	-13.3646
▁12:35	-13.3646
▁ASAP	-13.3646
▁Apguj	-13.3646
▁Attention	-13.3646
▁Barorada	-13.3646
▁Benefit	-13.3646
▁Berlin	-13.3646
▁BlackBox	-13.3646
▁CPU	-13.3646
▁Claire	-13.3646
▁Damyang	-13.3646
▁Daniel	-13.3646
▁Euljiro	-13.3646
▁Florida	-13.3646
▁Gimbap	-13.3646
▁Hokkaido	-13.3646
▁Japchae	-13.3646
▁Jealous	-13.3646
▁Jjamppong	-13.3646
▁KimSeulKi	-13.3646
▁Kinabalu	-13.3646
▁Kuwait	-13.3646
▁MBA	-13.3646
▁MacBook	-13.3646
▁Manhattan	-13.3646
▁Michael	-13.3646
▁Moscow	-13.3646
▁Norwegian	-13.3646
▁Samrangjin	-13.3646
▁Seogwipo	-13.3646
▁Shipment	-13.3646
▁Sikhye	-13.3646
▁Sujeonggwa	-13.3646
▁Tongyeong	-13.3646
▁Twitter	-13.3646
▁URL	-13.3646
▁Wonderful	-13.3646
▁appendicitis	-13.3646
▁appetizing	-13.3646
▁biographies	-13.3646
▁briquette	-13.3646
▁burrito	-13.3646
▁chapel	-13.3646
▁charisma	-13.3646
▁chatbot	-13.3646
▁chemistry	-13.3646
▁climax	-13.3646
▁constipated	-13.3646
▁cozy	-13.3646
▁creatures	-13.3646
▁culprit	-13.3646
▁cylinder	-13.3646
▁dashcam	-13.3646
▁declining	-13.3646
▁defrost	-13.3646
▁dehydration	-13.3646
▁derailed	-13.3646
▁disgrace	-13.3646
▁dissatisfaction	-13.3646
▁drowsiness	-13.3646
▁dumbfounded	-13.3646
▁electrotherapy	-13.3646
▁fabulous	-13.3646
▁faculty	-13.3646
▁feasibility	-13.3646
▁fencing	-13.3646
▁fluffy	-13.3646
▁galleries	-13.3646
▁glucose	-13.3646
▁gradient	-13.3646
▁haenyeo	-13.3646
▁handkerchief	-13.3646
▁humiliate	-13.3646
▁hygienic	-13.3646
▁idiot	-13.3646
▁immense	-13.3646
▁infuriating	-13.3646
▁jiffy	-13.3646
▁junction	-13.3646
▁magnesium	-13.3646
▁maturity	-13.3646
▁maximize	-13.3646
▁mayonnaise	-13.3646
▁mukbang	-13.3646
▁nephew	-13.3646
▁occupants	-13.3646
▁opaque	-13.3646
▁perception	-13.3646
▁pneumonia	-13.3646
▁principal	-13.3646
▁probiotics	-13.3646
▁refurb	-13.3646
▁repellent	-13.3646
▁reservoir	-13.3646
▁reunion	-13.3646
▁rosé	-13.3646
▁samgyetang	-13.3646
▁saturated	-13.3646
▁sequel	-13.3646
▁shabby	-13.3646
▁snooker	-13.3646
▁sophisticated	-13.3646
▁spandex	-13.3646
▁spectrum	-13.3646
▁stamina	-13.3646
▁suburb	-13.3646
▁thimbles	-13.3646
▁trousers	-13.3646
▁tunnel	-13.3646
▁twirl	-13.3646
▁unacceptable	-13.3646
▁unilateral	-13.3646
▁vibrant	-13.3646
▁vogue	-13.3646
jigae	-13.3646
▁Ocean	-13.3646
▁Rumor	-13.3646
▁flaky	-13.3646
▁gluten	-13.3646
▁introvert	-13.3646
▁nosebleed	-13.3646
▁reflux	-13.3646
▁revoked	-13.3646
▁semiconductor	-13.3646
▁Collins	-13.3646
▁Hyatt	-13.3646
▁Legoland	-13.3646
▁Liquid	-13.3646
▁Publisher	-13.3646
▁Thrones	-13.3646
▁cocoa	-13.3646
▁collateral	-13.3646
▁edgy	-13.3646
▁neglect	-13.3646
▁passerby	-13.3646
▁prestig	-13.3646
▁razor	-13.3646
▁zero	-13.3646
▁EXO	-13.3646
▁Excellent	-13.3646
▁Washington	-13.3646
▁Yangsan	-13.3646
▁carnations	-13.3646
▁denim	-13.3646
▁outskirts	-13.3646
▁stubborn	-13.3646
▁suffocat	-13.3646
▁wildfire	-13.3646
▁Blood	-13.3646
▁Hyori	-13.3646
▁Jjajangmyeon	-13.3646
▁Lyft	-13.3646
▁Photoshop	-13.3646
▁Poppy	-13.3646
▁distrust	-13.3646
▁iPad	-13.3646
▁inflation	-13.3646
▁obligations	-13.3646
▁persimmons	-13.3646
hotography	-13.3646
▁Pancake	-13.3646
▁abstract	-13.3646
▁adorable	-13.3646
▁depict	-13.3646
▁sunburn	-13.3646
▁Buddh	-13.3646
▁collaborative	-13.3646
▁deterioration	-13.3646
▁downsizing	-13.3646
after	-13.3646
▁18:00	-13.3646
▁Passenger	-13.3646
▁memorizing	-13.3646
▁optimization	-13.3646
▁tacos	-13.3646
▁Delhi	-13.3646
▁alliance	-13.3646
▁derby	-13.3646
▁enema	-13.3646
▁mobilization	-13.3646
▁smiling	-13.3646
▁unplug	-13.3646
▁Digit	-13.3646
▁Simple	-13.3646
▁Sunwoo	-13.3646
▁barefoot	-13.3646
▁casualties	-13.3646
▁condiment	-13.3646
▁delinquency	-13.3646
▁diesel	-13.3646
▁friction	-13.3646
▁slope	-13.3646
▁comparatively	-13.3646
▁decade	-13.3646
▁misdirect	-13.3646
▁patience	-13.3646
▁terrific	-13.3646
▁Jihee	-13.3646
▁Kakaotalk	-13.3646
▁kidney	-13.3646
▁utilities	-13.3646
▁Delta	-13.3646
▁Performance	-13.3646
▁bankruptcy	-13.3646
▁counteragent	-13.3646
▁fetus	-13.3646
▁halibut	-13.3646
▁kettle	-13.3646
▁definition	-13.3646
▁dislocated	-13.3646
▁floodgate	-13.3646
▁abandon	-13.3646
▁Huh	-13.3646
▁Denver	-13.3646
▁Suseo	-13.3646
▁suncream	-13.3646
▁shopkeeper	-13.3646
▁template	-13.3646
▁carelessness	-13.3646
▁yield	-13.3646
▁coarse	-13.3646
▁coordinator	-13.3646
▁Yuri	-13.3646
▁captain	-13.3646
▁inoculation	-13.3646
▁Gangneung	-13.3646
▁grandpa	-13.3646
▁cruel	-13.3646
▁scatter	-13.3646
responsibilities	-13.3646
▁lifeguard	-13.3646
▁minister	-13.3646
▁rainfall	-13.3646
▁strands	-13.3646
▁$30	-13.3646
▁espresso	-13.3646
▁Graduation	-13.3646
▁childbirth	-13.3646
▁tablecloth	-13.3646
▁Guys	-13.3646
▁fingernails	-13.3646
▁cleanliness	-13.3646
▁Application	-13.3646
▁Seung	-13.3646
▁database	-13.3646
▁condensation	-13.3646
▁Contract	-13.3646
▁Portugal	-13.3646
▁grandson	-13.3646
▁nacho	-13.3646
▁capability	-13.3646
▁cartoonist	-13.3646
▁doorstep	-13.3646
▁eager	-13.3646
▁enrollment	-13.3646
▁Submit	-13.3647
▁population	-13.3647
▁fishcakes	-13.3647
▁immersion	-13.3647
▁skillful	-13.3647
▁Darn	-13.3647
▁9:50	-13.3647
▁counterpart	-13.3647
▁Shabu	-13.3647
▁9:00	-13.3647
▁necktie	-13.3647
▁craft	-13.3647
unchtime	-13.3647
▁intermittently	-13.3647
▁sparse	-13.3647
▁8:00	-13.3647
▁softcover	-13.3647
▁hernia	-13.3647
▁transformation	-13.3647
▁Paul	-13.3647
▁respectively	-13.3647
▁jaw	-13.3647
▁Break	-13.3647
▁keyrings	-13.3647
▁stunning	-13.3647
▁bidder	-13.3647
▁energetically	-13.3647
▁Nurse	-13.3647
empura	-13.3647
▁Cyber	-13.3647
▁Peru	-13.3647
▁germs	-13.3647
▁treasure	-13.3647
▁Cuba	-13.3647
▁reconstruction	-13.3647
▁indication	-13.3647
▁explosion	-13.3647
▁Jongno	-13.3647
▁recline	-13.3647
▁dishwashing	-13.3647
▁kitchenware	-13.3647
▁sentiment	-13.3647
▁excel	-13.3647
▁concise	-13.3647
▁Wifi	-13.3647
▁chapped	-13.3647
▁baht	-13.3647
▁libraries	-13.3647
▁reruns	-13.3647
▁trophy	-13.3647
▁Marg	-13.3647
▁Taeh	-13.3647
▁confi	-13.3647
▁profitability	-13.3647
▁possess	-13.3647
▁Neither	-13.3647
▁sexy	-13.3647
▁undecided	-13.3647
▁armrest	-13.3647
▁discolored	-13.3647
miscommunication	-13.3647
bullying	-13.3648
▁indemni	-13.3648
-0000	-13.3648
▁novelist	-13.3648
▁rescheduling	-13.3648
▁conci	-13.3648
aejanggu	-13.3648
▁squashy	-13.3648
▁uneasy	-13.3648
▁Jeong	-13.3648
▁feather	-13.3648
▁furious	-13.3648
▁commemoration	-13.3648
▁unknown	-13.3648
▁furry	-13.3648
▁Belly	-13.3648
▁exfoliator	-13.3648
▁cockroaches	-13.3648
▁Payment	-13.3648
▁dripping	-13.3648
▁gambling	-13.3648
▁harmony	-13.3649
▁healthily	-13.3649
▁Certificate	-13.3649
▁hyped	-13.3649
TX	-13.3649
▁Definitely	-13.3649
▁silly	-13.3649
▁simultaneously	-13.3649
▁1201	-13.3649
▁Changwon	-13.3649
▁shards	-13.3649
▁rusty	-13.3649
▁absentee	-13.3649
▁Return	-13.3649
▁manger	-13.365
▁blueprint	-13.365
▁2016	-13.365
▁tableware	-13.365
▁command	-13.365
easant	-13.365
▁puffy	-13.365
▁prepaid	-13.365
▁ultimately	-13.365
▁ruling	-13.365
▁Consumer	-13.365
▁intriguing	-13.365
▁deteriorate	-13.3651
▁stacked	-13.3651
▁PE	-13.3651
▁occasional	-13.3651
▁unfriendly	-13.3651
▁distracting	-13.3651
▁relegated	-13.3651
▁stepping	-13.3651
▁securities	-13.3651
▁selfish	-13.3651
▁PO	-13.3651
▁dazed	-13.3651
▁attire	-13.3651
▁informative	-13.3651
▁astronomical	-13.3651
▁Cheong	-13.3651
▁Hanna	-13.3652
▁IoT	-13.3652
▁nationality	-13.3652
▁execute	-13.3652
▁consecutively	-13.3652
▁Pick	-13.3653
nstru	-13.3653
▁lifestyle	-13.3653
▁Univ	-13.3653
▁Shinsa	-13.3653
▁statu	-13.3653
▁overdose	-13.3653
▁dented	-13.3653
▁casually	-13.3654
▁undone	-13.3654
▁imposed	-13.3654
▁distinguishable	-13.3654
▁buttonhole	-13.3654
▁detected	-13.3654
▁158	-13.3654
▁teahouse	-13.3654
▁penny	-13.3654
▁bookmark	-13.3654
▁kn	-13.3654
▁refuel	-13.3655
▁miserable	-13.3655
▁inaccurate	-13.3655
▁wrapper	-13.3655
▁117	-13.3655
▁carsick	-13.3655
Infinit	-13.3655
nclud	-13.3655
▁1501	-13.3655
▁punctual	-13.3655
▁lingering	-13.3656
▁criticize	-13.3656
▁Normal	-13.3656
▁radishes	-13.3656
▁pesos	-13.3657
▁1.3	-13.3657
▁terrorism	-13.3657
▁illnesses	-13.3657
▁electronically	-13.3657
▁seaside	-13.3657
▁resemble	-13.3658
fulfillment	-13.3658
▁negatively	-13.3658
▁interpreting	-13.3659
▁uneven	-13.3659
▁SK	-13.3659
▁midday	-13.3659
▁90%	-13.3659
▁witty	-13.3659
▁handout	-13.3659
▁Dior	-13.366
evertheless	-13.366
▁shipper	-13.366
▁powerhouse	-13.366
▁alleyway	-13.3661
▁stapler	-13.3661
▁enforced	-13.3661
▁rust	-13.3661
▁21,000	-13.3661
▁hardened	-13.3661
TA	-13.3662
▁delic	-13.3662
▁yum	-13.3662
▁4.5	-13.3663
▁admin	-13.3663
21.	-13.3664
▁viruses	-13.3664
▁intolerant	-13.3665
▁allocated	-13.3665
▁Mexico	-13.3666
▁reli	-13.3667
▁inspector	-13.3667
▁fussy	-13.3668
▁disassemble	-13.3668
▁worms	-13.3668
▁exempt	-13.3668
7:00	-13.3669
▁marketplace	-13.3669
▁Watcha	-13.3669
▁Mike	-13.3669
▁deadly	-13.367
▁specialist	-13.367
▁fertil	-13.367
▁protector	-13.367
▁initiated	-13.367
▁dozen	-13.3671
▁fastened	-13.3671
▁diagnose	-13.3672
Shirt	-13.3673
▁inappropriate	-13.3673
▁keepsake	-13.3673
▁deny	-13.3673
▁Aunt	-13.3673
▁pride	-13.3674
▁shootout	-13.3674
▁Act	-13.3674
▁restored	-13.3674
▁loosely	-13.3675
▁existed	-13.3675
▁roadside	-13.3675
▁coding	-13.3675
▁earnest	-13.3675
▁initiate	-13.3676
▁copyright	-13.3676
▁Setting	-13.3677
▁bureau	-13.3677
▁2.3	-13.3678
▁Ribs	-13.3678
▁waxed	-13.3678
▁wedge	-13.3678
▁repayments	-13.3679
▁cancelled	-13.368
▁brave	-13.368
▁dense	-13.3681
▁salesman	-13.3681
▁Bang	-13.3681
▁Alone	-13.3682
▁Absolutely	-13.3682
ishes	-13.3682
▁bedside	-13.3683
▁fossils	-13.3683
▁implants	-13.3683
▁freckles	-13.3684
▁impressionists	-13.3684
▁Rings	-13.3684
▁continent	-13.3684
▁retailers	-13.3685
▁shredd	-13.3685
zel	-13.3686
▁Photos	-13.3686
▁Yup	-13.3686
▁Training	-13.3686
▁612	-13.3686
▁purifie	-13.3687
▁skates	-13.3688
▁doorway	-13.3688
▁brownies	-13.3688
▁cheater	-13.369
▁setback	-13.3691
▁yelling	-13.3693
▁empt	-13.3693
▁celebs	-13.3694
▁disinfected	-13.3694
pong	-13.3694
▁sequence	-13.3695
nighter	-13.3695
▁upward	-13.3695
▁repay	-13.3695
▁Udon	-13.3695
▁checklist	-13.3695
logged	-13.3696
▁wirelessly	-13.3696
▁sideways	-13.3698
▁functional	-13.3699
▁professionally	-13.3699
▁destroy	-13.3699
company	-13.3699
▁confidently	-13.3699
▁fortune	-13.37
izza	-13.3701
▁overboard	-13.3702
ency	-13.3703
▁rubbing	-13.3704
▁clipper	-13.3705
▁charming	-13.3708
▁pressuring	-13.3708
▁Olle	-13.3709
▁distan	-13.3709
▁therapist	-13.3709
▁achievable	-13.371
▁acidity	-13.371
▁endless	-13.3712
▁Frankl	-13.3712
▁inefficient	-13.3712
imilar	-13.3712
▁imply	-13.3714
▁Town	-13.3714
pine	-13.3715
▁deserved	-13.3716
▁Chung	-13.3717
▁softly	-13.3718
▁Jeon	-13.3718
▁elected	-13.3718
▁fullest	-13.3719
▁retired	-13.3719
.14	-13.3722
istening	-13.3723
▁255	-13.3724
▁interviewer	-13.3724
▁cr	-13.3726
▁linger	-13.3726
▁blam	-13.3726
▁acquire	-13.3726
▁batch	-13.3726
ause	-13.3731
▁adapting	-13.3732
▁follower	-13.3732
▁pale	-13.3733
▁pandas	-13.3733
▁deeds	-13.3734
▁relate	-13.3737
▁bossam	-13.3738
▁fool	-13.3739
▁compatib	-13.3739
▁503	-13.3739
▁salesperson	-13.374
▁thesedays	-13.374
▁realtime	-13.3741
▁conductor	-13.3741
▁spine	-13.3742
▁provinces	-13.3743
▁prequels	-13.3747
rella	-13.3747
▁consum	-13.3748
▁lov	-13.3748
▁shri	-13.3749
▁fifty	-13.3751
▁snowing	-13.3752
▁playoff	-13.3753
evin	-13.3756
▁surve	-13.3757
▁critics	-13.3758
▁procure	-13.3759
▁payphone	-13.3763
▁sever	-13.3766
▁511	-13.3767
▁straightening	-13.3769
ifferent	-13.3774
▁unti	-13.3775
istribution	-13.3775
▁Pain	-13.3776
▁washroom	-13.3777
1234567	-13.3778
▁Union	-13.3779
months	-13.3779
▁Previous	-13.3785
ernes	-13.3786
rooms	-13.3787
▁Pack	-13.3789
▁leaking	-13.3789
▁Study	-13.379
▁fixer	-13.3791
▁Mega	-13.3791
listed	-13.3793
▁weaken	-13.3797
▁windy	-13.3801
▁washable	-13.3803
▁ManWol	-13.3808
▁disputes	-13.3812
▁piercings	-13.3812
▁DVDs	-13.3812
▁hormones	-13.3813
▁dusty	-13.3817
aint	-13.382
▁withstand	-13.382
▁Must	-13.3822
▁persever	-13.3832
▁4%	-13.3833
▁broc	-13.3834
▁51	-13.3836
▁Math	-13.3844
Sa	-13.3844
▁coated	-13.3845
▁Reserv	-13.3847
now	-13.3848
hronic	-13.385
▁publicly	-13.385
oybean	-13.3851
eased	-13.3851
ify	-13.3852
pe	-13.3854
▁travelers	-13.3857
▁translat	-13.3863
▁Cover	-13.3867
und	-13.3871
▁habitual	-13.3871
▁Cancel	-13.3872
▁cutter	-13.3875
▁errands	-13.3875
▁eyelids	-13.3875
cute	-13.3875
amic	-13.3876
▁muffins	-13.3877
▁waffles	-13.3878
▁graphics	-13.3878
▁phamplets	-13.3878
▁sculptures	-13.3878
roll	-13.3879
▁wheels	-13.388
▁drunken	-13.3881
▁utilit	-13.3885
▁soonest	-13.3896
▁steer	-13.3903
990	-13.3905
▁quoted	-13.3905
▁arrows	-13.3915
▁Gwangan	-13.3916
redit	-13.392
93	-13.3922
▁outsource	-13.3923
ag	-13.3924
▁Choo	-13.3924
▁theatres	-13.3936
NL	-13.3936
▁compounds	-13.3936
▁moisturizers	-13.3941
▁cent	-13.3941
▁manicures	-13.3944
ale	-13.3948
quet	-13.3948
▁intestin	-13.3955
▁cleanly	-13.3966
▁distribut	-13.3967
▁Mo	-13.3968
isplay	-13.3971
▁Classic	-13.3977
ops	-13.3981
▁Stretch	-13.3984
▁instance	-13.3989
▁sail	-13.3989
▁spell	-13.3992
▁vocal	-13.3996
▁fringe	-13.3996
cell	-13.4002
treat	-13.4006
▁drown	-13.4006
▁YouTubers	-13.4009
▁lobsters	-13.401
▁sidewalks	-13.401
▁dinosaurs	-13.401
ygen	-13.4011
▁abo	-13.4015
▁Ball	-13.4021
▁reboot	-13.4022
tial	-13.4023
▁Idol	-13.4023
ekeeper	-13.4024
east	-13.4024
▁balms	-13.4038
▁unlock	-13.404
▁Swi	-13.4049
▁finaliz	-13.4058
▁tile	-13.4058
▁pat	-13.4059
▁sober	-13.4064
▁ruins	-13.4067
▁simpler	-13.4068
▁caregivers	-13.4076
▁illustrations	-13.4076
▁sto	-13.4081
▁Den	-13.4081
0.	-13.4082
11,	-13.4084
▁Z	-13.4088
iscal	-13.4091
lim	-13.4097
▁depress	-13.4097
▁hanger	-13.4098
▁pine	-13.4102
▁Chim	-13.4103
▁mending	-13.4109
tz	-13.411
▁repulsi	-13.4114
▁stat	-13.4116
▁Beans	-13.4119
ightened	-13.412
port	-13.412
▁delight	-13.4123
ery	-13.4126
▁ties	-13.4134
▁molars	-13.4135
lashes	-13.4135
▁appearances	-13.414
▁bundles	-13.414
▁rackets	-13.414
▁vibrations	-13.4141
▁madeleines	-13.4142
▁subscriptions	-13.4142
▁extinguishers	-13.4142
ripping	-13.4144
▁Writ	-13.4145
stands	-13.416
▁itching	-13.4163
▁warehoused	-13.4163
▁yawn	-13.4164
arded	-13.4172
▁eliminate	-13.4179
▁soared	-13.4179
oni	-13.4183
▁Grou	-13.4186
▁cultivate	-13.4188
▁objectives	-13.4202
▁bubbles	-13.4204
under	-13.4204
▁expenditures	-13.4208
▁incentives	-13.421
▁bold	-13.4218
▁rails	-13.4219
▁Quit	-13.4224
The	-13.4229
tended	-13.4233
▁detach	-13.4235
equ	-13.4235
▁1,2	-13.4248
▁collective	-13.4248
make	-13.4249
where	-13.4249
▁weights	-13.4253
▁recorder	-13.4255
▁Cal	-13.4255
ek	-13.4256
ittle	-13.4261
ja	-13.4263
▁blanks	-13.4265
▁viewed	-13.4265
▁victims	-13.4267
lk	-13.4268
tation	-13.4273
cause	-13.4274
▁anyhow	-13.4277
ium	-13.4282
ram	-13.4286
ashed	-13.4294
bs	-13.4294
▁sturd	-13.4295
▁Pl	-13.4296
▁nag	-13.4303
▁ponder	-13.4303
call	-13.4308
▁repairmen	-13.4312
citizens	-13.4316
▁undertake	-13.4319
▁presenters	-13.4339
▁hangovers	-13.4339
▁improvements	-13.4341
▁upright	-13.4342
▁pyeong	-13.4347
ilver	-13.435
▁generat	-13.436
esi	-13.4363
ple	-13.4363
yo	-13.4366
▁adhere	-13.4367
▁managers	-13.4368
▁obse	-13.4379
scal	-13.4381
▁16.	-13.4384
▁tail	-13.4384
▁Late	-13.4388
▁pla	-13.4389
▁hates	-13.4395
▁suitabl	-13.4399
▁compositions	-13.4404
nch	-13.4405
▁pause	-13.4425
mission	-13.4427
▁jo	-13.4449
▁paths	-13.445
▁Swe	-13.4451
spiring	-13.4456
▁stranger	-13.4464
▁sca	-13.4468
▁alternatives	-13.447
aseball	-13.4475
range	-13.4487
logical	-13.4489
▁Book	-13.4493
▁counting	-13.4496
▁tack	-13.4513
▁oils	-13.4516
▁trop	-13.4521
▁Toy	-13.4522
▁celebrat	-13.4523
▁wor	-13.4525
▁Dance	-13.4529
hall	-13.4532
ater	-13.4535
▁Individual	-13.4537
▁farms	-13.4538
hic	-13.4555
▁Test	-13.4558
▁30,	-13.4559
▁retain	-13.4561
buy	-13.4562
▁lettering	-13.4562
ators	-13.4565
▁breasts	-13.4576
▁repurchase	-13.4581
▁tubes	-13.4583
▁ev	-13.4586
▁trainers	-13.4586
▁marts	-13.4592
▁households	-13.4602
wling	-13.461
some	-13.4623
06	-13.4628
eong	-13.4641
wards	-13.4659
▁tonic	-13.4665
11	-13.4671
atching	-13.4682
jected	-13.4696
▁pins	-13.4702
ingdom	-13.4712
illion	-13.4713
▁siblings	-13.473
▁scandals	-13.4732
▁unif	-13.4744
▁Mer	-13.4755
oda	-13.4759
▁Jae	-13.4761
uckwheat	-13.4761
lute	-13.4763
▁horizontal	-13.4766
ipping	-13.4778
rail	-13.4779
▁vessels	-13.4796
▁ratios	-13.4796
▁te	-13.4797
▁Fu	-13.4804
▁promises	-13.4812
▁cam	-13.4823
rics	-13.4828
▁Driv	-13.4832
▁Top	-13.4835
▁smash	-13.4836
▁remains	-13.485
▁armpit	-13.4853
▁failures	-13.4862
▁treadmills	-13.4864
▁Again	-13.4874
ards	-13.4897
▁55,	-13.4898
▁supporter	-13.4911
many	-13.4912
▁Thes	-13.492
▁boys	-13.492
ants	-13.4924
▁agreeing	-13.4934
▁discounting	-13.4936
with	-13.4939
dish	-13.4947
▁touche	-13.4961
teful	-13.4962
You	-13.4962
▁bitte	-13.4969
▁glamo	-13.497
about	-13.4974
ublic	-13.4975
ude	-13.4984
close	-13.5003
mping	-13.5006
▁Seon	-13.5008
▁yell	-13.5014
alked	-13.5032
gle	-13.5032
▁lover	-13.5035
▁experiments	-13.5036
SE	-13.5039
em	-13.5041
▁Ave	-13.5041
▁adv	-13.5044
:40	-13.5045
20,000	-13.5057
▁sources	-13.5058
▁scholarships	-13.5064
500	-13.5066
▁assess	-13.5067
onstruction	-13.5067
▁academ	-13.5076
▁retr	-13.5077
▁asks	-13.5086
stro	-13.5093
ummy	-13.5112
▁performer	-13.5112
▁lookout	-13.5115
new	-13.5116
▁fights	-13.5132
▁Cart	-13.5132
▁bleache	-13.5146
▁Brown	-13.5154
▁56	-13.5156
geous	-13.5167
spit	-13.518
▁presentations	-13.5184
emed	-13.5205
tches	-13.5207
▁Us	-13.5236
even	-13.5236
dding	-13.5239
▁submitt	-13.5255
▁ste	-13.5256
▁smartphones	-13.5257
▁28,	-13.5269
▁lu	-13.5271
▁purchaser	-13.5274
▁imp	-13.5276
▁takers	-13.5278
▁overcom	-13.5285
▁motivate	-13.5292
▁prizes	-13.5305
▁meter	-13.5309
▁Smok	-13.5314
▁thrill	-13.5316
funded	-13.5327
ami	-13.533
▁expirat	-13.5344
▁hydrate	-13.5348
▁hairs	-13.5349
▁incidents	-13.535
funda	-13.5351
▁garn	-13.5351
olio	-13.5352
ption	-13.5362
izing	-13.5368
▁classy	-13.5373
fication	-13.5374
▁sin	-13.5394
iv	-13.5407
▁ripe	-13.5414
othing	-13.5427
▁mails	-13.5431
pplies	-13.5433
▁issu	-13.5452
▁almond	-13.5458
▁seasonings	-13.5465
▁soci	-13.5466
cts	-13.5475
lling	-13.5484
oge	-13.5484
▁fired	-13.5485
vas	-13.5491
ence	-13.5494
ides	-13.552
▁peppers	-13.5527
lio	-13.5531
mbled	-13.5534
othes	-13.5538
▁liber	-13.5557
▁compil	-13.5564
▁airy	-13.5566
▁splash	-13.5569
mmed	-13.5569
▁restart	-13.5569
▁Col	-13.5575
estri	-13.558
▁tracks	-13.5584
▁voices	-13.5594
clud	-13.5596
ex	-13.5621
▁$50	-13.5623
▁j	-13.5626
hi	-13.563
▁Set	-13.5631
▁Ladi	-13.5635
▁usable	-13.5641
▁traverse	-13.5652
▁Nar	-13.5661
▁Gla	-13.5663
unit	-13.5667
ainly	-13.5671
▁Care	-13.568
▁50,	-13.5686
oli	-13.5686
nc	-13.5692
210	-13.5693
nder	-13.5711
▁integrat	-13.5712
▁relationships	-13.5714
▁moves	-13.5729
▁afterwards	-13.5734
sim	-13.5747
self	-13.5748
▁sincere	-13.5769
eez	-13.5769
▁necklaces	-13.5775
▁sal	-13.5781
BC	-13.5783
▁Hwa	-13.5803
rry	-13.5807
▁fin	-13.582
▁Cheo	-13.5825
aries	-13.5827
pan	-13.5832
ache	-13.5837
lways	-13.5869
harg	-13.5871
▁cinemati	-13.5887
▁resumes	-13.5891
would	-13.5911
little	-13.5913
▁zi	-13.5919
▁Pr	-13.5934
ger	-13.5935
claimed	-13.5946
dle	-13.595
▁fist	-13.5954
▁Soon	-13.5954
ux	-13.5957
▁secrete	-13.5968
▁erupt	-13.5977
▁Ham	-13.5982
bbing	-13.5984
os	-13.5993
hief	-13.6008
rolled	-13.6022
▁nod	-13.6035
titled	-13.6066
▁overwork	-13.6068
▁Low	-13.611
ft	-13.6116
seater	-13.612
42	-13.6127
hard	-13.6133
▁Plan	-13.6137
.3	-13.6148
▁Minwo	-13.6149
▁Dongm	-13.615
▁destinations	-13.6151
tical	-13.6155
.5	-13.6156
▁declarations	-13.6168
▁compose	-13.6174
4%	-13.6202
ibility	-13.6205
ec	-13.6208
▁Nam	-13.6217
ought	-13.622
▁brim	-13.623
ase	-13.6234
▁broadcasts	-13.6247
trusted	-13.6269
▁Hyu	-13.6271
please	-13.6276
▁Premi	-13.6279
▁War	-13.6285
▁whi	-13.6291
▁cellphones	-13.6295
sang	-13.6297
▁hopeless	-13.6298
der	-13.6298
▁polishe	-13.63
▁humans	-13.6314
▁jumb	-13.6324
ually	-13.6324
▁aboard	-13.6336
cance	-13.6337
ave	-13.634
▁saunas	-13.6344
flat	-13.6344
ssive	-13.6377
▁doze	-13.6391
▁fl	-13.6396
nwoo	-13.6417
▁Per	-13.642
dsheets	-13.643
ecurities	-13.6441
dered	-13.6451
▁17,	-13.6452
nyone	-13.6472
▁carte	-13.6475
ori	-13.6479
▁umbrellas	-13.6485
▁3,8	-13.6523
▁100,	-13.6527
inish	-13.6528
echnically	-13.6529
▁Yeo	-13.6542
▁reattach	-13.6547
front	-13.6549
ila	-13.6564
▁dated	-13.6565
etropolitan	-13.6573
log	-13.6591
▁fatal	-13.6594
58,	-13.6626
...	-13.6629
▁Pal	-13.6641
▁Dan	-13.6644
due	-13.6646
▁pri	-13.6661
▁counters	-13.667
tty	-13.6672
▁5:	-13.6674
▁gl	-13.6676
▁Remo	-13.6678
▁sw	-13.6678
iger	-13.6679
lled	-13.6679
▁prescriptions	-13.6691
▁Expens	-13.6696
▁gentlem	-13.6697
04	-13.67
▁shampoos	-13.6701
▁ag	-13.6702
▁stocks	-13.6713
60,000	-13.6718
hase	-13.6718
lmonds	-13.6729
delivery	-13.6755
rain	-13.677
office	-13.677
▁13,	-13.6782
▁musicals	-13.6808
ac	-13.6824
▁autom	-13.6863
tering	-13.6872
▁21,	-13.6878
▁doors	-13.6892
eun	-13.6894
▁Sams	-13.6897
cu	-13.6912
▁Dead	-13.6924
ncheon	-13.6942
▁clu	-13.6959
▁commit	-13.6981
elicopter	-13.7036
▁49	-13.7042
▁slam	-13.705
cted	-13.7052
5.	-13.7055
nes	-13.7056
nails	-13.7071
▁Total	-13.7107
▁sn	-13.7117
▁Con	-13.7136
ride	-13.7149
▁shou	-13.7151
meters	-13.7154
▁retract	-13.7157
38	-13.7158
rial	-13.7162
▁demo	-13.7172
▁fu	-13.7174
▁cl	-13.7177
▁overlook	-13.7183
your	-13.7192
▁transform	-13.7203
▁Byun	-13.7206
icult	-13.7217
vi	-13.7223
▁exfoliat	-13.7244
▁pointer	-13.7251
▁Medi	-13.7254
▁chi	-13.7261
iation	-13.7267
▁regulars	-13.7269
bore	-13.727
▁subsid	-13.7292
od	-13.73
▁sen	-13.7303
atory	-13.7308
▁linear	-13.7308
hin	-13.7328
performance	-13.7328
ening	-13.7337
▁Vic	-13.7338
▁bless	-13.736
▁committe	-13.7362
▁raci	-13.7368
▁inning	-13.738
CT	-13.7384
▁tic	-13.7389
▁rep	-13.739
▁succ	-13.7395
▁sli	-13.7401
orking	-13.7406
▁fe	-13.7407
walk	-13.741
▁commercialize	-13.741
arily	-13.7411
▁190	-13.7411
ental	-13.7412
eries	-13.7415
nts	-13.7419
It	-13.744
taxi	-13.7441
plan	-13.7445
▁Ke	-13.7463
half	-13.7474
▁ga	-13.7474
▁shin	-13.7485
ular	-13.7489
8,	-13.7494
▁texts	-13.7507
retic	-13.7508
icket	-13.7511
extra	-13.7539
▁showings	-13.7539
▁fle	-13.7539
ina	-13.7541
▁overeat	-13.7542
cat	-13.755
eems	-13.7563
ends	-13.7565
▁ambi	-13.7577
▁resist	-13.7625
itten	-13.7631
rical	-13.7637
▁decisions	-13.7644
second	-13.7646
flies	-13.768
▁presen	-13.7689
because	-13.7701
▁concentrati	-13.7713
▁Leg	-13.7719
stock	-13.7726
▁resell	-13.7736
main	-13.7742
changing	-13.7742
rice	-13.7747
ums	-13.7765
edes	-13.7769
point	-13.7777
▁mak	-13.7778
shine	-13.7798
▁Manage	-13.7799
ole	-13.7811
kills	-13.7823
elivery	-13.7828
▁escalators	-13.7833
▁Fol	-13.7842
▁mi	-13.7845
▁650	-13.7847
ey	-13.785
moving	-13.7851
ounted	-13.7854
press	-13.7854
▁admi	-13.7863
oking	-13.7873
▁engage	-13.7873
submit	-13.7881
▁terminals	-13.7896
scribe	-13.7899
▁47	-13.79
urely	-13.7907
▁Ren	-13.7913
▁eater	-13.7914
▁accus	-13.7921
▁simpl	-13.7925
▁wing	-13.7925
▁Ne	-13.7938
▁controls	-13.7942
drive	-13.7947
▁Gun	-13.7951
▁ke	-13.7961
entral	-13.7964
▁Gwangj	-13.7966
▁dr	-13.7968
oping	-13.7977
bu	-13.7978
pants	-13.7985
dishes	-13.7988
was	-13.7993
cake	-13.8015
cing	-13.8017
cket	-13.8017
gate	-13.8034
▁Mus	-13.8041
counter	-13.8049
▁Mac	-13.805
▁Eye	-13.8051
▁Gra	-13.8057
15	-13.8057
2%	-13.8061
seller	-13.8065
watching	-13.8067
abroad	-13.8076
signed	-13.8077
tuber	-13.808
▁Yang	-13.8081
ground	-13.8083
nding	-13.8085
mind	-13.8091
▁si	-13.8093
forward	-13.8095
shipment	-13.8103
past	-13.8105
general	-13.8112
source	-13.8114
▁innovat	-13.8114
smoker	-13.8118
ST	-13.8126
▁spec	-13.8126
▁overexert	-13.8127
nderstanding	-13.813
▁oranges	-13.8133
▁Boy	-13.8136
loading	-13.814
load	-13.8145
checkout	-13.8146
adults	-13.8147
▁mag	-13.8153
members	-13.8157
lette	-13.8159
tail	-13.8163
women	-13.8169
▁Hon	-13.8172
itis	-13.8173
grade	-13.8173
cleaning	-13.8176
▁TA	-13.82
▁dads	-13.82
▁thoughtful	-13.8204
▁interfer	-13.8207
ruck	-13.8214
▁declar	-13.8218
ments	-13.822
▁Proc	-13.8222
▁Pro	-13.8229
hole	-13.8229
angwon	-13.823
allergic	-13.8237
lamp	-13.8242
foot	-13.8243
Card	-13.8245
▁tee	-13.8246
xed	-13.826
perfect	-13.8261
▁unf	-13.8262
hold	-13.8264
August	-13.8266
words	-13.8272
Line	-13.8273
blem	-13.8278
connected	-13.8278
efficient	-13.828
▁contin	-13.8283
having	-13.8285
ute	-13.8292
Pass	-13.8302
▁Pe	-13.8306
▁gener	-13.8308
partment	-13.8308
aising	-13.8312
▁71	-13.8317
gun	-13.8324
▁Had	-13.8324
topic	-13.8325
▁mor	-13.8328
satisfied	-13.8328
brown	-13.8329
X	-13.833
upload	-13.8333
October	-13.8333
stocked	-13.8338
opping	-13.8341
war	-13.8344
largest	-13.8348
capacity	-13.8348
dols	-13.8348
bal	-13.835
gathering	-13.8352
digit	-13.8352
aying	-13.8353
fire	-13.8353
therapy	-13.8355
▁1,0	-13.8356
▁Euro	-13.8358
Lee	-13.8361
Parasite	-13.8363
passenger	-13.8364
liquid	-13.8367
▁330	-13.8367
grilled	-13.8368
valid	-13.8371
purchasing	-13.8372
transit	-13.8372
caffeine	-13.8372
produce	-13.8377
degree	-13.8378
aerobic	-13.8379
Un	-13.8383
Dear	-13.8386
ManWol	-13.8386
▁AB	-13.8387
sition	-13.8389
release	-13.8391
assembly	-13.8393
▁evacuat	-13.8394
package	-13.8395
▁spil	-13.8396
autumn	-13.8396
commerce	-13.8397
designed	-13.84
effects	-13.8402
exempted	-13.8402
brid	-13.8413
zip	-13.8415
ribs	-13.8415
ncies	-13.8415
nasty	-13.8417
Won	-13.8417
virus	-13.8418
tracking	-13.8418
mix	-13.8422
garments	-13.8422
ccommodation	-13.8422
▁servic	-13.8425
▁socializ	-13.8427
rowning	-13.8427
insert	-13.843
grain	-13.843
East	-13.8434
▁wav	-13.8437
built	-13.8438
burnt	-13.8438
lying	-13.8439
▁budge	-13.8439
▁Hap	-13.8443
▁inconvenienc	-13.8448
rate	-13.8451
▁kaya	-13.8453
▁horizon	-13.8453
▁critic	-13.8454
▁appendi	-13.8455
ntibiotics	-13.8457
ply	-13.8458
Ri	-13.8462
nimal	-13.8463
▁Ph	-13.8464
ranking	-13.8467
▁condolence	-13.8467
▁20,	-13.8467
▁cartridge	-13.8467
▁dimension	-13.8467
▁wrinkle	-13.8468
▁shelter	-13.8469
headed	-13.8472
▁embarras	-13.8474
ration	-13.8475
uthor	-13.8475
eu	-13.8478
belt	-13.848
ctual	-13.8482
▁prequel	-13.8483
▁cleans	-13.8486
▁360	-13.8488
▁surfboard	-13.849
▁qualification	-13.8491
▁provi	-13.8491
▁Egg	-13.8491
▁province	-13.8492
▁chopstick	-13.8492
▁earplug	-13.8495
▁balloon	-13.8496
▁precaution	-13.8497
▁stair	-13.8498
▁scissor	-13.8498
▁freebie	-13.8499
▁teammate	-13.85
watches	-13.8501
▁Kyu	-13.8501
▁diaper	-13.8502
▁indicator	-13.8503
▁pitcher	-13.8503
▁creator	-13.8507
▁panda	-13.8508
Hye	-13.851
▁eraser	-13.8512
▁postcard	-13.8513
eering	-13.8513
ike	-13.8516
testing	-13.852
▁Visit	-13.8521
▁commercializ	-13.8521
▁State	-13.8524
▁estimat	-13.8525
▁poem	-13.8525
wan	-13.8527
▁199	-13.8528
▁separat	-13.8529
chool	-13.8531
▁nerve	-13.8535
▁plaster	-13.8536
create	-13.8536
wheel	-13.8536
▁investor	-13.8537
slip	-13.8539
steps	-13.8545
aper	-13.8545
▁devot	-13.8547
freeze	-13.8548
2,	-13.855
reeze	-13.8551
▁twist	-13.8552
rtificial	-13.8553
ran	-13.8555
procure	-13.8556
▁smok	-13.8556
▁regulat	-13.8558
▁melon	-13.8575
▁announc	-13.8576
▁achiev	-13.8581
tedly	-13.8583
2?	-13.8585
boy	-13.8585
▁comput	-13.8585
urchase	-13.8588
nounce	-13.8589
Ho	-13.8589
ni	-13.859
▁warehous	-13.8593
thin	-13.8595
▁Tex	-13.8595
▁balanc	-13.8597
▁accumulat	-13.8597
sellers	-13.8598
▁sprinkl	-13.8599
▁atmospher	-13.8601
▁Del	-13.8602
▁arrang	-13.8603
singer	-13.8605
.7	-13.8605
▁compli	-13.8606
rify	-13.8606
▁discharg	-13.8608
▁encourag	-13.8608
cal	-13.8608
Ja	-13.8609
▁disassembl	-13.861
grown	-13.8611
ega	-13.8612
▁prep	-13.8612
108	-13.8613
▁unlik	-13.8613
lly	-13.8614
▁hu	-13.8615
bud	-13.8616
▁hug	-13.8618
raffic	-13.862
▁massag	-13.8621
▁convince	-13.8621
▁initiati	-13.8622
▁Past	-13.8622
▁portra	-13.8622
▁anticipate	-13.8622
alley	-13.8622
▁enforce	-13.8623
▁collapse	-13.8625
▁refrigerate	-13.8627
▁snorkel	-13.8628
corn	-13.8629
ocated	-13.8631
▁drag	-13.8632
onkatsu	-13.8634
▁reassur	-13.8634
▁mend	-13.8635
ension	-13.8636
▁sterilize	-13.8636
:	-13.8636
▁replenish	-13.8637
trategy	-13.8638
▁impos	-13.8638
▁extraordinar	-13.8638
▁mandator	-13.8639
▁punish	-13.8639
nstitute	-13.8639
magine	-13.8639
▁reject	-13.8639
ubtitles	-13.8639
▁teenage	-13.8639
boxing	-13.864
erchandiser	-13.8641
athtubs	-13.8641
▁lunge	-13.8642
rapped	-13.8642
▁precede	-13.8643
▁demonstrat	-13.8643
calorie	-13.8643
▁cockroach	-13.8643
▁disast	-13.8643
▁hamburg	-13.8643
hocolate	-13.8644
edicure	-13.8644
hallenge	-13.8644
ducation	-13.8644
igans	-13.8645
eongbuk	-13.8645
▁accura	-13.8645
▁intelligen	-13.8645
RT	-13.8645
igament	-13.8645
▁strategic	-13.8646
olunteering	-13.8646
scription	-13.8646
▁authentic	-13.8646
mbrellas	-13.8646
q	-13.8646
bursement	-13.8646
▁acquaint	-13.8646
annabis	-13.8646
▁cubic	-13.8646
nterviewee	-13.8646
▁micro	-13.8646
▁architect	-13.8646
ersimmon	-13.8646
-7777	-13.8646
rror	-13.8646
▁Daehak	-13.8646
▁Descend	-13.8646
▁Discuss	-13.8646
▁Ulleung	-13.8646
▁abrupt	-13.8646
▁chitchat	-13.8646
▁overwhelming	-13.8646
▁racquet	-13.8646
▁roundworm	-13.8646
▁spontaneous	-13.8646
000-0000-0000	-13.8646
2222	-13.8646
CAD	-13.8646
bubbling	-13.8646
czema	-13.8646
depressants	-13.8646
inclusive	-13.8646
rhythm	-13.8646
tinkbugs	-13.8646
▁010-1111-	-13.8646
▁7/25	-13.8646
▁999-134	-13.8646
▁Algorithm	-13.8646
▁Amateur	-13.8646
▁Arizona	-13.8646
▁Asakusa	-13.8646
▁Bosingak	-13.8646
▁BurgerKing	-13.8646
▁Cathedral	-13.8646
▁Celebrity	-13.8646
▁Champontang	-13.8646
▁Cheongryangri	-13.8646
▁Chopstick	-13.8646
▁Cineplex	-13.8646
▁Commercial	-13.8646
▁Comprehension	-13.8646
▁Cuppingroom	-13.8646
▁DSLR	-13.8646
▁DUI	-13.8646
▁Deposit	-13.8646
▁Detroit	-13.8646
▁Dongporou	-13.8646
▁Dubai	-13.8646
▁Dumpling	-13.8646
▁Emergency	-13.8646
▁Ethiopian	-13.8646
▁Gainsborough	-13.8646
▁Giftiicon	-13.8646
▁Gimbapcheonguk	-13.8646
▁Gretchen	-13.8646
▁HDD	-13.8646
▁Hanryu	-13.8646
▁Holiday	-13.8646
▁Jamie	-13.8646
▁Jessica	-13.8646
▁Jungnangcheon	-13.8646
▁Karaoke	-13.8646
▁Maehwa	-13.8646
▁Mediphom	-13.8646
▁Naengmyun	-13.8646
▁PIN	-13.8646
▁PSY	-13.8646
▁Perfume	-13.8646
▁Phuket	-13.8646
▁Policy	-13.8646
▁Pollack	-13.8646
▁Pomeranian	-13.8646
▁Python	-13.8646
▁RSVP	-13.8646
▁Recruit	-13.8646
▁SDD	-13.8646
▁Sashimi	-13.8646
▁Sensitiv	-13.8646
▁Seodaemun	-13.8646
▁Skype	-13.8646
▁TVXQ	-13.8646
▁Tangjjam	-13.8646
▁Tweeter	-13.8646
▁Vegas	-13.8646
▁Vegetable	-13.8646
▁Whopper	-13.8646
▁YSL	-13.8646
▁Yeongdeungpo	-13.8646
▁Zippo	-13.8646
▁accentuate	-13.8646
▁algorithm	-13.8646
▁amberjack	-13.8646
▁analgesic	-13.8646
▁anniversaries	-13.8646
▁anticipating	-13.8646
▁apparatus	-13.8646
▁appendectomy	-13.8646
▁astonishing	-13.8646
▁baulk	-13.8646
▁binoculars	-13.8646
▁blockchain	-13.8646
▁brassiere	-13.8646
▁cardiologist	-13.8646
▁chamomile	-13.8646
▁chapter	-13.8646
▁chubbier	-13.8646
▁cologne	-13.8646
▁commodities	-13.8646
▁conglomerate	-13.8646
▁conservative	-13.8646
▁criterion	-13.8646
▁crocodile	-13.8646
▁croissant	-13.8646
▁dacquoise	-13.8646
▁deboned	-13.8646
▁decompress	-13.8646
▁demographic	-13.8646
▁denominations	-13.8646
▁deodor	-13.8646
▁diabetic	-13.8646
▁dictated	-13.8646
▁dictionaries	-13.8646
▁disgusted	-13.8646
▁efficacy	-13.8646
▁emergencies	-13.8646
▁endeavor	-13.8646
▁ensemble	-13.8646
▁excellence	-13.8646
▁exhale	-13.8646
▁exhaustion	-13.8646
▁expedient	-13.8646
▁fidgeting	-13.8646
▁finicky	-13.8646
▁fintech	-13.8646
▁fragments	-13.8646
▁gargle	-13.8646
▁genius	-13.8646
▁gynecolog	-13.8646
▁gypsophilas	-13.8646
▁hashtags	-13.8646
▁inconsistent	-13.8646
▁insignificant	-13.8646
▁irrational	-13.8646
▁irresponsible	-13.8646
▁jargon	-13.8646
▁lifesaver	-13.8646
▁linguistic	-13.8646
▁majestic	-13.8646
▁messanger	-13.8646
▁miscalculated	-13.8646
▁miscalculation	-13.8646
▁monologue	-13.8646
▁monument	-13.8646
▁mundane	-13.8646
▁narrative	-13.8646
▁necessity	-13.8646
▁negligence	-13.8646
▁nurungitang	-13.8646
▁ominous	-13.8646
▁opponent	-13.8646
▁orphanage	-13.8646
▁outrageous	-13.8646
▁paramedics	-13.8646
▁peculiar	-13.8646
▁pelvic	-13.8646
▁penguin	-13.8646
▁persuasive	-13.8646
▁pianist	-13.8646
▁pierced	-13.8646
▁pixels	-13.8646
▁plankton	-13.8646
▁plumbing	-13.8646
▁possibilities	-13.8646
▁prerequisite	-13.8646
▁prominent	-13.8646
▁proprietor	-13.8646
▁provocative	-13.8646
▁rainboots	-13.8646
▁rectangular	-13.8646
▁repellant	-13.8646
▁reptiles	-13.8646
▁robber	-13.8646
▁sculptor	-13.8646
▁sikhye	-13.8646
▁sluggish	-13.8646
▁sterilization	-13.8646
▁stethoscope	-13.8646
▁strenuous	-13.8646
▁styptic	-13.8646
▁subsidiaries	-13.8646
▁syllabus	-13.8646
▁synergy	-13.8646
▁transcript	-13.8646
▁transfusion	-13.8646
▁unbuckle	-13.8646
▁urchins	-13.8646
▁voltage	-13.8646
▁Flakes	-13.8646
▁Salmon	-13.8646
▁caravan	-13.8646
▁compatibility	-13.8646
▁comprehension	-13.8646
▁flexibility	-13.8646
▁niece	-13.8646
▁polyester	-13.8646
▁prescript	-13.8646
▁rosegold	-13.8646
▁tardies	-13.8646
▁violin	-13.8646
SSS	-13.8646
ylophone	-13.8646
▁Alcohol	-13.8646
▁Curtain	-13.8646
▁Egypt	-13.8646
▁Environment	-13.8646
▁Receipt	-13.8646
▁Subin	-13.8646
▁Tsui	-13.8646
▁aftershock	-13.8646
▁chroma	-13.8646
▁comprehen	-13.8646
▁misjudg	-13.8646
▁psychology	-13.8646
▁pungent	-13.8646
▁stakeholder	-13.8646
ymnastics	-13.8646
▁2019091	-13.8646
▁Associat	-13.8646
▁Baekje	-13.8646
▁Costco	-13.8646
▁Fanta	-13.8646
▁Georg	-13.8646
▁Guryong	-13.8646
▁additives	-13.8646
▁allegations	-13.8646
▁championship	-13.8646
▁clustered	-13.8646
▁dialect	-13.8646
▁drenched	-13.8646
▁dunno	-13.8646
▁exploding	-13.8646
▁festivities	-13.8646
▁gourmet	-13.8646
▁jinx	-13.8646
▁monopoliz	-13.8646
▁motorcyclist	-13.8646
▁peppermint	-13.8646
▁petrol	-13.8646
ooibos	-13.8646
▁accelerat	-13.8646
▁jjam	-13.8646
▁submerge	-13.8646
▁unusable	-13.8646
▁CIF	-13.8646
▁Seonwoo	-13.8646
▁Spinning	-13.8646
▁detox	-13.8646
▁diplomacy	-13.8646
▁endurable	-13.8646
▁entangled	-13.8646
▁extensive	-13.8646
▁splatter	-13.8646
▁taffy	-13.8646
▁Beverage	-13.8646
disqualification	-13.8646
▁Pretty	-13.8646
▁Sheeran	-13.8646
▁Vienna	-13.8646
▁blindfold	-13.8646
▁conspiracy	-13.8646
▁improperly	-13.8646
▁physique	-13.8646
▁sexist	-13.8646
▁allotted	-13.8646
▁tracksuits	-13.8646
▁Hanoi	-13.8646
▁blueberryade	-13.8646
▁guardrail	-13.8646
▁Boston	-13.8646
▁Championship	-13.8646
▁Daiso	-13.8646
▁ROIC	-13.8646
▁jellie	-13.8646
▁queries	-13.8646
▁splendid	-13.8646
finding	-13.8646
▁hotteuk	-13.8646
▁paintbrush	-13.8646
▁temperament	-13.8646
quisite	-13.8646
▁Collect	-13.8646
▁Miryang	-13.8646
▁Practic	-13.8646
▁arbitrarily	-13.8646
▁exploration	-13.8646
▁loafers	-13.8646
▁pigeon	-13.8646
▁visualization	-13.8646
▁Omelet	-13.8646
▁dissolution	-13.8646
▁integer	-13.8646
▁optimist	-13.8646
127.	-13.8646
uggle	-13.8646
▁cubicles	-13.8646
▁handcraft	-13.8646
▁incinerat	-13.8646
▁latecomer	-13.8646
▁precision	-13.8646
▁stagnant	-13.8646
▁Access	-13.8646
▁hairstylist	-13.8646
▁laryn	-13.8646
▁pilaf	-13.8646
aejang	-13.8646
▁watermarks	-13.8646
▁Double	-13.8646
▁Gayoung	-13.8646
▁Hangzhou	-13.8646
▁Sadang	-13.8646
▁residue	-13.8646
▁retaliat	-13.8646
▁1960	-13.8646
▁disband	-13.8646
▁distraction	-13.8646
▁urination	-13.8646
▁DWB	-13.8646
▁$3,000	-13.8646
▁Cargo	-13.8646
▁Iceland	-13.8646
▁toddlers	-13.8646
▁0070	-13.8646
▁Field	-13.8646
▁solvency	-13.8646
▁queasy	-13.8646
▁diagram	-13.8646
▁suppress	-13.8646
▁eleven	-13.8646
▁grub	-13.8646
▁$150	-13.8646
▁raincoat	-13.8646
▁Segway	-13.8646
▁contamination	-13.8646
▁rosemary	-13.8646
▁spectator	-13.8646
▁imagination	-13.8646
▁rainbow	-13.8646
▁rejection	-13.8646
▁shrunk	-13.8646
▁Narita	-13.8646
▁observation	-13.8646
▁Style	-13.8646
▁forbid	-13.8646
▁inspiration	-13.8646
▁Milk	-13.8646
▁entries	-13.8646
▁favorably	-13.8646
▁opposition	-13.8646
▁penalized	-13.8646
▁petitioner	-13.8646
▁Yellow	-13.8646
▁elective	-13.8646
▁sensation	-13.8646
▁Kelly	-13.8646
▁outerwear	-13.8646
▁99%	-13.8647
▁gizzard	-13.8647
▁halves	-13.8647
▁flames	-13.8647
▁Second	-13.8647
hannel	-13.8647
▁panties	-13.8647
▁ringtone	-13.8647
▁misspell	-13.8647
zzle	-13.8647
▁apprehen	-13.8647
patriot	-13.8647
▁strategically	-13.8647
▁midsummer	-13.8647
▁urinat	-13.8647
▁Latte	-13.8647
▁leeks	-13.8647
▁paradi	-13.8647
▁biology	-13.8647
▁spider	-13.8647
▁recyclable	-13.8647
aryngitis	-13.8647
▁LCC	-13.8647
▁passcode	-13.8647
▁Carbonara	-13.8647
▁JU	-13.8647
▁halted	-13.8647
▁jellyfish	-13.8647
▁$100	-13.8647
▁genetic	-13.8647
▁Citi	-13.8647
illusion	-13.8647
▁accredit	-13.8647
▁foreshad	-13.8647
▁remainder	-13.8647
viole	-13.8647
▁brewery	-13.8647
▁misguide	-13.8647
▁morale	-13.8647
▁encouragement	-13.8647
▁intermission	-13.8647
hawk	-13.8647
▁Josh	-13.8647
▁adhesi	-13.8647
▁Angel	-13.8647
▁hallucination	-13.8647
▁makgeolli	-13.8647
▁disciplin	-13.8647
▁combust	-13.8647
▁systematically	-13.8647
▁Emily	-13.8647
▁KakaoTa	-13.8647
▁limping	-13.8647
▁Danang	-13.8647
▁deceived	-13.8647
▁paragraph	-13.8647
▁functionality	-13.8647
▁$200	-13.8647
▁artisan	-13.8647
▁discourag	-13.8647
▁imitat	-13.8647
▁disappointment	-13.8647
▁coils	-13.8647
▁Baek	-13.8647
▁Jihy	-13.8647
▁LAN	-13.8647
▁overprais	-13.8647
▁Chronic	-13.8647
sourcing	-13.8647
lastic	-13.8647
▁smack	-13.8647
▁flawless	-13.8647
▁foothold	-13.8647
agonal	-13.8647
▁handspan	-13.8647
▁cheerful	-13.8648
▁Gyeongbu	-13.8648
▁1303	-13.8648
▁Charge	-13.8648
▁fluctuates	-13.8648
▁nevertheless	-13.8648
▁nips	-13.8648
▁hotspot	-13.8648
▁puff	-13.8648
▁orchestra	-13.8648
yeongyang	-13.8648
▁Univers	-13.8648
▁Promotion	-13.8648
▁festiv	-13.8648
eaweed	-13.8648
▁dirtier	-13.8648
CE	-13.8648
▁925	-13.8648
nyeo	-13.8648
▁demonstrator	-13.8648
▁kerati	-13.8648
▁worldwide	-13.8648
▁equity	-13.8648
▁yummy	-13.8648
▁pharmacist	-13.8648
▁newsletter	-13.8648
▁breastfeed	-13.8648
▁hemline	-13.8648
▁Konjac	-13.8648
▁hairbrush	-13.8648
▁blueberry	-13.8648
lagged	-13.8648
▁357	-13.8648
ostpone	-13.8648
▁absorbent	-13.8648
▁ruffle	-13.8648
▁impri	-13.8648
▁trauma	-13.8648
arita	-13.8648
lderly	-13.8648
▁eyeball	-13.8648
▁controllable	-13.8648
▁sophomore	-13.8649
▁Sanur	-13.8649
▁disconnecting	-13.8649
▁adaptation	-13.8649
▁sunbed	-13.8649
▁disappearance	-13.8649
▁Cloud	-13.8649
▁hammer	-13.8649
▁sourness	-13.8649
▁unintentionally	-13.8649
▁0.1	-13.8649
▁realistically	-13.8649
▁Invoice	-13.8649
▁Power	-13.8649
▁curation	-13.8649
ilgrim	-13.8649
▁disturbance	-13.8649
▁smudging	-13.8649
▁rabies	-13.8649
▁Square	-13.8649
▁baggy	-13.8649
▁Jenny	-13.8649
▁crooked	-13.8649
▁salsa	-13.8649
▁decorating	-13.8649
▁Dishes	-13.8649
▁crumbly	-13.8649
▁framework	-13.8649
▁saltwater	-13.8649
▁wakeboard	-13.8649
▁gummy	-13.8649
▁Farm	-13.8649
▁enhancers	-13.8649
▁2009	-13.865
▁preserve	-13.865
▁prepping	-13.865
▁dustbag	-13.865
▁formulation	-13.865
▁interference	-13.865
▁12:00	-13.865
▁formality	-13.865
▁Minho	-13.865
ophag	-13.865
▁precedent	-13.865
▁firefighter	-13.865
▁Ballet	-13.865
▁drugstore	-13.865
cific	-13.865
▁antique	-13.865
▁addiction	-13.865
▁syndrome	-13.865
▁12:10	-13.865
▁magnetic	-13.865
▁footrest	-13.8651
▁seedling	-13.8651
▁sweep	-13.8651
▁sneak	-13.8651
▁constructed	-13.8651
▁smoothie	-13.8651
▁Update	-13.8651
▁promptly	-13.8651
▁collaborating	-13.8651
▁refusing	-13.8651
▁revisiting	-13.8651
▁faint	-13.8651
arliament	-13.8652
▁harbor	-13.8652
▁eradicate	-13.8652
307	-13.8652
▁fooled	-13.8652
▁selfie	-13.8652
▁destiny	-13.8652
▁Woori	-13.8652
▁rites	-13.8652
straints	-13.8652
▁Large	-13.8652
073	-13.8652
▁irre	-13.8652
nish	-13.8652
▁desc	-13.8652
▁academies	-13.8653
▁UN	-13.8653
neung	-13.8653
▁executing	-13.8653
▁rollover	-13.8653
▁Nara	-13.8653
▁75%	-13.8653
▁Monet	-13.8653
▁Mark	-13.8653
▁worsened	-13.8653
▁Job	-13.8653
▁juicy	-13.8653
▁notarize	-13.8654
▁Official	-13.8654
▁sharpener	-13.8654
▁Cookie	-13.8654
▁burg	-13.8654
▁duvet	-13.8654
▁bashing	-13.8654
clockwise	-13.8654
▁chord	-13.8654
met	-13.8654
▁sleepiness	-13.8654
▁ladle	-13.8655
▁fatty	-13.8655
▁offensive	-13.8655
▁Relation	-13.8655
▁humanity	-13.8655
▁committee	-13.8655
▁remarkable	-13.8655
▁Agreed	-13.8655
▁Super	-13.8655
▁crumpled	-13.8655
▁replenished	-13.8655
▁vividly	-13.8655
▁underqualified	-13.8655
▁anonymously	-13.8656
9090	-13.8656
▁initialized	-13.8656
▁desir	-13.8656
▁Canyon	-13.8656
▁backspace	-13.8656
▁Plus	-13.8656
▁lug	-13.8656
viscera	-13.8656
▁1,900	-13.8656
▁steakhouse	-13.8656
▁cockle	-13.8657
▁Jas	-13.8657
▁worsening	-13.8657
▁battle	-13.8657
▁undercooked	-13.8657
▁cookbook	-13.8658
▁independently	-13.8658
▁leisurely	-13.8658
▁sincerity	-13.8658
▁Jimin	-13.8658
▁obstruct	-13.8658
▁transact	-13.8658
cino	-13.8658
▁17:00	-13.8659
▁dryness	-13.8659
▁wobble	-13.8659
▁vol	-13.8659
▁cupboard	-13.8659
▁treasurer	-13.8659
▁batches	-13.8659
▁breakthrough	-13.8659
▁weakened	-13.866
▁Twin	-13.866
▁reassuring	-13.866
▁postponement	-13.866
▁whiteboard	-13.866
▁stack	-13.866
▁marble	-13.866
▁robotic	-13.8661
ently	-13.8661
▁Shoot	-13.8661
▁marinade	-13.8661
▁dividers	-13.8661
▁scho	-13.8662
▁falter	-13.8662
▁Talk	-13.8662
▁officetel	-13.8662
▁120%	-13.8662
▁backdrop	-13.8662
▁reopened	-13.8662
▁uptight	-13.8663
▁Arch	-13.8663
▁Tian	-13.8663
▁heartless	-13.8663
▁ancest	-13.8663
SD	-13.8664
▁Story	-13.8664
▁adaptor	-13.8665
▁rods	-13.8665
ryang	-13.8666
fertil	-13.8666
▁generously	-13.8666
tolerance	-13.8666
yaki	-13.8666
▁regulated	-13.8666
▁absor	-13.8667
shu	-13.8668
▁firmly	-13.8668
▁Address	-13.8668
▁cliche	-13.8668
▁speeches	-13.8668
▁squea	-13.8668
▁Whoever	-13.8668
▁flute	-13.8669
▁Player	-13.8669
cense	-13.867
diaries	-13.867
▁anticipated	-13.867
▁violently	-13.867
▁richer	-13.8671
▁convinced	-13.8671
▁contaminat	-13.8671
▁17,000	-13.8671
▁Jacket	-13.8671
eedless	-13.8671
▁Hyo	-13.8672
▁hitch	-13.8672
▁chunky	-13.8673
▁portray	-13.8673
▁efficiently	-13.8674
hurriedly	-13.8674
▁contestant	-13.8674
▁feast	-13.8674
▁jar	-13.8675
▁lightness	-13.8675
▁portal	-13.8675
▁backlog	-13.8676
▁Beach	-13.8676
nacks	-13.8677
▁centrally	-13.8677
▁Drive	-13.8677
▁canvas	-13.8677
▁800,000	-13.8678
▁Kid	-13.8678
▁Price	-13.8678
▁hunt	-13.8679
▁crashes	-13.868
▁functionally	-13.8681
repa	-13.8681
▁Yun	-13.8681
▁1234	-13.8681
duct	-13.8681
▁imagin	-13.8682
▁33%	-13.8683
▁207	-13.8683
▁oath	-13.8683
nforced	-13.8684
▁Lego	-13.8684
▁Sujin	-13.8685
▁postna	-13.8685
▁teambuilding	-13.8685
oje	-13.8685
▁librari	-13.8686
gori	-13.8686
▁hub	-13.8686
▁overflowing	-13.8686
▁Upload	-13.8687
▁hypot	-13.8687
▁flashes	-13.8688
▁overheating	-13.8688
una	-13.8689
▁Concer	-13.8689
▁grinding	-13.8689
simil	-13.8689
eanu	-13.869
▁Pink	-13.869
▁mysterious	-13.869
▁Hamburger	-13.869
▁waitlist	-13.869
▁timber	-13.869
▁overfit	-13.869
▁tutored	-13.8691
81	-13.8692
▁watercolor	-13.8692
▁stinging	-13.8692
▁meanwhile	-13.8692
▁403	-13.8692
▁lun	-13.8694
▁streaming	-13.8694
▁clamps	-13.8694
▁advert	-13.8694
▁ortho	-13.8695
▁Sik	-13.8696
▁boar	-13.8697
arly	-13.8699
cheon	-13.87
▁warmest	-13.87
wimming	-13.87
▁deco	-13.8702
polis	-13.8703
▁criticized	-13.8703
▁tensed	-13.8703
▁Gyeng	-13.8704
oba	-13.8704
iè	-13.8704
▁cloudy	-13.8704
▁freestyle	-13.8706
▁killers	-13.8706
▁startled	-13.8706
▁patting	-13.8707
▁inflam	-13.8707
▁Kind	-13.8707
▁Airpods	-13.8707
▁merchandiser	-13.8707
▁123	-13.8708
▁roasting	-13.8708
▁veg	-13.8708
▁Seong	-13.8709
▁repeated	-13.871
▁Pic	-13.871
▁educat	-13.8711
▁painfully	-13.8712
acity	-13.8712
▁endoscope	-13.8712
▁barbells	-13.8712
▁Dramas	-13.8712
▁periodic	-13.8712
▁Member	-13.8713
▁ri	-13.8713
▁napkins	-13.8713
▁veterans	-13.8713
▁antihistamines	-13.8713
▁diamonds	-13.8713
▁pretzels	-13.8713
▁froze	-13.8713
▁Wash	-13.8713
▁refine	-13.8714
▁cheerleaders	-13.8714
XL	-13.8715
nori	-13.8716
▁elect	-13.8716
▁alter	-13.8717
▁scripted	-13.8718
▁hairpiece	-13.8721
▁fitted	-13.8722
▁Chef	-13.8722
▁Gangb	-13.8722
▁publically	-13.8722
▁disturbed	-13.8724
seok	-13.8727
▁crane	-13.8727
▁bookkeeping	-13.8729
wha	-13.8731
uji	-13.8731
▁124	-13.8732
dramas	-13.8732
▁dec	-13.8733
▁spoiler	-13.8733
▁tilt	-13.8735
▁pic	-13.8735
nggwa	-13.8736
vigor	-13.8736
▁outbreak	-13.8737
▁mailbag	-13.8737
▁housing	-13.8738
▁bat	-13.874
▁Hite	-13.8741
▁scour	-13.8741
▁172	-13.8741
▁Mary	-13.8742
▁traced	-13.8743
izer	-13.8743
▁303.	-13.8745
▁straightened	-13.8745
lich	-13.8746
▁viewpoint	-13.8747
▁309	-13.8747
▁Rolls	-13.8748
▁hunting	-13.8748
▁Bong	-13.8749
▁polished	-13.8749
piracy	-13.8749
irloin	-13.875
gnition	-13.8752
▁Smell	-13.8754
▁LED	-13.8755
▁galbi	-13.8756
▁pearls	-13.8756
▁amaz	-13.8757
ewy	-13.8757
▁markers	-13.8757
▁landed	-13.8758
▁coughed	-13.8759
▁waxing	-13.8759
▁avenue	-13.876
▁tendon	-13.876
ienna	-13.8762
▁mastering	-13.8762
▁spicer	-13.8763
▁snaked	-13.8763
Morning	-13.8763
▁enthusiasts	-13.8763
▁temper	-13.8763
cul	-13.8767
▁greed	-13.8768
▁Financier	-13.877
▁Mid	-13.8772
▁clogg	-13.8772
▁Document	-13.8772
iva	-13.8773
▁5/1	-13.8773
▁streetlight	-13.8773
▁screaming	-13.8774
ky	-13.8775
▁braid	-13.8776
▁Mother	-13.8776
▁businessman	-13.8776
▁stockings	-13.8777
▁marker	-13.8778
doub	-13.8778
6:40	-13.8778
▁poly	-13.8779
2.5	-13.8779
▁drift	-13.8779
pad	-13.878
▁Indonesian	-13.878
▁attachment	-13.8782
▁pos	-13.8784
▁twists	-13.8785
▁airway	-13.8786
▁declined	-13.8787
anji	-13.8787
▁pond	-13.8788
assign	-13.8789
▁Color	-13.879
▁Kids	-13.879
▁Name	-13.879
▁commemorati	-13.8791
▁sparkle	-13.8791
▁Hence	-13.8793
▁gaze	-13.8794
▁overused	-13.8794
ircu	-13.8795
▁embarrass	-13.8795
▁explor	-13.8797
▁dro	-13.8798
▁optional	-13.8798
▁variable	-13.8799
▁corrupt	-13.8801
▁analys	-13.8803
▁advisor	-13.8804
kage	-13.8805
▁communicated	-13.8805
▁minimized	-13.8805
▁hurl	-13.8806
▁710	-13.8808
▁Soho	-13.8811
uddy	-13.8812
[...]
