<unk>	0
<s>	0
</s>	0
[PAD]	0
[UNK]	0
[CLS]	0
[SEP]	0
[MASK]	0
[BOS]	0
[EOS]	0
[UNK0]	0
[UNK1]	0
[UNK2]	0
[UNK3]	0
[UNK4]	0
[UNK5]	0
[UNK6]	0
[UNK7]	0
[UNK8]	0
[UNK9]	0
[unused0]	0
[unused1]	0
[unused2]	0
[unused3]	0
[unused4]	0
[unused5]	0
[unused6]	0
[unused7]	0
[unused8]	0
[unused9]	0
[unused10]	0
[unused11]	0
[unused12]	0
[unused13]	0
[unused14]	0
[unused15]	0
[unused16]	0
[unused17]	0
[unused18]	0
[unused19]	0
[unused20]	0
[unused21]	0
[unused22]	0
[unused23]	0
[unused24]	0
[unused25]	0
[unused26]	0
[unused27]	0
[unused28]	0
[unused29]	0
[unused30]	0
[unused31]	0
[unused32]	0
[unused33]	0
[unused34]	0
[unused35]	0
[unused36]	0
[unused37]	0
[unused38]	0
[unused39]	0
[unused40]	0
[unused41]	0
[unused42]	0
[unused43]	0
[unused44]	0
[unused45]	0
[unused46]	0
[unused47]	0
[unused48]	0
[unused49]	0
[unused50]	0
[unused51]	0
[unused52]	0
[unused53]	0
[unused54]	0
[unused55]	0
[unused56]	0
[unused57]	0
[unused58]	0
[unused59]	0
[unused60]	0
[unused61]	0
[unused62]	0
[unused63]	0
[unused64]	0
[unused65]	0
[unused66]	0
[unused67]	0
[unused68]	0
[unused69]	0
[unused70]	0
[unused71]	0
[unused72]	0
[unused73]	0
[unused74]	0
[unused75]	0
[unused76]	0
[unused77]	0
[unused78]	0
[unused79]	0
[unused80]	0
[unused81]	0
[unused82]	0
[unused83]	0
[unused84]	0
[unused85]	0
[unused86]	0
[unused87]	0
[unused88]	0
[unused89]	0
[unused90]	0
[unused91]	0
[unused92]	0
[unused93]	0
[unused94]	0
[unused95]	0
[unused96]	0
[unused97]	0
[unused98]	0
[unused99]	0
.	-2.7547
?	-3.57153
,	-3.62047
을	-4.00424
가	-4.17615
는	-4.34824
를	-4.37081
은	-4.56605
도	-4.72238
▁수	-4.89441
▁것	-4.96213
▁	-5.11868
이	-5.14333
▁네	-5.33077
▁안	-5.42946
요	-5.44472
로	-5.50564
의	-5.51773
에	-5.54887
고	-5.6266
▁제가	-5.63594
▁이	-5.6466
▁있는	-5.70532
서	-5.70769
으로	-5.7257
▁그럼	-5.79608
▁너무	-5.82112
만	-5.85188
▁지금	-5.85646
▁한	-5.86874
▁더	-5.88325
▁있나요	-5.91077
▁게	-6.00566
▁좀	-6.04394
▁혹시	-6.04541
면	-6.05263
▁잘	-6.06432
▁오늘	-6.06487
▁우리	-6.07619
▁있습니다	-6.07752
▁거	-6.14519
지	-6.17244
▁많이	-6.18818
▁다른	-6.21205
▁저희	-6.21574
▁할	-6.21967
게	-6.22301
▁어떻게	-6.22581
▁다	-6.24493
▁그	-6.24494
▁정말	-6.28289
나	-6.30499
히	-6.34616
한	-6.37655
▁여기	-6.38127
▁있어요	-6.46227
▁1	-6.47082
▁어떤	-6.47172
▁2	-6.48493
▁바로	-6.50502
▁같아요	-6.50967
과	-6.54504
▁하는	-6.56201
▁못	-6.5709
▁하는데	-6.57691
▁있는데	-6.58558
▁같아	-6.58957
▁건	-6.59401
▁이번	-6.59595
▁때	-6.59855
에서	-6.60022
▁됩니다	-6.61364
▁건가요	-6.61526
▁다시	-6.64044
입니다	-6.64714
▁내가	-6.67392
▁3	-6.67675
▁몇	-6.69129
▁정도	-6.69564
▁제	-6.70332
할	-6.72075
▁같이	-6.73583
하고	-6.74193
▁합니다	-6.74562
도록	-6.75351
▁회사	-6.77018
▁저는	-6.77847
해서	-6.78472
▁조금	-6.79154
▁같은데	-6.79589
▁거야	-6.81562
▁나는	-6.83034
▁버스	-6.83038
▁제품	-6.84483
▁얼마	-6.84735
▁그러면	-6.85625
▁있을까요	-6.868
▁다음	-6.88392
와	-6.88544
▁하나	-6.92813
▁시간	-6.93024
▁싶은데	-6.94104
▁해	-6.94712
▁그렇게	-6.95973
야	-6.9658
▁거예요	-6.96761
▁번	-6.96859
▁때문에	-6.97126
▁되나요	-6.97195
▁내일	-6.99697
▁좋은	-7.00062
▁아직	-7.0018
▁가는	-7.0141
▁이번에	-7.02772
▁주세요	-7.04305
▁따로	-7.04609
▁하고	-7.04828
▁전에	-7.05065
▁있어	-7.05322
분	-7.05655
▁하나요	-7.05721
랑	-7.05799
▁10	-7.06149
▁5	-7.07824
▁그런	-7.07853
▁될까요	-7.08208
▁왜	-7.088
▁두	-7.09249
▁있어서	-7.09395
▁그래도	-7.10515
▁나	-7.1095
▁주	-7.11339
▁같습니다	-7.11953
▁시간이	-7.12138
▁해야	-7.12373
▁나도	-7.12845
▁예약	-7.15192
나요	-7.15422
까지	-7.15793
!	-7.16313
▁저	-7.18393
▁그냥	-7.19534
합니다	-7.2017
▁이렇게	-7.20789
▁어제	-7.21
▁내	-7.22465
▁가장	-7.22982
인	-7.23395
일	-7.23817
▁있을	-7.2409
▁일	-7.2462
▁줄	-7.25626
▁가서	-7.2595
된	-7.26444
▁새로	-7.26617
▁하지만	-7.27351
▁걸	-7.27921
▁문제	-7.28742
인가요	-7.30618
▁해요	-7.31396
▁같은	-7.3148
▁해서	-7.33175
▁죄송하지만	-7.33557
▁확인	-7.33591
▁주문	-7.34352
▁회의	-7.35818
▁무슨	-7.36039
▁보고	-7.36059
▁여기서	-7.3634
▁될	-7.36872
부터	-7.37122
▁먼저	-7.37528
▁감사합니다	-7.38039
▁갈	-7.38119
▁테니	-7.38383
▁아무	-7.38389
▁한번	-7.38562
▁빨리	-7.38883
▁전화	-7.38975
▁추가	-7.39492
▁상품	-7.39887
습니다	-7.40031
▁음식	-7.4042
러	-7.41412
▁사	-7.43459
▁꼭	-7.45249
▁4	-7.45491
겠습니다	-7.45915
던	-7.45926
▁했는데	-7.4689
▁너	-7.47154
긴	-7.47585
인데	-7.47648
▁죄송합니다	-7.47771
시면	-7.47971
▁하겠습니다	-7.48844
▁가야	-7.49022
▁하면	-7.49379
▁카드	-7.49569
▁그렇다면	-7.49724
▁이미	-7.49731
▁알고	-7.49886
▁되는	-7.50104
▁그런데	-7.50401
▁모두	-7.51861
▁큰	-7.51922
▁여행	-7.53135
▁사진	-7.53415
▁응	-7.53813
▁가능합니다	-7.5445
▁뭐	-7.5503
▁저도	-7.5524
라고	-7.55333
시	-7.56156
▁타고	-7.56675
▁말고	-7.56789
▁일단	-7.57006
하는	-7.57011
▁자리	-7.57492
▁있으니	-7.57515
▁결제	-7.57999
▁요즘	-7.5805
▁차	-7.58314
다고	-7.58367
▁30	-7.58696
▁약	-7.58924
세요	-7.58947
▁처음	-7.60636
▁가면	-7.60715
▁알	-7.62205
기	-7.62723
▁아니요	-7.63144
▁사람이	-7.63264
번	-7.63973
주세요	-7.64571
▁없습니다	-7.64922
▁함께	-7.64952
▁미리	-7.65384
▁것이	-7.65933
▁출장	-7.67104
▁알겠습니다	-7.67238
▁먹고	-7.68241
상	-7.68535
네요	-7.68929
▁좋을	-7.68986
▁있으면	-7.69032
▁어느	-7.69196
▁생각	-7.69211
하면	-7.69696
▁제일	-7.69768
▁아	-7.69923
▁개	-7.69985
▁할인	-7.7006
▁이제	-7.70276
시간	-7.70309
▁드릴게요	-7.70492
▁언제	-7.70694
개	-7.70985
▁준비	-7.71161
▁그래	-7.712
▁없는	-7.71683
▁달	-7.71705
▁계속	-7.71804
▁사용	-7.7221
니	-7.72816
▁많은	-7.73843
▁데	-7.73929
는데	-7.73975
니까	-7.74015
▁택시	-7.74203
▁하지	-7.74421
▁봐	-7.74646
▁가지고	-7.74792
보다	-7.75032
해야	-7.75436
▁가능한가	-7.75866
실	-7.76067
▁있는지	-7.76353
▁연락	-7.76664
▁배송	-7.76687
▁아까	-7.77249
▁어디	-7.77335
▁그렇군요	-7.77504
▁가	-7.7774
▁아마	-7.78243
▁일이	-7.78616
▁이런	-7.79327
▁없는데	-7.802
▁고객님	-7.80532
▁구매	-7.80955
▁건데	-7.81081
대로	-7.81121
운	-7.81258
하실	-7.81571
▁머리	-7.81701
▁후	-7.8171
▁후에	-7.81718
하게	-7.81923
▁지	-7.8269
다	-7.82717
▁잘못	-7.82807
▁싶어요	-7.83117
▁사람	-7.83118
▁또	-7.83359
▁말	-7.8349
해주세요	-7.84102
▁사고	-7.84133
▁아니라	-7.84888
▁있다고	-7.85054
▁친구	-7.85069
▁중에	-7.85469
▁텐데	-7.85502
이랑	-7.85708
▁현재	-7.8571
▁사이즈	-7.85784
▁안에	-7.85828
▁직접	-7.86121
▁수도	-7.86625
▁필요	-7.86653
▁6	-7.86687
▁안녕하세요	-7.86783
▁없나요	-7.87076
시에	-7.87244
▁그건	-7.88143
▁7	-7.8914
▁총	-7.89627
에는	-7.89696
▁돼요	-7.90234
▁가격	-7.90287
▁거로	-7.90891
▁것도	-7.90904
▁영화	-7.91236
▁저녁	-7.91464
▁난	-7.91631
▁곳	-7.91644
▁많아서	-7.91674
▁살	-7.92126
▁운동	-7.92135
▁식사	-7.92165
▁오래	-7.92377
죠	-7.92515
▁환불	-7.92949
▁옷	-7.93197
▁모	-7.93429
▁저기	-7.93636
▁앞에	-7.94425
▁업무	-7.94922
▁없어서	-7.94928
▁인기	-7.94974
▁집에	-7.95015
▁전	-7.95378
▁이용	-7.95801
▁받을	-7.96307
▁온	-7.96978
▁호텔	-7.96982
▁동안	-7.9725
▁원래	-7.97496
▁마음	-7.97734
든	-7.97907
▁그래서	-7.97972
으면	-7.98135
▁길	-7.98393
▁지하철	-7.98588
▁없어요	-7.98596
▁중	-7.98724
▁포장	-7.98889
▁8	-7.99075
하지	-7.99362
▁갑자기	-7.99741
▁된	-7.99861
▁어디에	-8.00033
▁거죠	-8.00238
▁아주	-8.00775
▁영수증	-8.01005
▁저번에	-8.01615
▁오후	-8.01645
▁확인해	-8.01742
▁겁니다	-8.02041
▁않아	-8.02209
▁한데	-8.02333
▁물건	-8.02928
명	-8.0343
▁메뉴	-8.03918
▁앞으로	-8.0399
▁비행기	-8.04054
▁바랍니다	-8.04112
진	-8.04706
▁볼	-8.04967
이나	-8.05122
▁어디로	-8.05168
▁진짜	-8.05528
▁보니	-8.05711
가요	-8.05731
▁가지	-8.0578
▁어때	-8.05822
▁우선	-8.05889
라도	-8.06032
층	-8.06292
▁곳이	-8.06306
▁가방	-8.06759
▁오	-8.07165
▁이상	-8.07236
▁가격이	-8.07281
▁부탁드립니다	-8.07321
▁별로	-8.07578
▁20	-8.0806
▁같네요	-8.08199
▁벌써	-8.08958
▁가능한	-8.09548
원	-8.09627
▁분	-8.10159
▁맞아	-8.10243
▁조금만	-8.10289
▁방	-8.10606
신	-8.10839
▁학교	-8.10972
▁되어	-8.11346
▁알려	-8.11904
▁경우	-8.11911
▁대한	-8.12419
래도	-8.12452
▁커피	-8.12641
▁방법	-8.12684
들이	-8.12745
▁일정	-8.12801
▁있지	-8.13135
년	-8.13317
▁때는	-8.1335
▁가시면	-8.13601
▁드리겠습니다	-8.13757
까	-8.14112
▁취소	-8.14286
▁필요한	-8.14556
▁원	-8.14628
▁싶습니다	-8.14659
▁시험	-8.14827
▁자주	-8.14932
▁있고	-8.14936
▁대신	-8.1514
▁아이	-8.15492
▁할게요	-8.15606
▁나온	-8.15988
▁드릴	-8.16029
▁주시면	-8.16241
▁없어	-8.16868
▁그리고	-8.1706
▁따라	-8.1729
▁최대한	-8.17352
▁적	-8.17473
하시면	-8.17535
▁좋아	-8.17742
▁자료	-8.18382
▁진행	-8.18424
▁왔는데	-8.1843
하겠습니다	-8.19106
▁항	-8.1922
▁9	-8.19622
했던	-8.20502
▁너는	-8.20528
▁종류	-8.20679
이에요	-8.20804
▁아니	-8.21037
▁같은데요	-8.21419
▁그게	-8.21452
▁먹을	-8.21536
▁변경	-8.21716
▁일찍	-8.21899
▁요리	-8.21955
▁않고	-8.21996
▁와서	-8.224
밖에	-8.22618
▁돼	-8.22846
▁본	-8.23226
▁보면	-8.23655
셔야	-8.23695
▁올	-8.23879
▁계약	-8.24085
▁아침	-8.24112
▁않습니다	-8.24148
▁부분	-8.24206
마다	-8.24329
▁선물	-8.24513
했습니다	-8.24702
▁아니면	-8.25011
▁관련	-8.25222
자	-8.25272
▁않은	-8.25328
▁방금	-8.25416
▁처리	-8.25467
▁잠시만	-8.25525
▁배	-8.2555
▁번호	-8.26209
에게	-8.26332
▁전부	-8.2639
됩니다	-8.26494
▁작성	-8.26503
▁들어가	-8.26617
▁먹는	-8.26934
▁어디서	-8.27148
▁오전	-8.2785
▁나서	-8.28133
▁찾고	-8.28141
▁옆에	-8.28343
월	-8.28505
▁날짜	-8.28852
▁없이	-8.28852
▁세트	-8.28857
▁제품이	-8.28868
▁맞아요	-8.29218
데	-8.29225
▁무료	-8.29227
▁서류	-8.29402
▁팀	-8.29642
▁서비스	-8.29774
▁교환	-8.29933
드릴게요	-8.3015
▁해주세요	-8.30241
▁가고	-8.31193
▁아니야	-8.3155
드리겠습니다	-8.31695
▁음료	-8.31704
▁수가	-8.31977
▁안내	-8.31991
▁돈	-8.32091
리	-8.32117
▁회사에서	-8.32145
▁맞나요	-8.3218
▁시	-8.32294
▁환전	-8.32448
▁사람들	-8.32475
▁책	-8.32701
▁컴퓨터	-8.33162
▁다음에	-8.33204
▁않아서	-8.33222
▁주소	-8.33342
▁어쩔	-8.33539
대	-8.3356
▁집	-8.33646
엔	-8.33686
▁뒤에	-8.33877
▁이거	-8.34177
▁날	-8.34296
▁이유	-8.3432
▁여러	-8.34355
▁되	-8.34715
▁새	-8.34746
▁타	-8.34752
층에	-8.34943
▁작은	-8.3499
▁있습니까	-8.35687
▁거기	-8.35716
▁짐	-8.35925
▁표	-8.35988
▁신청	-8.36041
▁않아요	-8.36621
▁사실	-8.37053
▁주에	-8.37259
▁이건	-8.37431
이라고	-8.37499
▁되지	-8.3751
▁적이	-8.37994
▁그때	-8.38144
▁하	-8.38221
▁행사	-8.38227
▁그럴	-8.38329
까요	-8.38657
▁공연	-8.39384
▁점심	-8.39756
▁오는	-8.39895
▁꽤	-8.40476
▁직원	-8.40484
▁있으신가요	-8.4049
▁해도	-8.41024
▁들어	-8.41226
하신	-8.4125
▁주문한	-8.41307
▁딱	-8.41389
▁매장	-8.41448
▁들었는데	-8.41592
▁와	-8.41697
▁보통	-8.41723
▁나오는	-8.41799
▁장소	-8.41869
▁사람들이	-8.41897
▁시간에	-8.42091
▁곧	-8.42389
▁싶어	-8.42562
▁말씀	-8.42906
▁금방	-8.43146
▁예정입니다	-8.4321
▁근데	-8.43548
시까지	-8.43557
▁대해	-8.43635
▁광고	-8.43788
▁되면	-8.44006
▁분이	-8.44171
▁그거	-8.44265
▁가게	-8.44276
▁보는	-8.44396
▁봐요	-8.4443
인지	-8.45024
▁열심	-8.4512
▁것으로	-8.45315
▁계산	-8.45433
▁손님	-8.45588
▁말이야	-8.45589
▁여권	-8.45942
▁드릴까요	-8.46158
▁없고	-8.46166
▁마	-8.46729
려고	-8.46801
▁식당	-8.46885
▁회사에	-8.46965
▁어떨까요	-8.472
▁근처에	-8.47451
한테	-8.48234
▁받고	-8.48265
▁알려주세요	-8.48428
▁생각보다	-8.48473
▁판매	-8.48734
▁들고	-8.48946
▁수업	-8.49292
▁이름	-8.49312
▁말씀해	-8.49313
▁소리	-8.49736
▁가려고	-8.50106
▁분명	-8.50113
▁밥	-8.50468
▁하죠	-8.50525
▁크기	-8.50649
▁위해	-8.50914
들은	-8.50923
▁신고	-8.50968
▁가능할까	-8.50972
▁하루	-8.51172
▁방법이	-8.51196
▁유명한	-8.51734
▁생각해	-8.51765
주시겠어요	-8.51964
▁이야기	-8.52169
천	-8.52567
▁음식이	-8.52765
▁무엇	-8.5294
▁화장실	-8.52941
▁발표	-8.53036
▁먹	-8.53241
▁걱정하지	-8.53398
▁같아서	-8.53547
셔서	-8.53881
▁받	-8.54197
▁해당	-8.54235
▁드라마	-8.54287
▁술	-8.54292
▁매우	-8.54686
▁여기에	-8.54733
▁좋지	-8.54982
▁아니고	-8.55164
▁개인	-8.5517
▁혼자	-8.55198
▁결과	-8.5611
▁색상	-8.56271
▁알려주시면	-8.56497
▁산	-8.56619
▁세	-8.5671
▁보시면	-8.56987
▁힘들	-8.57007
▁그렇습니다	-8.57016
처럼	-8.57038
습니까	-8.57158
▁대로	-8.57171
▁거지	-8.57476
▁내용	-8.58099
▁추천해	-8.58105
하여	-8.58112
▁일주일	-8.58236
▁되고	-8.58308
▁되는데	-8.58434
▁아침에	-8.58626
▁맞는	-8.58842
▁좋겠어요	-8.5886
▁없을	-8.59319
▁15	-8.59546
씬	-8.5955
▁저번	-8.59558
훨	-8.59582
▁매일	-8.5963
▁맛	-8.59684
▁나와	-8.59687
라	-8.59905
▁찍어	-8.59909
▁굉장	-8.60041
▁전혀	-8.60041
▁금액	-8.60056
▁주문했는데	-8.60108
▁방이	-8.60169
▁잠시	-8.60239
▁배달	-8.60417
▁건지	-8.60461
▁점	-8.60669
▁당연	-8.60951
▁투어	-8.61129
하세요	-8.61191
질	-8.61338
▁방문	-8.61662
거나	-8.61819
▁쓸	-8.61848
▁기다려주세요	-8.61945
려면	-8.61949
▁디자인	-8.62392
▁그것	-8.62532
▁그렇지	-8.6257
▁부탁	-8.62773
어	-8.62947
▁한국	-8.63019
▁않는	-8.6309
▁주실	-8.63422
▁맛이	-8.63493
적인	-8.63535
▁집에서	-8.63695
주셔서	-8.63795
시부터	-8.63846
▁기다려	-8.63862
▁좋아요	-8.6397
▁시작	-8.64103
입니까	-8.64248
들	-8.64253
▁해외	-8.6432
▁부서	-8.64396
▁맞습니다	-8.64476
라서	-8.64595
▁비용	-8.64864
▁퇴근	-8.65008
▁상태	-8.65012
▁객실	-8.65276
▁마지막	-8.65309
▁최근에	-8.65553
▁싶은	-8.65679
다들	-8.65784
▁들었어	-8.65829
▁걸릴	-8.66053
▁보내	-8.66157
▁보	-8.66162
▁샀는데	-8.66248
▁준비해	-8.66255
▁재고	-8.66315
▁기차	-8.66396
▁사용할	-8.66569
▁요금	-8.66694
▁누가	-8.66918
▁카드로	-8.67015
▁크게	-8.6772
▁주말에	-8.67816
▁거라	-8.67897
▁청소	-8.68031
▁아닌	-8.68313
▁신발	-8.68402
▁싶은데요	-8.68542
▁공항	-8.68546
▁핸드폰	-8.68694
주	-8.68798
될	-8.68812
▁이게	-8.68874
▁하려고	-8.68936
▁위치	-8.68974
▁하자	-8.68996
▁정리	-8.69024
▁맛있는	-8.6903
▁12	-8.691
▁한다고	-8.6918
▁당장	-8.69184
▁영어	-8.69326
▁왔어요	-8.69353
▁물	-8.69434
▁얼른	-8.69687
▁도착	-8.70069
▁늦게	-8.70074
잖아	-8.70326
▁없	-8.70411
▁가자	-8.70424
겠어요	-8.70472
▁달에	-8.70516
▁엄마	-8.70677
▁화장품	-8.70773
▁보고서	-8.70934
▁출구	-8.71238
▁셔틀버스	-8.71374
당	-8.7148
▁먹어	-8.71548
▁자꾸	-8.71735
▁확인하고	-8.71762
▁올해	-8.71952
▁정보	-8.72035
어요	-8.72069
▁하는데요	-8.72156
▁특별	-8.72192
▁직원이	-8.72577
▁오른쪽	-8.72635
▁명	-8.72786
▁좋을까요	-8.72972
▁참	-8.72973
하려고	-8.73018
▁보러	-8.73343
▁차이	-8.73595
▁실수	-8.73663
▁상품이	-8.73795
▁프로그램	-8.73806
시나요	-8.73825
▁얘기	-8.74048
▁쿠폰	-8.74138
▁말씀하시는	-8.74221
▁업체	-8.74438
▁괜찮아	-8.74474
▁봤는데	-8.74522
▁이해	-8.74867
▁있지만	-8.74893
▁수리	-8.74905
▁남	-8.75353
▁도와드리겠습니다	-8.7544
▁있도록	-8.75499
▁장	-8.75733
▁길이	-8.75802
▁테니까	-8.75835
▁좋	-8.75865
▁좌석	-8.76347
▁100	-8.76443
▁택배	-8.76487
▁엄청나	-8.76891
▁가까운	-8.76975
▁보이는	-8.7703
▁천	-8.77162
▁할까요	-8.77192
▁있으니까	-8.77642
▁건물	-8.77672
▁이용할	-8.77812
▁부분이	-8.77918
▁요청	-8.78037
▁보니까	-8.78302
▁접수	-8.78459
▁11	-8.78478
▁홍보	-8.78484
▁하시면	-8.78817
▁효과	-8.78824
다가	-8.79136
▁없네요	-8.79429
▁발송	-8.79591
▁하는지	-8.79841
▁아닌가요	-8.79958
▁영업	-8.79975
▁좋아하는	-8.80237
이라	-8.80377
▁아기	-8.80462
▁출시	-8.80487
▁바꿔	-8.80673
▁타면	-8.80766
보다는	-8.80844
▁중요한	-8.80925
▁위한	-8.81031
▁그러는데	-8.81072
라면	-8.81076
더라고요	-8.81135
▁만약	-8.81497
▁신제품	-8.81635
▁도착할	-8.81658
네	-8.81689
▁카페	-8.81703
하기	-8.81894
▁요새	-8.82068
▁탈	-8.82201
▁만들어	-8.8227
▁도움이	-8.82314
▁괜찮습니다	-8.82328
▁설명	-8.82446
▁운전	-8.82692
▁맛있	-8.82765
▁숙소	-8.82878
▁불가능	-8.82914
▁고기	-8.82937
▁거에요	-8.8294
▁나올	-8.83541
▁않	-8.83575
▁모르겠어요	-8.83589
구나	-8.83868
▁계획	-8.84122
지만	-8.84122
▁걱정	-8.8426
▁문의	-8.8479
니다	-8.84877
▁알아	-8.85261
▁주시겠어요	-8.85262
▁잠깐	-8.85272
▁여기에서	-8.85315
▁엄청	-8.85378
▁보여	-8.85381
▁옆	-8.857
▁메일로	-8.85908
▁발급	-8.85945
군요	-8.86227
하려면	-8.86465
▁신경	-8.86763
▁성함	-8.86959
▁않을	-8.87021
▁정	-8.87131
▁냄새	-8.87153
▁않을까요	-8.87197
▁뭘	-8.87254
▁저녁에	-8.87344
▁좋습니다	-8.87436
▁문	-8.87508
▁않을까	-8.87584
▁병원	-8.87754
▁있기	-8.87763
▁체크인	-8.87948
▁수수료	-8.87969
▁없을까요	-8.88077
▁배송이	-8.88086
▁않나요	-8.88134
▁괜찮은	-8.88144
▁예약이	-8.88371
▁했어	-8.88481
▁괜찮을	-8.88497
▁티켓	-8.88583
▁어려울	-8.88772
▁시에	-8.89054
원입니다	-8.89367
하시는	-8.89524
▁둘	-8.89622
▁어차피	-8.8981
▁가려면	-8.89911
▁앞	-8.89946
▁공부	-8.90354
▁금액이	-8.90355
▁배우	-8.90487
했어요	-8.9058
▁사는	-8.90743
한다고	-8.90851
▁점이	-8.90903
▁생각합니다	-8.90975
▁A	-8.91132
▁차가	-8.91207
▁있었는데	-8.91279
▁휴가	-8.91375
개월	-8.91418
주시겠습니까	-8.91514
▁완전	-8.91685
▁이벤트	-8.91686
▁나중에	-8.917
▁뒤	-8.91757
▁마시고	-8.91983
▁아직도	-8.91997
▁있네요	-8.92497
▁그러게	-8.92625
하셔야	-8.92704
▁촬영	-8.92839
▁소스	-8.9285
거든요	-8.93083
▁받아	-8.93085
▁사려고	-8.93137
용	-8.93221
▁오면	-8.9335
▁충분	-8.93401
▁얼마인가요	-8.93493
▁위해서	-8.93505
▁들어간	-8.9359
▁확실히	-8.93601
▁정확히	-8.93613
▁마세요	-8.93682
했는데	-8.93862
▁자세	-8.94078
▁괜찮아요	-8.94098
▁기간	-8.94125
▁대해서	-8.9424
▁아니에요	-8.94266
▁가기	-8.94393
▁그래요	-8.94408
▁뭔가	-8.94474
▁적어	-8.94609
래	-8.94735
이라서	-8.94829
해	-8.94867
▁입원	-8.95094
▁물품	-8.95208
▁했어요	-8.95349
▁바지	-8.95787
▁며칠	-8.95845
▁아닙니다	-8.95854
▁면접	-8.96025
▁죄송합니다만	-8.96145
▁하니까	-8.96182
▁모르겠어	-8.96453
▁환승	-8.96496
▁잔	-8.96534
▁하니	-8.96736
▁일정이	-8.96754
▁말씀해주세요	-8.97006
던데	-8.97118
▁덜	-8.97144
예	-8.97431
▁등	-8.9747
▁곳에	-8.9751
▁추천	-8.9753
▁쓰는	-8.97532
▁관리	-8.97912
▁생각이	-8.97962
▁출근	-8.97984
▁50	-8.98636
▁원하시는	-8.98637
▁경비	-8.98726
▁언제쯤	-8.989
▁쓰	-8.98915
▁가져다	-8.99172
▁끝나고	-8.99193
▁그대로	-8.99213
▁브랜드	-8.99214
▁하던데	-8.99253
▁할지	-8.99266
▁면세점	-8.99323
▁타는	-8.99422
기로	-8.99504
▁것보다	-8.99694
▁탑승	-8.99715
▁거래	-8.99775
▁현금으로	-8.9985
▁먹으면	-8.99974
▁보세요	-9.00095
▁오시면	-9.00465
하셔도	-9.00591
▁넣어	-9.00711
▁간	-9.00749
▁기분이	-9.00925
▁어디에서	-9.00944
▁이것	-9.01044
▁타야	-9.01079
▁과제	-9.01082
▁원하는	-9.01282
▁비용이	-9.01385
▁두고	-9.01394
▁파는	-9.01488
▁제품으로	-9.01675
▁않았는데	-9.01923
▁메일	-9.02202
▁정도로	-9.02233
▁의자	-9.02395
겠다	-9.02709
▁작품	-9.02717
▁지원	-9.02764
▁치료	-9.0281
▁그런지	-9.03156
▁아닌데	-9.03345
▁주는	-9.03452
▁가는데	-9.03477
이면	-9.03729
었던	-9.03961
▁신분증	-9.03999
▁받는	-9.04169
적으로	-9.04316
점	-9.04443
▁고장	-9.0447
▁프로젝트	-9.04568
▁나한테	-9.04599
▁사장님	-9.04648
▁병원에	-9.04676
▁쪽으로	-9.04831
▁사항	-9.0488
▁상황	-9.05104
▁어떠세요	-9.05186
▁일반	-9.05222
▁기대	-9.05351
▁싶어서	-9.05391
▁수정	-9.05439
▁찾을	-9.05465
라는	-9.0547
▁검사	-9.05498
▁말이	-9.05935
들을	-9.05976
▁좋아서	-9.0601
▁하세요	-9.06209
▁가족	-9.06238
▁어때요	-9.06298
▁비	-9.0631
▁신용카드	-9.06332
▁예	-9.06456
▁피부	-9.06532
▁없지만	-9.06837
▁미팅	-9.06912
▁기존	-9.06916
▁인터넷	-9.06942
▁실적	-9.0702
▁정도는	-9.07085
겠네요	-9.072
▁요금이	-9.07362
▁있게	-9.07554
▁들	-9.07576
▁많아	-9.07586
▁차량	-9.07762
▁하네요	-9.07777
▁계약서	-9.07841
▁지난	-9.08024
▁있죠	-9.08138
▁예약하고	-9.08194
▁오랜만	-9.08208
▁구매한	-9.08296
▁설치	-9.08407
▁된다고	-9.08471
▁챙겨	-9.08547
▁날씨	-9.08588
▁제작	-9.08657
▁없으니	-9.08805
▁죄송한데	-9.08853
▁저한테	-9.08989
▁역시	-9.09013
▁고마워	-9.09182
길래	-9.09192
▁마케팅	-9.09287
길	-9.09364
▁저희도	-9.0939
▁찾아	-9.09599
▁들었습니다	-9.0963
▁햄버거	-9.0975
게요	-9.09769
▁맥주	-9.09797
▁간단	-9.09914
▁평소에	-9.09941
▁현금	-9.09944
▁거래처	-9.09979
▁보이는데	-9.10007
▁주문하신	-9.1003
장	-9.10213
▁계신	-9.10247
▁너도	-9.10314
▁중국	-9.10436
▁예상	-9.10581
▁하루에	-9.10622
▁다리	-9.10754
▁되는지	-9.10876
▁비슷한	-9.11124
▁기능	-9.11318
선	-9.11379
주시면	-9.11391
▁미국	-9.1145
▁노트북	-9.11466
▁받았는데	-9.11478
▁남아	-9.11576
▁공항에서	-9.11633
▁기본	-9.11726
▁들었어요	-9.11795
▁출발	-9.11796
▁환불이	-9.11816
▁기다려야	-9.11852
▁담당자	-9.11993
▁써	-9.12014
▁방으로	-9.12025
▁걸로	-9.12105
▁끝나	-9.12122
▁많은데	-9.12265
▁너희	-9.12315
▁그렇지만	-9.12365
▁담당	-9.124
▁사야	-9.12548
▁확인할	-9.12593
▁내야	-9.12601
▁없으면	-9.12723
되나요	-9.12735
▁대	-9.12851
면서	-9.12891
▁할인이	-9.13039
▁만큼	-9.13107
▁했습니다	-9.13419
▁알았는데	-9.13461
▁급한	-9.13468
▁지도	-9.13536
▁왔습니다	-9.13589
▁내에	-9.13716
▁빼	-9.13893
▁마사지	-9.13923
▁그럼요	-9.14028
▁40	-9.14028
▁빠르	-9.14105
▁명이	-9.14156
▁거면	-9.14246
▁덕분에	-9.14247
▁가셔서	-9.14354
어서	-9.14483
▁하시는	-9.14524
▁하실	-9.14539
▁반	-9.14561
▁좋겠다	-9.14562
▁대체	-9.14683
▁근처	-9.14745
었습니다	-9.1481
▁구매할	-9.1483
명이	-9.15026
▁다행이네요	-9.15078
▁나와서	-9.15183
▁선택	-9.15265
▁디저트	-9.15269
▁파마	-9.15317
▁인원	-9.15455
▁쓰고	-9.15458
▁않으면	-9.1548
▁예전에	-9.15483
▁목표	-9.1552
▁앞에서	-9.15548
▁고객	-9.1556
▁오전에	-9.15626
▁괜찮을까	-9.15758
▁분실	-9.15886
▁보기	-9.15928
▁전체	-9.15951
▁지난번에	-9.16076
▁물건이	-9.16125
셨나요	-9.16535
달러	-9.16567
▁어렵습니다	-9.1666
▁면세점에서	-9.16909
▁자리에	-9.1711
▁있을까	-9.17238
▁왼쪽	-9.17239
▁해드릴게요	-9.17292
▁기사님	-9.17415
▁비싼	-9.1743
▁엘리베이터	-9.17449
▁워낙	-9.17449
▁나머지	-9.17451
▁준비되어	-9.17581
시길	-9.17619
▁싶	-9.17978
▁색	-9.1821
▁아는	-9.1833
kg	-9.1839
▁매장에	-9.18424
▁등록	-9.18549
셔도	-9.18616
본	-9.18725
▁오신	-9.18909
▁쭉	-9.19114
▁만든	-9.1912
▁열	-9.19322
▁있던	-9.19371
▁막	-9.19423
▁느낌이	-9.19453
▁드립니다	-9.195
▁기계	-9.19839
▁돼서	-9.19886
▁첫	-9.19921
드렸습니다	-9.20009
▁분위기	-9.20025
▁그동안	-9.20026
▁연락이	-9.20121
었는데	-9.20125
▁해서요	-9.20143
▁침대	-9.20242
되어	-9.20408
▁팔	-9.20456
▁있어야	-9.20513
▁주차	-9.20567
▁입고	-9.20667
▁생일	-9.20679
▁있다면	-9.21049
▁언제까지	-9.21116
▁때마다	-9.21128
▁야근	-9.21139
▁입	-9.21181
더니	-9.21805
해주시면	-9.22083
▁않았어	-9.22093
▁조사	-9.22219
▁좋은데	-9.22267
▁옷이	-9.22363
▁거기서	-9.22386
▁했던	-9.22534
▁있어서요	-9.22574
할게요	-9.22583
▁재료	-9.226
▁쪽에	-9.22602
▁작업	-9.2261
▁동아리	-9.22637
▁말씀하신	-9.22651
▁예매	-9.22698
▁보네요	-9.22784
▁자	-9.22963
기도	-9.23203
▁팀장님	-9.23244
다니	-9.23434
▁단체	-9.23454
▁맛있어	-9.23647
에요	-9.23715
분이	-9.24075
▁오세요	-9.24489
▁아마도	-9.24517
▁모르겠는데	-9.24643
▁물이	-9.24677
린	-9.24749
다면	-9.24793
▁구매하고	-9.24809
며	-9.24884
▁근무	-9.24985
해드리겠습니다	-9.25067
▁알레르기	-9.25083
회	-9.25112
▁졸업	-9.25141
▁달라고	-9.25144
▁주변에	-9.25154
▁만나	-9.25198
▁관람	-9.25277
▁손님이	-9.25401
▁않아도	-9.25463
하나요	-9.25467
▁경우에는	-9.25514
▁밖에	-9.25687
▁제출	-9.25728
▁위에	-9.25879
▁통해	-9.25909
호선	-9.25919
▁매운	-9.25938
기는	-9.25944
▁중에서	-9.26099
▁필요한데	-9.26152
▁지갑	-9.26268
▁쓰여	-9.26278
▁입구	-9.26297
▁나라	-9.26411
▁그걸	-9.26584
별로	-9.26764
차	-9.26813
▁공항에	-9.26851
▁먹으러	-9.26867
▁연락처	-9.26867
▁생긴	-9.2687
▁봐야	-9.26908
▁쪽	-9.27003
▁진료	-9.27115
인실	-9.27316
▁의견	-9.2735
▁사업	-9.27415
▁필요하신	-9.27538
▁통화	-9.27547
▁문자	-9.27568
▁치즈	-9.27762
▁부탁드려요	-9.27939
▁그룹	-9.2811
▁누구	-9.2814
▁오후에	-9.28152
▁결정	-9.28307
이고	-9.28455
온	-9.28555
▁원피스	-9.28645
▁나을	-9.28661
▁특히	-9.28668
하셨나요	-9.28672
▁기회	-9.28689
▁가져가	-9.28859
▁모르겠네요	-9.28898
▁최근	-9.28973
▁사용하는	-9.291
▁되게	-9.29181
▁다이어트	-9.29183
▁들어가는	-9.29272
▁지금까지	-9.29382
▁최대	-9.29415
▁맞지	-9.29488
▁괜찮으신가요	-9.29587
▁정확한	-9.2961
▁물어봐	-9.29687
▁똑같은	-9.29712
편하게	-9.29787
▁서로	-9.30017
▁내로	-9.30037
▁일부	-9.30061
▁아파서	-9.30136
▁항공권	-9.30153
▁직원들	-9.30231
▁다양한	-9.30494
▁살짝	-9.30514
▁급하게	-9.3055
▁음료수	-9.30556
▁선적	-9.30606
▁카메라	-9.30698
▁기다리고	-9.30713
▁언제부터	-9.30925
▁적은	-9.30929
▁들어서	-9.30961
▁어린이	-9.30961
▁회식	-9.31006
이라면	-9.31221
▁전화해	-9.31308
▁때까지	-9.31315
▁개발	-9.31327
▁주문이	-9.31386
▁버튼	-9.31446
▁아뇨	-9.31448
▁물론이죠	-9.3145
▁겁니까	-9.3145
▁자동차	-9.31463
▁관광	-9.31477
▁이곳	-9.31528
▁파일	-9.31564
더라	-9.31746
▁포장해	-9.31799
▁예정	-9.31808
▁중인데	-9.32164
▁샐러드	-9.32312
▁티셔츠	-9.32389
▁24	-9.32442
▁보험	-9.32687
▁주말	-9.32737
▁사서	-9.32752
▁성인	-9.32928
▁있는데요	-9.33137
▁종이	-9.33209
▁대부분	-9.33315
및	-9.33341
▁부	-9.33347
▁사면	-9.334
이야	-9.33415
▁보내드리겠습니다	-9.33421
▁반품	-9.33432
쉽게	-9.33471
▁주문하고	-9.3352
▁수화물	-9.33626
▁연결	-9.33646
▁하긴	-9.33715
▁연기	-9.33755
▁드리고	-9.33792
▁향이	-9.3386
▁과일	-9.34031
▁기준	-9.34047
기가	-9.34066
▁보이지	-9.34161
▁어려운	-9.34278
▁같으니	-9.34278
▁서	-9.3428
▁있으세요	-9.34321
▁감사하겠습니다	-9.34325
침	-9.34386
▁콜라	-9.34407
▁검은색	-9.34533
▁특별한	-9.34622
▁나오지	-9.34682
▁받으	-9.34735
▁바꿀	-9.34757
▁거니까	-9.34962
▁전화번호	-9.35068
였습니다	-9.35085
▁에어컨	-9.35125
▁밤	-9.35195
▁지나	-9.35332
▁말씀해주시면	-9.35361
▁관련해서	-9.35632
▁케이크	-9.35656
▁예약할	-9.35658
▁곳으로	-9.35686
▁피자	-9.35725
▁몰라서	-9.36033
▁역	-9.36081
▁남자	-9.36086
▁텐데요	-9.36166
▁전시	-9.36193
힌	-9.36239
▁무조건	-9.36254
▁저렴한	-9.36256
▁속	-9.36349
박	-9.3636
▁있	-9.36394
▁저에게	-9.36487
는지	-9.36563
▁나가서	-9.36563
▁학생	-9.36627
▁넘	-9.36754
▁백화점	-9.36805
▁드리	-9.36851
▁만한	-9.36897
▁교육	-9.36898
▁거리	-9.36952
▁실례합니다	-9.36967
▁높은	-9.37028
▁힘	-9.37118
예요	-9.37175
▁드시고	-9.37338
▁보내주세요	-9.37358
▁중입니다	-9.37425
▁키	-9.37659
▁취소하고	-9.37702
▁김	-9.37791
▁구매했는데	-9.37807
▁몸이	-9.37957
▁각	-9.38049
▁그렇구나	-9.38247
▁되어서	-9.38261
▁맨	-9.38264
▁책자	-9.38291
▁걸리나요	-9.38297
▁빼고	-9.3834
▁그날	-9.38458
▁나오	-9.38587
▁이쪽으로	-9.38616
▁지각	-9.3862
▁염색	-9.38732
이신가요	-9.38843
▁알려주	-9.38921
▁대기	-9.38952
▁주시고	-9.39063
▁오지	-9.392
▁찾는	-9.3921
▁꾸준	-9.39254
▁들어가서	-9.39288
▁있었던	-9.39302
▁주스	-9.39313
▁좋겠네요	-9.39329
▁들어갈	-9.39502
주실	-9.39557
▁않게	-9.39611
▁매	-9.39627
▁사항이	-9.3969
하셔서	-9.39707
▁잠	-9.39771
▁허리	-9.39869
▁발	-9.39926
▁않은데	-9.39929
▁있나	-9.40109
▁호텔에서	-9.40183
▁왔	-9.40191
히려	-9.40216
▁각자	-9.40349
▁은행	-9.40353
▁있으시면	-9.40356
▁분들이	-9.4046
▁찾으	-9.40551
▁선생님	-9.40678
▁친구들	-9.4081
씩	-9.41068
▁얼굴	-9.41231
▁같지	-9.41323
▁콘서트	-9.41393
▁비가	-9.41533
▁자세히	-9.41589
▁중으로	-9.41611
▁판매하	-9.4173
▁할까	-9.41765
▁있다는	-9.41811
▁운영	-9.41928
▁올려	-9.42098
▁없다고	-9.42167
▁해주시면	-9.42288
▁전원	-9.4233
▁같아서요	-9.42361
▁자신	-9.42383
▁않았습니다	-9.42398
▁테이블	-9.42419
▁거라고	-9.42445
▁드시면	-9.4246
▁주제	-9.42569
▁같	-9.4272
▁말하는	-9.42785
▁관	-9.42817
▁입금	-9.42862
▁여자	-9.42917
▁길에	-9.42932
▁싶어서요	-9.42958
으니까	-9.43006
▁지역	-9.43069
▁않는데	-9.43116
▁매장에서	-9.43255
▁구	-9.43275
▁몰랐는데	-9.43411
▁도와드릴게요	-9.43422
▁몸	-9.43654
▁물론	-9.43667
▁앉아서	-9.43718
▁가도	-9.4402
▁기사	-9.44034
▁보자	-9.44035
▁기간이	-9.44079
▁그러니까	-9.4408
▁통	-9.44107
▁나랑	-9.44296
▁노래	-9.44312
▁온라인	-9.44364
▁교수님	-9.44388
▁지급	-9.44449
▁순	-9.44474
▁물론입니다	-9.44595
▁있었어	-9.44874
▁불러	-9.4494
▁가져오	-9.44981
▁안에서	-9.45019
보세요	-9.45302
▁먹기	-9.45433
다는	-9.45468
▁아빠	-9.45517
하면서	-9.45519
▁박스	-9.4554
▁시장	-9.45549
▁공장	-9.45695
▁시까지	-9.45969
▁여름	-9.46106
▁좋겠어	-9.46223
▁예약했는데	-9.4631
▁보기에	-9.46433
▁전화로	-9.46523
▁가보	-9.46551
▁아픈	-9.46599
▁힘든	-9.46642
▁되죠	-9.46774
▁비용은	-9.46815
▁이틀	-9.46917
▁늘	-9.47004
▁절대	-9.47023
▁구매하신	-9.47165
▁학교에	-9.47165
▁많아요	-9.47242
▁있던데	-9.47349
▁작년에	-9.47415
일에	-9.47448
▁먹지	-9.47474
▁하더라	-9.4758
▁가끔	-9.47727
▁담배	-9.47728
▁스파	-9.47736
▁대리님	-9.47783
▁금요일	-9.47809
▁거니	-9.47874
▁선	-9.47884
▁체크아웃	-9.47992
이니까	-9.48292
▁하기	-9.48331
▁휴대전화	-9.48398
▁빵	-9.48406
▁매출	-9.48493
▁알려주실	-9.4852
▁봐도	-9.48626
▁될까	-9.48684
▁많지	-9.48787
▁앉아	-9.48792
▁맞죠	-9.48872
▁인원이	-9.48927
▁영상	-9.49088
▁구두	-9.49106
▁내려서	-9.4913
▁같다	-9.49188
▁이곳에서	-9.49202
▁인터넷으로	-9.4933
▁번에	-9.49339
▁스타일	-9.49357
▁심하	-9.49398
▁받아야	-9.49436
▁저기요	-9.49678
울	-9.49864
▁자전거	-9.4987
▁손	-9.49938
▁우유	-9.49966
▁제품에	-9.49973
▁식당이	-9.50014
▁있니	-9.50027
▁하셔야	-9.50032
▁가능한지	-9.5007
▁비싸	-9.50082
▁저쪽	-9.50222
▁하게	-9.50245
▁맞춰서	-9.50277
▁볼게요	-9.50335
▁사무실	-9.50458
▁고민	-9.50471
릴	-9.50646
▁포인트	-9.50725
▁상담	-9.50801
▁파란색	-9.5096
▁갖	-9.51054
만큼	-9.51073
▁이동	-9.51146
▁검토	-9.5116
▁받지	-9.51192
▁게임	-9.51235
▁여행용	-9.51254
▁코스	-9.51293
▁좋네요	-9.51309
▁이메일로	-9.51377
대체	-9.51596
▁나이	-9.5167
▁올라가	-9.51686
▁약이	-9.51809
▁없지	-9.52025
▁때문	-9.52055
▁수술	-9.52137
▁조식	-9.52192
▁일본	-9.52215
▁싶었는데	-9.52267
▁들어온	-9.52275
▁제출하	-9.52616
▁그림	-9.52678
▁서울	-9.52861
▁알았어	-9.53003
▁점수	-9.53025
▁약속	-9.53032
▁이쪽	-9.53032
▁샘플	-9.53123
▁빨간색	-9.53166
▁박물관	-9.53249
있긴	-9.53271
▁여보세요	-9.5342
▁그러시면	-9.53461
▁파스타	-9.53471
달라고	-9.53555
▁자동	-9.5362
▁곳에서	-9.53648
▁일어나	-9.5368
었어요	-9.53692
▁바꾸고	-9.53826
▁별	-9.53895
▁나면	-9.53924
▁대학교	-9.53971
셨어요	-9.54004
▁맞	-9.54084
▁괜찮은데	-9.54135
▁자기	-9.5417
▁포함	-9.54214
▁생각하고	-9.54268
▁향수	-9.54352
▁바	-9.54382
지는	-9.54473
▁줘	-9.54515
▁배터리	-9.54585
▁실례지만	-9.5459
▁질문	-9.54595
▁가져다드릴게요	-9.54633
▁안내해	-9.54658
▁따라서	-9.54742
▁지난주에	-9.54787
▁B	-9.54868
▁걱정이	-9.5489
▁중간에	-9.55083
▁가능할	-9.55107
▁드리면	-9.5517
▁않았어요	-9.55179
▁프로그램이	-9.55245
▁보관	-9.55246
▁부장님	-9.5526
▁이상이	-9.55383
▁노력	-9.55415
▁싶다	-9.55517
▁경기	-9.55556
하시고	-9.55595
▁강아지	-9.55727
▁씨	-9.55825
▁생산	-9.55918
▁때도	-9.55936
▁아버지	-9.56082
▁휴대폰	-9.56094
▁흰색	-9.56156
▁바꾸	-9.5618
▁적용	-9.56186
▁호텔에	-9.56208
▁완료	-9.56242
▁하다	-9.56268
▁편이	-9.56276
▁본인	-9.56476
▁연차	-9.56623
▁생겨서	-9.56674
▁세일	-9.56888
▁이걸	-9.56903
▁기내	-9.56907
▁진행하는	-9.56923
▁빠른	-9.56993
▁괜찮으세요	-9.56993
▁아프	-9.57003
▁올리	-9.5701
하시겠어요	-9.57023
▁나갈	-9.57069
▁듣고	-9.57144
시죠	-9.57163
▁주변	-9.57229
▁소식	-9.57361
▁보일	-9.57381
▁외에	-9.5739
▁긴	-9.57409
▁굳	-9.57442
▁많을	-9.57617
▁되었습니다	-9.57649
▁규정	-9.57755
▁맞춰	-9.57959
▁당일	-9.57964
▁시켜	-9.5804
▁충전	-9.58077
시겠어요	-9.58089
▁하신	-9.58098
▁내용이	-9.58177
▁열차	-9.5823
▁가능하세요	-9.58248
▁갔는데	-9.58271
해드릴게요	-9.5835
▁이내에	-9.58375
▁방에	-9.58389
▁여행자	-9.58405
▁홈페이지에	-9.58415
▁편	-9.58508
▁외국	-9.58515
▁되니까	-9.58554
▁립스틱	-9.58589
▁드려요	-9.58653
▁가셔야	-9.58751
▁정지	-9.58812
▁갈래	-9.59002
▁힘들어	-9.59073
▁내일까지	-9.5914
▁진행하	-9.59385
▁드디어	-9.59434
▁오류	-9.59444
자마자	-9.59461
▁돈이	-9.59464
▁수건	-9.59537
▁가능해요	-9.59547
▁필요해요	-9.59555
▁사이트	-9.5956
▁매주	-9.59599
▁잠시만요	-9.5978
▁시내	-9.59822
해주셔서	-9.5983
▁가세요	-9.59846
▁참여	-9.60091
되었습니다	-9.60147
▁찍	-9.60213
▁지내	-9.60284
▁새벽	-9.60297
▁전달	-9.60389
▁퇴원	-9.60416
▁무리	-9.60446
▁담아	-9.60506
▁치킨	-9.60517
▁회계	-9.60612
▁중인	-9.60649
▁부모님	-9.60682
▁각각	-9.60684
▁먹어야	-9.60721
▁계좌	-9.60781
▁파티	-9.60785
▁싸게	-9.60832
▁500	-9.60842
드릴까요	-9.60894
▁계단	-9.60943
▁활동	-9.60954
▁성적	-9.60959
잔	-9.60966
▁있었어요	-9.61203
▁마감	-9.6127
▁이전	-9.61436
▁요즘에	-9.61455
▁조회	-9.6156
▁상황이	-9.61569
▁이용하	-9.61586
▁작년	-9.61601
▁가능한데	-9.61616
▁수영장	-9.61639
▁전용	-9.61682
▁주의	-9.61929
분만	-9.61933
▁따뜻한	-9.61963
▁알았습니다	-9.61964
▁정류장	-9.62344
▁나는데	-9.62456
▁마무리	-9.62471
▁지하철역	-9.62527
종	-9.62632
단	-9.62726
▁묵을	-9.62737
▁받아서	-9.6278
▁않을래	-9.6282
▁물어보	-9.62845
▁내일부터	-9.62876
▁가입	-9.62936
▁실적이	-9.63105
▁향	-9.6316
▁갔다	-9.63203
▁빌릴	-9.63239
원이	-9.63239
▁10%	-9.63249
▁도와드릴까요	-9.63253
▁맡기	-9.6326
▁약간	-9.63319
▁좋아해서	-9.63462
▁놓	-9.63524
▁입력	-9.63572
▁놓고	-9.63706
▁수요일	-9.63722
▁세탁	-9.63849
되지	-9.63932
▁출발하는	-9.64015
▁뭔가요	-9.64062
▁뒤로	-9.64063
립니다	-9.64121
만한	-9.64155
▁정리해	-9.64193
▁축구	-9.64233
▁거라서	-9.6427
▁높	-9.64282
▁봤어	-9.64316
▁감	-9.64346
▁거기에	-9.64382
▁나가	-9.64409
시고	-9.64478
▁신	-9.6449
날	-9.64557
▁놀러	-9.64559
▁교체	-9.64569
간	-9.64648
▁마실	-9.64671
▁우리나라	-9.64674
었으면	-9.64799
▁싶지	-9.64807
▁회의실	-9.64853
▁되네요	-9.6486
▁제품들	-9.65
치	-9.65007
▁가이드	-9.65082
▁인쇄	-9.65159
▁상처	-9.65166
▁집중	-9.65232
▁뭐야	-9.65293
▁잡아	-9.65335
인분	-9.65435
▁와인	-9.65459
▁색깔	-9.65539
▁부담	-9.65559
호	-9.65616
▁화장실이	-9.65625
▁어	-9.65646
▁가방이	-9.65714
▁보호자	-9.65719
▁정확하게	-9.6586
걸	-9.65906
▁드실	-9.65908
▁연락드리겠습니다	-9.66018
▁모델	-9.66024
▁감사	-9.6603
▁코너	-9.66049
▁5,000	-9.66066
▁않네요	-9.66096
▁국내	-9.66098
▁책상	-9.661
▁데리	-9.66241
▁신입	-9.6635
▁불	-9.66373
▁층	-9.6638
▁번째	-9.66545
▁쪽에서	-9.66637
▁식당에서	-9.6664
▁시키	-9.66642
▁바다	-9.66713
▁스테이크	-9.66738
년이	-9.66863
▁눈에	-9.66976
▁사용하고	-9.6698
▁사이즈로	-9.6702
▁죄송해요	-9.67186
▁담	-9.67199
▁반입	-9.67237
▁생각했는데	-9.67287
▁수량	-9.67327
▁1,000	-9.67329
▁어서	-9.67473
▁학생들	-9.67579
▁찍고	-9.6758
▁지하	-9.67603
▁만나서	-9.67697
▁주문할	-9.67713
▁속도	-9.6772
▁써서	-9.6779
▁인사	-9.67822
▁도움	-9.67846
▁환율	-9.68032
▁정류장이	-9.68092
▁한다는	-9.6814
▁관심	-9.68148
▁있을지	-9.68151
▁바빠서	-9.68167
세	-9.68202
▁보안	-9.6829
▁조건	-9.68298
▁단가	-9.68316
▁매출이	-9.68363
▁가수	-9.68385
▁동네	-9.68396
▁늦을	-9.68496
▁당신	-9.68524
▁다행히	-9.68531
▁넌	-9.68554
여서	-9.6856
▁많습니다	-9.68601
▁없죠	-9.68631
하느라	-9.68659
▁주문할게요	-9.68664
▁고생	-9.6874
▁커서	-9.68757
▁이후에	-9.68841
▁여유	-9.68885
▁분들	-9.68975
▁상	-9.69077
▁기억이	-9.69175
▁맡	-9.69221
▁드려	-9.69282
▁공지	-9.69326
▁있다가	-9.69381
▁찾	-9.69383
▁토요일	-9.69417
▁자체	-9.6943
▁최소	-9.69694
▁기	-9.69723
▁얼음	-9.69846
▁아이디어	-9.69944
▁과자	-9.69969
▁보내주시면	-9.69988
▁받으실	-9.70037
▁해드릴	-9.70048
▁다녀	-9.70107
드립니다	-9.70207
▁반응이	-9.70387
▁오고	-9.70428
▁작성해	-9.70517
▁해드릴까요	-9.70524
▁줄이	-9.70542
▁아이들이	-9.70677
▁무엇인가	-9.70823
▁물을	-9.70846
▁평가	-9.71
▁오셔서	-9.71007
▁이전에	-9.71106
▁내려	-9.71116
mm	-9.71291
▁끝난	-9.71292
▁금요일에	-9.71441
▁여쭤보	-9.71485
▁처음에	-9.716
▁알아보고	-9.71623
▁걸어서	-9.71641
▁나오면	-9.71742
이기	-9.71798
▁색상이	-9.71813
▁제한	-9.71829
▁알아봐	-9.71941
▁업데이트	-9.72115
▁회의에	-9.72143
하다가	-9.72375
▁중이라	-9.72434
▁돌아가	-9.72693
cm	-9.72699
▁기념품	-9.72701
▁내내	-9.72721
했으면	-9.72722
되면	-9.72731
▁그렇긴	-9.72747
▁봅니다	-9.72769
▁쉽지	-9.72858
▁낮	-9.72865
보시고	-9.72901
▁밤에	-9.72945
▁화장	-9.72983
▁찾아가	-9.73009
▁바람에	-9.73017
▁물어보고	-9.73099
▁무게	-9.73302
▁가능	-9.73366
▁경험이	-9.73468
까지는	-9.73497
시는	-9.73638
▁노란색	-9.73642
▁색이	-9.73663
▁아닐까	-9.73719
▁좋겠는데	-9.73724
▁여쭤봐	-9.73732
▁갔	-9.73837
▁수표	-9.73986
▁메뉴는	-9.74001
성	-9.74036
▁반대	-9.74094
▁땀	-9.74132
받은	-9.74198
▁같고	-9.74199
▁가시는	-9.74219
▁착용	-9.74266
▁검색	-9.74366
▁금지	-9.74488
▁나가는	-9.7451
▁마음이	-9.74856
부	-9.74914
▁인해	-9.74921
▁개수	-9.74965
▁오늘부터	-9.75181
▁만	-9.75311
▁내려가	-9.7535
▁많	-9.7536
▁메뉴판	-9.7543
▁아이들	-9.75443
▁갈까	-9.75485
▁시계	-9.75535
▁에스컬레이터	-9.75576
▁확인해보니	-9.75583
▁만들	-9.75603
▁생각해요	-9.75611
▁면세	-9.75626
▁만드는	-9.75653
▁날이	-9.75683
▁치수	-9.75776
▁도착하	-9.75847
▁보겠습니다	-9.75985
▁전문	-9.76008
▁역에서	-9.76092
▁모르는	-9.76283
▁출국	-9.76326
▁이름이	-9.76384
▁한국에서	-9.76451
▁양	-9.76525
▁끝	-9.76541
줄	-9.76581
▁필요할	-9.76652
▁눈	-9.76839
▁시술	-9.76875
▁좌석이	-9.76893
▁고르	-9.76945
▁수납	-9.76963
▁의사	-9.77031
▁보낼	-9.77072
▁운동화	-9.77082
▁기다려주시면	-9.77092
▁뭐라고	-9.77132
▁해결	-9.77153
▁예정인데	-9.7717
▁10,000	-9.7726
▁피	-9.77268
▁변경이	-9.77302
▁온다고	-9.77393
▁모니터	-9.77444
▁의미	-9.77459
▁설명해	-9.77547
▁생선	-9.77559
▁상품으로	-9.77572
▁조	-9.77675
▁지하철이	-9.7773
▁할게	-9.77741
▁통해서	-9.77762
▁넣어서	-9.77792
하는데	-9.77904
▁남자친구	-9.78049
해요	-9.78067
▁어떤가요	-9.78161
▁오는데	-9.78316
▁이사	-9.78375
▁밴드	-9.78396
▁아메리카노	-9.78471
▁않았	-9.78485
▁분실물	-9.78519
▁꽉	-9.78545
▁어머니	-9.78559
▁남았는데	-9.78568
▁드세요	-9.78582
▁저렴하게	-9.78608
▁다르게	-9.78659
▁조심	-9.78672
▁여름에	-9.7873
수	-9.78755
▁그릇	-9.78759
▁심사	-9.7884
▁정류장에서	-9.78881
하시나요	-9.78955
▁넣으	-9.78959
▁정신	-9.78984
▁전부터	-9.7899
▁드리는	-9.78999
▁합니까	-9.78999
시쯤	-9.79034
되는	-9.79229
▁책이	-9.79349
▁시부터	-9.79391
▁있대	-9.79668
▁건가	-9.79767
▁써야	-9.7994
▁집으로	-9.79949
▁모르겠지만	-9.80059
▁뵙	-9.80061
▁간격	-9.80072
▁새우	-9.801
이니	-9.8017
매번	-9.80194
▁소고기	-9.80322
▁내리면	-9.80363
▁구성	-9.80368
이라는	-9.8047
▁다녀오	-9.8055
이며	-9.80589
▁눈이	-9.80661
▁받으면	-9.80777
▁그러	-9.80824
▁표시	-9.80827
▁물에	-9.80833
▁너랑	-9.80937
시로	-9.81056
▁화장실에	-9.81081
▁나옵니다	-9.8123
▁입국	-9.81319
▁목	-9.81353
▁쇼핑	-9.81359
▁변경할	-9.81364
▁물리치료	-9.81431
▁공원	-9.81459
겠습니까	-9.81509
▁컵	-9.81576
▁대해서는	-9.81597
▁기다리셔야	-9.81619
▁참고	-9.81712
▁고객님이	-9.81728
▁가능성	-9.81876
▁영수증이	-9.81882
▁계산대	-9.81883
▁나눠서	-9.81915
▁올게요	-9.81922
▁리가	-9.81976
▁보입니다	-9.82041
▁창가	-9.82083
했다고	-9.82098
보고	-9.82102
▁이걸로	-9.82123
▁만에	-9.82126
▁군데	-9.8218
▁예산	-9.82249
▁구매하려고	-9.82367
▁알아보	-9.82379
▁병	-9.82473
▁연습	-9.82546
▁송장	-9.82552
▁봤	-9.82564
▁근육	-9.82566
원이고	-9.82583
▁없어서요	-9.8275
▁있잖아	-9.82767
▁결제가	-9.82851
해주실	-9.82878
▁거라면	-9.82934
돼서	-9.83011
▁치	-9.83124
▁사이에	-9.83126
▁최종	-9.83142
▁반드시	-9.83155
▁정해진	-9.83163
▁궁금합니다	-9.83165
▁계세요	-9.83195
▁기다리시면	-9.83218
▁모르는데	-9.83228
▁공사	-9.83237
▁당연하지	-9.83341
▁확인이	-9.83354
▁달라	-9.83428
▁발생	-9.83471
▁방향으로	-9.83476
▁번만	-9.8353
▁들어올	-9.83589
분에	-9.83611
▁재	-9.8367
▁어울리는	-9.83695
▁색깔이	-9.83743
기엔	-9.83797
께	-9.83814
▁주고	-9.83815
▁계산하	-9.83906
뿐만	-9.8392
▁이미지	-9.83925
▁분석	-9.84022
▁국가	-9.84022
▁병실	-9.84049
▁사원	-9.84092
▁못해서	-9.84144
▁회의는	-9.84165
▁대리	-9.84169
▁오늘도	-9.8423
▁못한	-9.84263
▁일로	-9.8433
▁조절	-9.84432
▁보이	-9.84468
▁분들은	-9.84532
▁않으셔	-9.84573
▁결재	-9.84671
▁좋았	-9.84732
섯	-9.8474
▁아는데	-9.84741
▁교통사고	-9.84743
▁아무것	-9.84757
▁더욱	-9.84854
,000	-9.84859
▁편한	-9.84865
▁차가운	-9.84873
▁나오나요	-9.84885
▁되겠네요	-9.84904
▁예약해	-9.84953
▁빌려	-9.84994
▁기본적	-9.85005
더군요	-9.85059
▁집이	-9.85084
▁주사	-9.85173
▁온라인으로	-9.85232
답	-9.85303
▁나가야	-9.85335
▁걸려	-9.85358
▁말씀이	-9.8544
▁주문하	-9.85571
▁걸릴까	-9.85594
▁시각	-9.85594
▁풀	-9.85664
▁나눠	-9.8567
▁현지	-9.85681
▁관심이	-9.85685
▁있었	-9.85742
▁사용하	-9.85819
▁하셔서	-9.85848
▁내려야	-9.85851
▁먹어서	-9.85911
▁방향	-9.85972
▁직원들이	-9.85977
▁됐는데	-9.86018
▁견적	-9.86028
▁학교에서	-9.86033
▁대략	-9.86055
▁친구들이	-9.86078
▁것들이	-9.8608
건	-9.861
▁동	-9.86103
▁진열	-9.86116
▁좋을까	-9.86201
▁예쁜	-9.86331
▁감사드립니다	-9.86364
▁땐	-9.86372
▁축제	-9.86501
▁아파요	-9.8652
▁싶네요	-9.86526
▁측에서	-9.86555
▁오시는	-9.86562
▁서명	-9.86568
▁다니	-9.86578
▁말도	-9.86604
▁보이네요	-9.8666
▁구매하시면	-9.86678
▁보다	-9.86722
▁수프	-9.86745
▁선물로	-9.86771
▁원입니다	-9.86808
▁양이	-9.86844
▁찾기	-9.86879
▁기다리	-9.86905
▁제공	-9.86916
▁코	-9.86925
▁해외에서	-9.86926
▁다른데	-9.86933
▁간식	-9.86945
▁선풍기	-9.86955
▁잘하는	-9.86971
▁사다	-9.86982
▁기억	-9.86984
▁변경하고	-9.87005
▁디자인이	-9.87054
▁차로	-9.87066
▁제주도	-9.87085
▁홈페이지	-9.87113
▁드셔	-9.87243
▁이메일	-9.87314
거든	-9.87387
▁이따가	-9.87393
▁아르바이트	-9.87471
으니	-9.87552
들도	-9.87573
▁나왔는데	-9.87577
▁맞는데	-9.87722
▁걸까	-9.87971
▁궁금한	-9.87991
▁떡볶이	-9.87995
▁몰라	-9.87999
▁아냐	-9.88036
▁좋아하는데	-9.8814
▁보여주세요	-9.88164
잖아요	-9.88263
▁환전소	-9.883
▁거랑	-9.88303
▁확인해보고	-9.88334
느라	-9.88383
▁대상	-9.88477
▁되었는데	-9.88555
▁꺼내	-9.88617
▁가져다드리	-9.88676
▁도서관	-9.88679
▁소개	-9.88693
▁뽑아	-9.88754
▁샀	-9.88985
십니까	-9.88994
▁고등학교	-9.89002
▁이상한	-9.89019
▁관해	-9.89346
▁하면서	-9.89381
▁주셔야	-9.89419
▁모자	-9.89494
▁약속이	-9.89527
▁불이	-9.89538
▁양념	-9.89555
▁탈의실	-9.89601
▁운동이	-9.89614
▁여자친구	-9.89633
▁좋아하지	-9.8967
▁아쉽네요	-9.89692
▁드시는	-9.89713
▁고	-9.89727
▁식으로	-9.89889
▁아니지만	-9.89892
▁수입	-9.89948
▁이용하시면	-9.89974
▁주문하면	-9.90099
▁교환이	-9.90108
▁다음번에	-9.90184
동안	-9.90217
▁어디인가요	-9.90225
▁생길	-9.90228
▁입을	-9.90237
▁입장	-9.90259
▁골라	-9.90352
스	-9.90412
▁남지	-9.90415
▁남아있는	-9.90427
▁미	-9.90431
▁찾아서	-9.90439
신가요	-9.9046
▁팔고	-9.9048
▁모양	-9.90504
달	-9.90522
었어	-9.90531
▁옮겨	-9.90533
▁주까지	-9.90579
▁예약하신	-9.90617
▁위험	-9.90649
▁내부	-9.90652
▁알아서	-9.90664
▁진행할	-9.90701
▁생활	-9.90706
▁들어오는	-9.9071
▁메이크업	-9.90739
해도	-9.90777
▁좋고	-9.90819
▁연장	-9.90824
▁먹었는데	-9.90925
▁모르겠네	-9.90944
▁내리	-9.90984
▁보네	-9.90999
등	-9.91114
▁한국에	-9.91137
▁기념	-9.91153
▁중국어	-9.91191
▁그쪽	-9.91247
이라니	-9.91266
▁됩니	-9.91313
▁어깨	-9.91345
해보세요	-9.91363
▁정해져	-9.9141
▁인	-9.91412
▁어떡하지	-9.91426
▁있었습니다	-9.91438
▁직원에게	-9.91476
▁하나씩	-9.91519
▁불편하게	-9.91521
▁수학	-9.91623
▁어울릴	-9.91624
▁연고	-9.91695
▁식당에	-9.91742
▁출력	-9.91751
▁어른	-9.91768
▁좋다고	-9.91842
0,000	-9.91865
▁인터넷에서	-9.91951
▁걸리는	-9.91993
▁왔는데요	-9.92023
▁법인	-9.92065
▁지나면	-9.92066
▁방문해	-9.9213
▁학기	-9.92189
▁기록	-9.92224
▁말씀을	-9.92313
▁위	-9.92515
▁소비자	-9.92567
▁드는	-9.92572
인데요	-9.92668
▁없네	-9.9272
▁월요일	-9.9279
▁시스템	-9.92817
▁안전	-9.92873
▁가실	-9.92955
▁홍콩	-9.9299
적	-9.93002
▁뭔지	-9.93081
일부터	-9.931
▁회원	-9.93133
▁부족한	-9.93148
▁전체적	-9.93153
▁강의	-9.93167
▁물량	-9.93231
▁조금씩	-9.9327
▁너한테	-9.93322
▁전공	-9.93343
▁실제로	-9.93361
▁통증이	-9.93401
▁갔다가	-9.93425
▁옛날	-9.93466
▁렌터카	-9.93498
▁벌	-9.93528
▁금액은	-9.93568
▁사용해	-9.9358
▁무	-9.93617
져	-9.93633
▁증상	-9.93638
▁불편	-9.93701
▁힘들어요	-9.93744
▁부산	-9.93795
▁그러는	-9.93919
▁해주실	-9.93961
▁기업	-9.94035
▁없었	-9.94068
▁가게에서	-9.94091
▁경험	-9.94173
번에	-9.94254
▁딸	-9.94256
▁몰랐어	-9.94421
▁본사	-9.94515
▁재발급	-9.94541
해드릴까요	-9.94579
▁기획	-9.94668
▁신입사원	-9.94737
▁수령	-9.94827
▁교통카드	-9.94835
▁왕복	-9.94835
▁여전	-9.94838
▁비밀번호	-9.94842
▁없으신가요	-9.94846
▁어쩌죠	-9.94852
▁배송비	-9.94863
▁벨	-9.94878
▁포함되어	-9.94981
▁왔어	-9.95004
▁오른쪽에	-9.95088
▁방송	-9.95112
▁정도만	-9.95171
▁배경	-9.95182
▁싸	-9.9523
▁환자	-9.9531
▁파	-9.95339
▁앱	-9.95465
▁전까지	-9.95493
▁수하물	-9.95506
▁수밖에	-9.95538
▁초콜릿	-9.9555
▁지원자	-9.95655
▁연락해	-9.95656
▁봐서	-9.95702
▁새벽에	-9.95707
▁사은품	-9.95743
▁기술	-9.95864
▁많았	-9.9592
▁눌러	-9.95987
▁세금	-9.9603
일까지	-9.96066
▁들어가지	-9.96159
발	-9.96206
▁부위	-9.96246
▁영어로	-9.96263
▁신용장	-9.96266
▁도시	-9.9641
▁다니는	-9.9643
주십시오	-9.96517
▁도와드릴	-9.96587
▁사내	-9.9662
▁키보드	-9.96621
▁50%	-9.96627
▁30%	-9.96634
▁마련되어	-9.96646
▁운행	-9.96676
▁있겠네요	-9.96743
▁보면서	-9.96751
▁포함된	-9.96771
▁여성	-9.96852
▁보내드리	-9.96867
▁버스로	-9.96882
▁생각이야	-9.96969
▁미안해	-9.97005
▁주시기	-9.97017
두	-9.97019
▁주문하려고	-9.9705
▁둘이	-9.97052
▁점심시간	-9.97069
▁읽	-9.97078
▁항공사	-9.97081
▁반납	-9.9712
▁보여서	-9.97232
▁형태	-9.97312
▁옮기	-9.9732
▁중간	-9.97354
▁과장님	-9.97368
▁생각에는	-9.97456
▁도와드리	-9.97522
란	-9.97553
▁주신	-9.9763
저	-9.97659
▁쓴	-9.97704
▁펜	-9.97759
▁지정	-9.9778
워서	-9.97784
▁고장이	-9.97857
▁지났는데	-9.97898
▁찍는	-9.98002
▁같던데	-9.98029
▁꽃	-9.98064
▁객실로	-9.98136
▁채용	-9.98145
▁하네	-9.98197
▁월급	-9.98202
▁오기	-9.98255
▁어떡해	-9.9834
▁깜짝	-9.98426
▁규모	-9.98439
▁밖으로	-9.98439
▁중간고사	-9.98439
▁끝날	-9.98447
▁모습	-9.98466
▁나쁘지	-9.98495
▁괜찮나요	-9.9851
▁구체적으로	-9.9852
▁한참	-9.98527
▁적응	-9.98536
▁중이야	-9.98548
하니까	-9.98569
▁와야	-9.98606
▁조정	-9.98655
▁지금부터	-9.98687
▁제안	-9.98707
▁포장이	-9.98735
▁내고	-9.98739
▁맞게	-9.98767
▁넣고	-9.98811
▁붙	-9.98898
권	-9.98977
▁단	-9.99084
▁자리로	-9.99265
▁그걸로	-9.9928
▁분홍색	-9.99287
▁열이	-9.99302
▁실	-9.99347
▁레스토랑	-9.99368
▁숙박	-9.9939
▁내년에	-9.99496
▁여기까지	-9.99498
▁이유는	-9.99545
▁내릴	-9.99564
▁참석	-9.99583
▁사진이	-9.99597
합시다	-9.99635
같이	-9.99642
▁판매대	-9.99649
▁빌리	-9.99673
▁쓰면	-9.99726
▁연예인	-9.99738
살	-9.99793
개가	-9.99798
▁연락해서	-9.9981
야겠다	-9.99857
▁그런가	-9.99986
▁사용한	-9.99992
▁주면	-10
▁먹자	-10.0005
▁찾으시는	-10.0007
▁양식	-10.0011
▁하셨는데	-10.0014
▁제게	-10.0015
▁공간이	-10.0016
냐	-10.0017
▁소재	-10.0025
▁뜨거운	-10.0026
▁않았나	-10.0028
▁무척	-10.0029
▁서둘러	-10.0031
▁어쩐지	-10.0031
▁적당한	-10.0032
▁시킨	-10.0035
▁많고	-10.0036
▁문화	-10.0039
▁보내드릴게요	-10.004
▁찾아보	-10.0043
▁투자	-10.0047
▁낼	-10.0048
▁나왔어요	-10.0054
▁다음부터는	-10.0055
▁모르고	-10.0056
▁저쪽에	-10.0057
▁중국에서	-10.0072
▁메시지	-10.0081
▁가방에	-10.0083
▁절차	-10.0107
▁전시회	-10.0117
▁환불하고	-10.0124
▁경우는	-10.0128
▁공	-10.013
▁피해	-10.0133
▁적어서	-10.0134
주셨으면	-10.014
사	-10.0144
▁바쁘	-10.0146
▁시설	-10.0148
▁바르	-10.0149
▁룸서비스	-10.0173
▁드는데	-10.0178
▁혼자서	-10.0179
▁멀리	-10.0185
▁케이팝	-10.019
▁후식	-10.0196
▁많으니	-10.0203
▁인상	-10.0205
▁입어	-10.0216
▁늦은	-10.0218
▁짧게	-10.0218
▁오랫	-10.0218
▁아이스	-10.0221
▁정거장	-10.0224
▁다닐	-10.0224
▁대여	-10.0226
▁다릅니다	-10.0226
▁여	-10.0232
겠지만	-10.0234
▁되니	-10.0236
야겠어요	-10.0239
▁판매하는	-10.024
▁살이	-10.0242
▁결제해	-10.0244
▁부분에	-10.025
▁알지	-10.026
▁결혼	-10.0282
▁아니라서	-10.0287
▁듣는	-10.0287
▁회사와	-10.0295
▁미용실	-10.0299
▁따	-10.03
▁문자로	-10.0304
▁작동	-10.0304
▁메뉴로	-10.0322
▁할부	-10.0339
▁월요일에	-10.0345
하기로	-10.0364
▁진행하고	-10.0366
▁어떻	-10.0389
▁넣	-10.0391
▁도로	-10.0397
▁했지	-10.0399
▁싫어	-10.0402
▁오렌지	-10.0406
▁변화	-10.0409
▁샴푸	-10.041
▁데이터	-10.041
▁언어	-10.0411
▁어딘지	-10.0411
▁감사해요	-10.0411
▁항공편	-10.0411
▁준	-10.0412
▁가보자	-10.0421
▁편인데	-10.0427
▁모르니	-10.0431
▁할인된	-10.0437
▁매장이	-10.0438
▁죽	-10.0439
른	-10.0443
▁양해	-10.0458
▁대학	-10.0467
▁하던	-10.0468
▁밖에서	-10.0484
▁직장	-10.0485
줘서	-10.0494
▁팀이	-10.0506
▁처음이라	-10.0518
▁상자	-10.0519
▁이용하는	-10.052
▁재밌	-10.0522
▁것처럼	-10.0523
▁맡겨	-10.0526
꺼	-10.0531
▁온도	-10.0535
했어	-10.0539
▁낮은	-10.0541
▁얼굴이	-10.0548
▁잘라	-10.0549
▁해산물	-10.055
▁장난감	-10.0551
▁크림	-10.0553
▁인턴	-10.0553
▁보지	-10.0558
▁좋다	-10.0559
▁이용해	-10.0567
▁그랬어	-10.0579
▁스트레스	-10.0585
마	-10.0592
▁취업	-10.0592
▁이불	-10.0593
▁못했는데	-10.0604
▁복숭아	-10.0606
▁셔츠	-10.0606
▁와이파이	-10.0606
▁설마	-10.0606
봐	-10.0606
▁어떡하죠	-10.0607
▁20%	-10.0607
▁아내	-10.0612
▁그렇다고	-10.0613
▁제외하고	-10.062
▁상관없이	-10.0624
▁낫지	-10.0626
▁원하시면	-10.0627
▁3,000	-10.0631
▁남는	-10.0631
▁가능하	-10.0631
▁종이에	-10.0632
▁사무실에	-10.0641
▁달러	-10.0646
▁걸려요	-10.0659
▁감기	-10.066
소	-10.0663
▁연극	-10.0667
▁베트남	-10.0677
▁팩	-10.0679
▁애들	-10.0681
▁몸에	-10.0692
▁예전	-10.0701
▁아무도	-10.0702
▁안으로	-10.0709
▁계약이	-10.0712
▁음악	-10.0716
▁시작하	-10.0717
▁아래	-10.0717
▁오늘까지	-10.0725
▁반응	-10.0735
▁그러게요	-10.0738
▁보려고	-10.0747
▁그리	-10.0751
보자	-10.0758
▁필요하	-10.0765
▁고객들	-10.0767
▁적혀	-10.0774
져서	-10.0777
▁도와주	-10.0785
▁나와요	-10.0789
▁도장	-10.079
▁스파게티	-10.0794
렴	-10.0797
▁졸업식	-10.08
▁짧은	-10.0803
▁바람	-10.0804
▁때부터	-10.081
▁마시	-10.0811
▁여부	-10.0812
▁연	-10.0813
▁계시는	-10.0813
▁기분	-10.0815
▁회사로	-10.0818
▁않지만	-10.0819
▁다친	-10.0819
▁감자	-10.0823
▁달라서	-10.0825
▁고객님께서	-10.0832
▁된다면	-10.0838
▁생기면	-10.0839
▁이른	-10.0844
▁객실이	-10.0847
▁그쪽으로	-10.0855
▁시작한	-10.0862
▁알겠어요	-10.0865
▁한잔	-10.0866
▁꼼꼼	-10.0868
▁급	-10.0875
▁출고	-10.0875
▁합시다	-10.0878
▁카페에서	-10.0878
▁나가면	-10.0888
▁합격	-10.0889
▁끝내	-10.089
▁찾아봐	-10.0908
▁로션	-10.091
▁쓰지	-10.0912
▁유명	-10.0912
일이	-10.0914
▁명절	-10.0915
▁지난번	-10.0923
▁적립	-10.0923
▁전통	-10.0943
▁좋지만	-10.0947
▁초과	-10.0951
층에서	-10.0951
▁감자튀김	-10.0951
월에	-10.0954
▁내면	-10.0968
▁아이돌	-10.0973
▁모여	-10.0982
▁점검	-10.0988
▁먹을까	-10.0988
▁최선	-10.1002
▁발라	-10.1003
▁야채	-10.101
▁자유롭	-10.1011
▁건데요	-10.1015
기를	-10.1017
▁가능하고	-10.1017
▁신호	-10.1025
▁변경해	-10.1044
▁먹는데	-10.1049
▁체험	-10.1049
▁그러지	-10.105
▁부모님이	-10.105
▁회	-10.1058
▁밝은	-10.1062
▁아저씨	-10.1064
▁박	-10.1064
▁볼펜	-10.1066
▁대비	-10.1066
▁연휴	-10.1076
▁제거	-10.1083
▁화면	-10.1084
어야	-10.1088
▁무엇이	-10.1091
▁분야	-10.1101
▁사장님이	-10.1117
▁커	-10.1117
▁승인	-10.1125
▁수영	-10.1126
▁바뀐	-10.1141
▁공고	-10.1147
▁성적이	-10.1152
▁구매하면	-10.1154
▁영양제	-10.1165
▁의견이	-10.1167
▁않으니	-10.1169
▁탈색	-10.1173
▁진통제	-10.1173
▁글	-10.1175
▁어떨까	-10.1178
▁모르겠습니다	-10.1192
▁아닌가	-10.1193
▁부탁드려	-10.1197
▁조리	-10.1199
▁빈	-10.1213
▁괜	-10.1219
▁해외여행	-10.1219
▁그렇죠	-10.122
▁벌금	-10.122
▁코트	-10.1225
▁후기	-10.1226
▁대량	-10.1229
▁200	-10.123
▁들지	-10.1231
▁느낌	-10.1238
▁심해서	-10.1241
째	-10.1241
▁퇴사	-10.1248
▁주차장	-10.1254
라니	-10.1254
해야겠네요	-10.1257
▁서비스로	-10.1259
▁대출	-10.1266
▁지하철역이	-10.1266
▁고양이	-10.1267
▁자체가	-10.127
▁어떠신	-10.1277
▁해보고	-10.129
주실래요	-10.13
▁그러고	-10.1313
하자	-10.1316
▁성분이	-10.1323
▁괜찮으실	-10.1325
▁그곳	-10.1331
▁하시고	-10.1332
▁넣을	-10.1337
▁알려드리	-10.1355
▁목이	-10.1386
▁같네	-10.1393
▁먼	-10.1394
▁상관없습니다	-10.1395
▁메인	-10.1396
▁마치	-10.14
▁바꿔야	-10.1401
▁공연이	-10.1406
▁년	-10.1412
▁도착하는	-10.1415
▁분기	-10.1426
▁싼	-10.1427
▁반대편	-10.1431
▁가볍	-10.1431
▁심지어	-10.1431
껏	-10.1431
▁잃어버린	-10.1431
▁미안하지만	-10.1431
▁당연하죠	-10.1432
▁생각하는	-10.1434
▁앞쪽	-10.1436
▁시간표	-10.144
▁별도로	-10.1448
▁불편한	-10.1448
▁용기	-10.1448
▁못할	-10.145
둔	-10.1451
▁판매량	-10.1452
▁청소기	-10.1456
겠죠	-10.1459
▁계시면	-10.146
▁미술관	-10.1468
▁이후로	-10.1471
▁대중교통	-10.1492
▁잠깐만	-10.1496
▁거래처에	-10.1502
▁됐어요	-10.1502
▁단순	-10.1506
▁나오고	-10.1507
▁교환하고	-10.1509
▁면세품	-10.151
▁김에	-10.1515
▁가격으로	-10.1523
해달라고	-10.1529
▁평소	-10.1531
▁화요일	-10.1533
▁명세	-10.1535
▁작성하	-10.1538
▁샤워	-10.1542
▁듯	-10.1543
▁건강	-10.1543
병	-10.1544
▁걸리	-10.1545
▁부품	-10.1546
▁아이스크림	-10.155
▁지불하	-10.1551
▁차라	-10.1555
▁나고	-10.1555
▁권	-10.1558
▁기존에	-10.1563
▁맛있다	-10.1567
▁팀원들	-10.1568
합니까	-10.1569
▁가요	-10.157
▁센터	-10.1571
▁연말	-10.1572
▁짜	-10.1583
▁채널	-10.1591
▁먹어보	-10.1594
비	-10.1596
▁어렵	-10.1601
▁알겠어	-10.1612
▁있네	-10.1612
할까요	-10.1612
준다고	-10.1627
▁모레	-10.1628
▁축하해	-10.1629
▁진	-10.1632
/	-10.1638
▁창문	-10.1643
▁상황에	-10.1649
▁깎아	-10.165
▁갖다	-10.1652
▁없는데요	-10.1653
▁환자분	-10.1656
▁보여주시면	-10.1658
▁간단하게	-10.1661
▁촬영이	-10.1661
▁소요	-10.1667
▁어디인지	-10.1672
▁간다고	-10.1676
▁전달해	-10.1676
▁복용	-10.1676
▁나지	-10.1677
식	-10.1681
▁번씩	-10.1684
▁음식점	-10.1686
▁방문하	-10.1686
▁봤을	-10.1688
▁도와	-10.169
▁할인해	-10.1691
▁협상	-10.1693
▁해주셔야	-10.1698
▁도서관에서	-10.1698
▁돼지고기	-10.1702
▁혜택이	-10.1708
▁보시겠어요	-10.171
▁담요	-10.1719
▁거라서요	-10.173
▁좋아해	-10.1744
▁채소	-10.1745
▁하시나요	-10.175
▁충전기	-10.1751
▁했나	-10.1757
▁축하	-10.1763
▁말해	-10.1767
▁작가	-10.1782
▁부서에	-10.179
▁확인해야	-10.1793
▁운전자	-10.1801
▁보여요	-10.1805
▁60	-10.1811
▁병원에서	-10.1812
▁가게에	-10.182
▁사과	-10.1829
▁기재	-10.183
▁없었는데	-10.1837
▁자유	-10.1843
▁보내주실	-10.1847
▁나요	-10.1849
럴	-10.1851
▁현장	-10.1854
▁설정	-10.1858
▁푹	-10.1867
▁오실	-10.1867
▁이곳에	-10.1869
곤	-10.187
▁확인해보	-10.1871
▁목적지	-10.1872
▁어릴	-10.1872
▁연어	-10.1874
▁원두	-10.1875
▁화상	-10.1875
▁낫	-10.1876
▁되었	-10.1878
▁15,000	-10.188
▁나왔습니다	-10.1881
▁부족해서	-10.1883
▁보낸	-10.1888
▁확인해보세요	-10.1892
쯤	-10.1894
명인데	-10.1894
▁들어와서	-10.1896
▁사용하면	-10.1897
▁되어있	-10.1901
▁어려워요	-10.1904
▁걸어	-10.1907
▁큰일	-10.1911
▁하더라고요	-10.1912
▁입어보	-10.1932
▁바이어	-10.1934
▁진행해	-10.1943
▁맞고	-10.1944
▁작성해야	-10.1944
▁고민이	-10.1949
▁좋게	-10.1957
▁주십시오	-10.1958
▁오일	-10.1963
▁결제할	-10.1964
▁입구에	-10.1965
에도	-10.1965
▁기억하	-10.1976
▁수출	-10.1978
▁요가	-10.1981
▁왼쪽에	-10.2002
▁25	-10.2002
▁일자	-10.2011
▁이용하면	-10.2011
▁맞는지	-10.2018
▁가능하니	-10.2019
▁보통은	-10.2036
▁밀려	-10.2046
▁공간	-10.2051
▁시켰는데	-10.2055
▁길게	-10.2055
▁마셔	-10.207
▁제품이라	-10.2085
▁발권	-10.2096
▁근처에서	-10.2098
▁대충	-10.2099
▁해봐야	-10.2101
▁보여주시겠어요	-10.2106
▁중요하	-10.2108
▁무엇인지	-10.211
▁심한	-10.2111
▁로비에	-10.2123
속이	-10.2125
▁종일	-10.213
▁비자	-10.2135
▁입어보고	-10.2137
▁알려줄	-10.2138
▁이후	-10.214
▁질	-10.2145
▁걸려서	-10.2156
▁갈게요	-10.2159
▁재미	-10.2159
▁청구	-10.216
▁기다리면	-10.2162
▁점은	-10.2168
▁새롭	-10.2169
▁늦어	-10.217
▁비싸서	-10.2171
▁통과	-10.218
까지만	-10.2195
▁개인적으로	-10.2201
S	-10.2201
▁걸까요	-10.2201
▁계산할	-10.2201
▁없는지	-10.2207
▁기한	-10.2209
▁출발하	-10.2213
▁심	-10.2214
▁외국인	-10.2218
▁밑에	-10.2218
▁연봉	-10.222
▁식품	-10.2224
▁영화는	-10.2227
▁가나요	-10.2236
▁끌	-10.2239
2	-10.2242
▁이용해서	-10.2243
▁제품입니다	-10.2248
원으로	-10.2258
▁차례	-10.2262
▁시청	-10.2269
▁애	-10.227
번째	-10.2271
▁봉투	-10.2273
▁사이	-10.2274
▁사정이	-10.2277
▁글쎄	-10.2284
▁저기에	-10.2285
봐도	-10.2286
▁이어폰	-10.2287
▁어쩌지	-10.2288
▁없었어	-10.2294
▁사전	-10.2298
▁목요일	-10.2308
▁기내식	-10.2309
▁야구	-10.2311
▁했잖아	-10.2313
▁나오는데	-10.2313
▁틀	-10.2317
▁걸리지	-10.2328
▁젊은	-10.2329
▁가까이	-10.233
▁맘	-10.2331
▁태풍	-10.2331
▁그러시군요	-10.2331
▁AS	-10.2333
이네요	-10.2339
▁시원한	-10.2341
▁모르겠다	-10.2346
▁나왔	-10.2349
▁조용	-10.2356
위	-10.2357
▁검수	-10.2357
겠지	-10.2365
▁들어요	-10.2368
▁부탁합니다	-10.2368
▁빠진	-10.237
▁사전에	-10.2371
▁그만큼	-10.2371
▁환불해주세요	-10.2373
▁탄	-10.2374
▁2,000	-10.2375
▁코너에	-10.2375
▁내에서	-10.238
▁내셔야	-10.2388
▁뒤쪽에	-10.2392
▁제외	-10.2397
▁끝에	-10.2398
▁은행에	-10.2404
▁시작할	-10.2404
▁쉬는	-10.2412
▁편할	-10.2417
▁얼굴에	-10.2418
▁긴장	-10.2421
시간이	-10.2424
▁인터넷에	-10.2447
▁예능	-10.2451
드린	-10.2459
▁만나는	-10.2461
▁배우고	-10.2468
▁피부에	-10.2481
▁가격에	-10.2484
▁공항으로	-10.2488
▁배달이	-10.2497
▁없다	-10.2498
▁수선	-10.2499
▁텔레비전	-10.2505
▁가족이	-10.2506
▁온천	-10.2515
니깐	-10.2516
▁게이트	-10.2519
▁뮤지컬	-10.2521
론	-10.2522
▁붙여	-10.2525
▁날에	-10.253
▁기말고사	-10.253
▁교환해	-10.2532
▁없잖아	-10.2533
▁없으니까	-10.2538
겠어	-10.254
▁아니니	-10.2542
라리	-10.2549
▁다양하	-10.2557
▁해줘	-10.2568
▁토마토	-10.2569
▁SNS	-10.2569
▁마우스	-10.2569
▁잔뜩	-10.2569
▁도시락	-10.2569
▁앞머리	-10.2569
▁다행이에요	-10.2569
▁범위	-10.2573
▁가능하지만	-10.2579
▁어렸	-10.258
▁불러주세요	-10.2581
십니다	-10.2581
▁오늘이	-10.2583
▁잊지	-10.2586
▁원인	-10.2591
▁초	-10.2592
▁바꿔주세요	-10.2592
▁입맛에	-10.2598
수록	-10.2609
▁화	-10.2613
▁봅시다	-10.2615
▁커트	-10.2615
▁되었어요	-10.2616
▁딸기	-10.2616
▁전에는	-10.2617
▁알려줘	-10.2617
▁18	-10.2617
▁거울	-10.2626
▁문구	-10.2629
▁입사	-10.2636
▁기름	-10.2638
▁달러로	-10.2641
▁해주시고	-10.2642
▁부르	-10.2654
▁이따	-10.2655
보시겠어요	-10.2658
끼리	-10.2664
▁받아볼	-10.2666
▁손님들이	-10.2667
▁기내에	-10.267
▁주방에	-10.267
▁했으면	-10.2681
▁룸	-10.2688
▁전망	-10.2689
▁추석	-10.2693
▁물건들	-10.2703
▁편하	-10.2706
▁불편해	-10.2708
▁계시	-10.2713
▁방안	-10.2715
▁주부터	-10.2716
▁신발이	-10.2717
▁역할	-10.272
▁오자	-10.2722
▁수요일에	-10.2724
▁노선	-10.2725
▁파운데이션	-10.2726
▁믿을	-10.273
▁가능하다	-10.2731
▁혜택	-10.2735
▁깊	-10.2736
▁준비해야	-10.2738
▁들어오	-10.274
▁맞을	-10.2744
겠군요	-10.2746
▁첨부	-10.2753
다른	-10.2753
해주신	-10.2754
▁책임	-10.2755
▁일요일	-10.2761
▁우산	-10.2769
▁최고	-10.2773
▁붙어	-10.2779
▁말은	-10.2788
아	-10.279
▁진열되어	-10.2799
▁접속	-10.2801
▁일회용	-10.2808
▁얻	-10.2808
▁멋진	-10.281
▁TV	-10.2813
▁다행입니다	-10.2813
▁끝나는	-10.2816
▁아쉽지만	-10.2817
▁원하시나요	-10.2818
▁걸리는데	-10.2824
▁한류	-10.283
▁조용히	-10.2831
▁내역	-10.2835
▁계약서에	-10.2838
▁창고에	-10.2839
▁생각하세요	-10.2839
▁똑같이	-10.2841
던데요	-10.2841
▁많네요	-10.2841
▁힘들어서	-10.2842
▁아니라면	-10.2849
▁선생님이	-10.2859
하셨던	-10.286
▁뜻	-10.286
▁이쪽에	-10.2862
▁오라고	-10.2864
▁말해주세요	-10.2864
▁물품이	-10.2865
▁사이트에서	-10.2876
▁미국에서	-10.2883
▁샌드위치	-10.2888
▁붙이	-10.2888
▁상관	-10.2889
▁갈게	-10.2889
▁된다는	-10.2891
▁반지	-10.2893
짜리	-10.2899
▁평일	-10.29
▁홈페이지에서	-10.2902
▁도서관에	-10.2905
▁등이	-10.2911
▁시험이	-10.2915
▁것들	-10.292
▁건너	-10.2924
▁그만	-10.2927
행	-10.2928
하며	-10.2929
▁차에	-10.2941
▁살펴보	-10.2941
▁경찰	-10.2948
▁복용하	-10.2956
▁보내는	-10.2964
▁잡	-10.2964
▁한다면	-10.2972
▁하던데요	-10.2972
▁먹어봐	-10.2974
▁호텔로	-10.2976
▁정식	-10.2977
▁영업팀	-10.2978
▁학원	-10.2979
▁확인하	-10.2992
▁유지	-10.2994
▁외근	-10.2996
달러입니다	-10.3003
▁가능합니다만	-10.3013
▁작동이	-10.3015
▁어울리	-10.3022
▁실제	-10.3023
▁먹으려고	-10.3027
▁동생	-10.3044
▁라면	-10.3047
▁코드	-10.3052
▁언니	-10.3052
▁세관	-10.3057
▁쓰레기	-10.3059
▁케이스	-10.3063
▁닭고기	-10.3063
▁보상	-10.3063
▁예정이에요	-10.3071
▁모아	-10.3073
▁예쁘게	-10.3076
▁가죽	-10.3078
▁걸어가	-10.308
▁영향	-10.3081
▁전략	-10.3098
▁쉬고	-10.3099
▁없다면	-10.3102
▁그다음	-10.3104
▁공부하	-10.3106
▁계	-10.3107
▁있거든	-10.3107
▁외국에서	-10.3112
▁않아서요	-10.3113
▁발견	-10.3115
▁사용하시면	-10.3115
▁화가	-10.3118
▁일주일에	-10.3121
▁활용	-10.3121
▁더워	-10.3128
▁웬만	-10.3132
▁있다	-10.3134
▁같기	-10.3136
▁동아리에	-10.3141
했으니	-10.3146
▁당신이	-10.3152
▁픽업	-10.3153
▁기억나	-10.3157
▁헬스장	-10.3158
에서는	-10.3162
▁말아	-10.3164
▁앉을	-10.3168
▁못했습니다	-10.3171
▁해줄	-10.3177
▁부서에서	-10.3183
▁나네요	-10.3186
▁들을	-10.3187
▁받으시	-10.319
▁건물이	-10.3198
▁교환할	-10.32
▁사유	-10.3214
이긴	-10.3217
▁지하철로	-10.3224
▁그런가요	-10.3226
▁유럽	-10.3228
▁빠지	-10.3229
▁대표	-10.323
▁떨어져	-10.324
▁상의	-10.3243
▁팀에서	-10.3244
▁현금이	-10.3247
▁정문	-10.3248
지도	-10.3249
▁취미	-10.3249
▁종	-10.3253
▁육수	-10.3254
▁휴식	-10.3261
▁이름으로	-10.3266
▁들어가야	-10.3268
▁받았	-10.327
▁모르니까	-10.3278
▁유통기한이	-10.328
▁진행되는	-10.3281
▁외	-10.3282
▁사정	-10.3302
▁배송지	-10.3312
▁보내드릴	-10.3317
▁왠	-10.3319
▁상당	-10.3319
▁솔직히	-10.3322
▁계산해	-10.3322
▁있다니	-10.3324
▁층에	-10.3325
▁불가합니다	-10.3326
▁주민등록증	-10.3329
▁올라가시면	-10.3332
▁우	-10.3344
▁몰랐네요	-10.3345
▁편의점	-10.3348
▁신상품	-10.3349
▁화려	-10.335
▁열어	-10.3351
▁내는	-10.3354
▁부탁해요	-10.3357
▁동전	-10.3358
▁복도	-10.3358
▁유통기한	-10.3358
▁장기	-10.3359
주셔야	-10.3362
▁수업이	-10.3371
▁잘하고	-10.3375
▁기침	-10.3376
▁듣기	-10.3378
▁없다는	-10.3378
한다면	-10.3381
▁했으니	-10.3382
▁켜	-10.3389
▁번호로	-10.3389
3	-10.3391
▁귀걸이	-10.3392
▁쉬	-10.3392
▁역사	-10.3395
▁됐	-10.3395
더라도	-10.3395
▁좋겠는데요	-10.3396
▁M	-10.3404
▁소	-10.3408
▁시내에	-10.3411
▁확정	-10.3416
한다는	-10.3422
▁연구	-10.3429
▁보여주	-10.3435
▁스티커	-10.3436
▁마리	-10.3439
▁여기서부터	-10.3445
▁번역	-10.3448
칠	-10.3453
▁반대쪽	-10.3454
▁문서	-10.3465
▁토요일에	-10.3483
낼	-10.3487
▁원이	-10.3491
▁저의	-10.3491
하십니까	-10.3493
▁대화	-10.3502
▁한대	-10.3507
▁볶음밥	-10.3509
▁하기로	-10.351
▁본인이	-10.351
▁공장에	-10.3516
▁외부	-10.3517
했는지	-10.353
▁끈	-10.3531
▁자격증	-10.3533
▁울	-10.3545
▁한국어	-10.3552
▁크	-10.3557
팀	-10.3558
▁헤어	-10.3562
▁나야	-10.3563
▁초밥	-10.357
▁기다리는	-10.357
▁단계	-10.3573
▁딸이	-10.3577
▁예약하려고	-10.3578
▁오토바이	-10.3582
▁의류	-10.3583
▁사우나	-10.3583
▁다행이다	-10.3584
▁상세	-10.3584
▁법인카드	-10.3585
▁알기로는	-10.3587
▁났는데	-10.3588
▁고수	-10.3589
▁생겼는데	-10.3589
▁저런	-10.3589
▁세계	-10.359
▁같군요	-10.3592
▁칸	-10.3595
▁피가	-10.36
▁주방	-10.3601
개만	-10.3601
▁힘들었	-10.3603
▁출장이	-10.3611
▁사장님께서	-10.3614
▁걸어가면	-10.3618
▁항공	-10.3626
▁있었나요	-10.363
▁잡으	-10.3639
▁없나	-10.3643
▁몰랐어요	-10.3647
제	-10.3651
▁아파트	-10.3653
들에게	-10.3655
▁시작하는	-10.3659
▁관해서	-10.3665
▁손에	-10.3668
▁몰	-10.3669
▁상태라	-10.3673
▁해드려	-10.3676
▁알았어요	-10.368
▁받으신	-10.3681
▁거기까지	-10.3681
▁소식이	-10.3687
▁구비되어	-10.3697
▁드신	-10.3709
지요	-10.3716
▁넣는	-10.3718
▁숙제	-10.3725
▁취소해야	-10.3741
▁모르	-10.3743
▁가구	-10.3745
▁시설이	-10.3748
▁발행	-10.3751
▁파악	-10.3755
▁만날	-10.376
▁갈아타	-10.3774
▁마시는	-10.3777
▁지하철에서	-10.3779
▁하셨나요	-10.3785
▁것인지	-10.379
▁정말로	-10.3808
▁상태로	-10.3809
▁유	-10.3813
▁드렸는데	-10.3813
▁생기	-10.3815
▁예정이	-10.3816
▁물어보자	-10.3818
▁면허증	-10.3821
▁무상	-10.3824
▁안건	-10.3826
▁뒤쪽	-10.3826
▁신청서	-10.3833
▁했었는데	-10.3837
▁버스에서	-10.384
▁썼	-10.3841
▁빨간	-10.3843
▁깨	-10.3844
▁주문해	-10.3851
▁약국	-10.3852
▁늦지	-10.3853
▁소프트웨어	-10.3853
▁근력	-10.3853
▁쌀	-10.3854
▁고맙습니다	-10.3854
▁찍을	-10.3854
▁가져왔는데	-10.3855
▁맡길	-10.3855
겠다고	-10.3856
▁연결해	-10.3857
▁걱정했는데	-10.3859
▁예정이니	-10.3859
▁리스트	-10.3859
▁일할	-10.3861
▁그분	-10.3862
▁튀김	-10.3862
▁갈아타야	-10.3862
▁돌려	-10.3864
▁제품인데	-10.3864
▁베개	-10.3866
▁하므로	-10.387
▁좋죠	-10.3871
▁결국	-10.3877
▁많으니까	-10.3882
▁과목	-10.3883
▁객실에	-10.3885
▁있겠다	-10.3892
▁생각하지	-10.3893
▁궁금해서	-10.3894
▁연예인들	-10.3899
▁글쎄요	-10.3902
▁돌아오	-10.3906
▁사이트에	-10.3906
금	-10.3908
이지만	-10.3908
▁없었어요	-10.3909
▁늘리	-10.3917
▁드린	-10.3925
볼	-10.3931
▁점심시간에	-10.3932
▁수량이	-10.3936
▁싶으	-10.3949
▁비교	-10.3954
▁받기	-10.3956
▁여분	-10.3956
▁어디까지	-10.3959
▁회의에서	-10.396
자가	-10.3961
▁답변	-10.3963
▁준비할	-10.3966
▁종합	-10.3967
▁번이나	-10.397
▁시쯤	-10.3974
▁되잖아	-10.3982
▁지난주	-10.3988
▁품목	-10.3991
셨으면	-10.3996
▁다르	-10.3996
억	-10.4001
▁지방	-10.4018
▁해주	-10.4023
▁증가	-10.4024
▁거기에서	-10.4033
▁무역	-10.4035
▁환경	-10.4039
▁인력	-10.4039
▁알려드릴	-10.4055
되어서	-10.4055
▁있습니다만	-10.4056
▁오게	-10.4066
▁찍어주실	-10.4073
▁방에서	-10.4081
▁업무에	-10.4083
▁있으십니	-10.4091
▁됐어	-10.4098
▁차는	-10.4105
▁가벼	-10.4109
▁반찬	-10.411
▁말하면	-10.4111
▁냉장고	-10.4111
드	-10.4112
▁적용되	-10.4121
▁창고	-10.4122
▁고객이	-10.4123
▁열쇠	-10.413
▁뒷자리	-10.413
▁어제저녁	-10.413
▁겨우	-10.413
▁목걸이	-10.413
▁양말	-10.413
▁안타깝지만	-10.4131
▁가능하신데	-10.4131
▁포스터	-10.4131
▁불고기	-10.4135
▁어렵지	-10.4135
▁터미널	-10.4138
▁납품	-10.4141
▁규정이	-10.4143
▁드	-10.4144
▁언제든지	-10.4149
▁말씀드릴게요	-10.4151
▁상품에	-10.4152
▁골	-10.4154
▁음식에	-10.4157
▁들었는데요	-10.4157
▁놀	-10.4162
▁걸어야	-10.4165
▁요구	-10.4167
▁보셨나요	-10.417
▁났어요	-10.4171
▁많다고	-10.4175
▁호텔이	-10.4181
▁서울에서	-10.4187
▁겨울에	-10.4187
▁비슷하	-10.419
▁있으신	-10.419
▁퇴근하	-10.4194
▁놀랐어	-10.4194
▁봉투에	-10.42
▁위주	-10.4205
하시려면	-10.4207
▁갔을	-10.4208
▁떠나	-10.4208
▁공항까지	-10.4219
원에	-10.4224
▁은행에서	-10.4225
▁달부터	-10.4225
▁위반	-10.4227
▁익	-10.4254
▁보내야	-10.4256
▁당	-10.4258
▁내일이	-10.426
▁쇼핑몰	-10.426
▁할머니	-10.4263
▁스타일이	-10.4268
▁수속	-10.4278
▁마시면	-10.4284
▁물어보는	-10.4294
▁가시	-10.4304
십시오	-10.4316
m	-10.4326
▁착각	-10.4333
▁귀사	-10.4335
▁시스템이	-10.4342
▁택배로	-10.4344
▁든	-10.4348
런	-10.4349
▁어려워	-10.4351
래요	-10.4363
▁바닥에	-10.4366
▁처음인데	-10.4367
▁잃어버렸는데	-10.437
▁침대가	-10.4371
▁순서	-10.4374
▁얘기해	-10.4383
▁입으	-10.4384
▁가능하십니다	-10.4385
▁커버	-10.4395
▁조립	-10.44
▁아이디	-10.4408
▁어렵고	-10.4415
▁삼겹살	-10.4416
▁특성	-10.4416
▁해드리겠습니다	-10.4416
▁여태	-10.4416
▁유리	-10.4416
▁팔찌	-10.4417
▁무선	-10.4418
▁있으십니까	-10.442
▁정수기	-10.4422
▁받았어	-10.4426
▁직원들에게	-10.4429
▁택배비	-10.4431
주시기	-10.4434
▁진행되고	-10.4444
▁멀지	-10.4445
▁소비자들	-10.4445
▁누르면	-10.4448
▁운영하고	-10.4452
▁맛있는데	-10.4454
▁듣	-10.4455
▁생겼	-10.4458
학년	-10.4465
▁버스에	-10.4466
▁좋아해요	-10.4477
▁뿌리	-10.448
▁오겠습니다	-10.4489
▁배송해	-10.4489
▁도와줄	-10.449
▁아플	-10.4498
▁했지만	-10.4498
▁필수	-10.4509
했나요	-10.4514
해주시기	-10.4519
▁내년	-10.452
▁봤어요	-10.4521
▁필요해서	-10.4537
▁기기	-10.4538
▁먹었	-10.454
시쯤에	-10.4543
▁누워	-10.4544
실래요	-10.4547
▁21	-10.4548
▁사원들	-10.4552
▁주인공	-10.4556
▁시간대	-10.4559
▁과	-10.4562
▁구경하	-10.4563
▁교수님이	-10.4564
▁올게	-10.4565
▁환불해	-10.4565
난	-10.4573
▁손해	-10.4579
▁수정할	-10.4584
▁용량	-10.4591
▁가족들	-10.4601
▁학점	-10.4614
▁나누어	-10.4615
▁증상이	-10.4617
▁독일	-10.462
산	-10.4624
▁알아요	-10.4624
▁그랬	-10.4625
전	-10.4636
▁가득	-10.4639
▁청바지	-10.4646
▁평균	-10.4647
시간이나	-10.4651
▁경쟁사	-10.4651
개씩	-10.4656
되었는지	-10.4667
▁달리	-10.4669
▁있겠어	-10.467
▁비싼데	-10.4675
▁누르	-10.4677
▁사장님께	-10.4679
없이	-10.4683
▁괜찮	-10.4684
▁고객님께	-10.4684
▁취소할	-10.469
▁어려워서	-10.47
▁어떠한	-10.4703
▁괜찮지	-10.4705
▁시럽	-10.4708
▁믿고	-10.471
▁쉴	-10.471
▁즐길	-10.471
▁식후	-10.471
▁김치	-10.4711
▁보증금	-10.4712
▁쉬운	-10.4712
▁인형	-10.4712
▁일하고	-10.4714
▁그랬는데	-10.4715
▁스포츠	-10.4717
▁있으실	-10.472
▁깜빡하고	-10.4721
▁확인해보겠습니다	-10.4722
▁진료비	-10.4724
▁작아서	-10.4726
▁유행하	-10.4733
▁그렇네요	-10.4733
▁목록	-10.4742
▁편입니다	-10.4743
▁운영하는	-10.4747
▁이용권	-10.475
▁가시나요	-10.475
▁능력	-10.4751
▁되세요	-10.4755
▁에어컨이	-10.4757
▁보시	-10.4761
▁갑니다	-10.4765
▁결제하시면	-10.4769
▁여기요	-10.4775
▁하셨어요	-10.4778
▁23	-10.4778
▁강한	-10.4778
▁만나기	-10.4778
▁발이	-10.4786
▁까먹	-10.4794
▁증명서	-10.4798
▁자네	-10.48
정	-10.4811
구	-10.4815
였는데	-10.482
▁건너편에	-10.4828
▁못했어	-10.483
졌어요	-10.4836
▁빠를	-10.484
▁뛰	-10.4843
▁원에	-10.4849
▁끝나서	-10.4849
미	-10.4852
▁예정이라	-10.486
드릴	-10.4868
▁액체	-10.4871
▁시즌	-10.4872
▁잡지	-10.4872
▁해보	-10.4872
▁정류장에	-10.4873
▁따라가	-10.4873
▁팀에	-10.4875
▁신용카드로	-10.4878
친	-10.4879
▁상대	-10.4885
께서	-10.4885
▁동네에	-10.4885
▁줄게	-10.489
▁그래야	-10.4904
▁선수	-10.4904
▁핸드폰으로	-10.4907
▁세워	-10.4908
▁상관이	-10.4909
▁준비하고	-10.4915
▁색상으로	-10.4934
▁완성	-10.4935
▁교통	-10.4936
▁쓰기	-10.4937
▁끊	-10.4942
▁동생이	-10.4949
셨는데	-10.496
▁굽	-10.4974
▁필라테스	-10.4975
▁면세점에	-10.4976
▁일정에	-10.4981
▁내린	-10.4988
▁비타민	-10.4992
▁조건이	-10.4994
▁가게가	-10.4996
▁착용해	-10.5004
▁셋	-10.501
▁블라우스	-10.5013
▁신규	-10.5013
▁속옷	-10.5013
▁당분간	-10.5013
▁괜찮으니	-10.5014
▁즉	-10.5014
▁축하드립니다	-10.5014
▁기차표	-10.5015
▁자연스럽게	-10.5015
▁있으며	-10.5015
▁음주	-10.5017
하긴	-10.5017
▁중심	-10.5018
▁설거지	-10.5023
▁인원수	-10.5023
▁동일한	-10.5024
▁그러세요	-10.5025
▁여긴	-10.5026
▁어렵네요	-10.5027
▁여러분	-10.5027
▁작게	-10.5029
▁되겠다	-10.5029
▁예뻐서	-10.5031
▁괜찮으면	-10.5032
▁부족	-10.5034
▁재킷	-10.5035
▁방수	-10.5038
▁길어서	-10.5038
▁이내로	-10.5039
▁제공하고	-10.5042
▁13	-10.5045
▁30,000	-10.5046
▁내서	-10.5048
▁50,000	-10.5048
▁멈추	-10.5049
▁바꾸려고	-10.5049
▁사기	-10.505
▁와주세요	-10.5054
▁확인했는데	-10.5055
▁중이라서	-10.5061
▁마치고	-10.5067
이어서	-10.5074
▁잡고	-10.5074
▁기운	-10.5082
배	-10.5085
▁전화기	-10.5086
▁화요일에	-10.5094
▁뉴스	-10.5095
▁거잖아	-10.5103
▁신청하면	-10.5114
▁시일	-10.512
▁기간에	-10.5132
▁묻	-10.514
▁구매하는	-10.5141
▁태국	-10.5141
▁바르는	-10.5145
▁해보는	-10.5145
▁걷	-10.5148
▁색으로	-10.515
▁보시는	-10.5152
▁체크	-10.5156
▁생각해보	-10.5158
▁묵	-10.5162
▁품질	-10.5165
▁팀장님이	-10.5174
▁나올까	-10.5174
▁작품이	-10.5188
▁옷들	-10.5191
▁거리에	-10.5195
▁반영	-10.5195
▁지나가	-10.5199
▁노	-10.5203
▁16	-10.5207
▁튀	-10.5209
▁하차	-10.5235
▁이대로	-10.5247
▁놔두	-10.5256
▁옛날에	-10.5256
▁개만	-10.5261
거야	-10.5263
▁느끼	-10.5266
▁맞으	-10.527
▁카레	-10.5274
▁주문서	-10.5276
화	-10.5284
▁깔끔하	-10.5285
▁취직	-10.5286
▁일본어	-10.5293
▁비해	-10.5298
▁될지	-10.5304
▁타입	-10.5307
▁바라	-10.5307
▁못하고	-10.5308
▁만난	-10.5311
▁떨어져서	-10.5312
▁미만	-10.532
▁늦어서	-10.5322
▁어두운	-10.5323
▁해지	-10.5325
▁저렇게	-10.5326
▁그러셨군요	-10.5326
▁화이트	-10.5326
▁음식물	-10.5327
▁돈가스	-10.5327
▁번호표	-10.5328
▁착오	-10.5329
▁있어도	-10.533
▁기다리세요	-10.5336
▁라인	-10.5336
▁출장에	-10.5337
▁잘됐네요	-10.5337
▁모르지만	-10.5337
▁성과	-10.5339
납니다	-10.534
▁확실하지	-10.534
▁어떠	-10.534
▁받았습니다	-10.534
▁애플리케이션	-10.5346
▁제출해야	-10.5349
▁안쪽	-10.5351
▁드려야	-10.5356
▁미루	-10.536
▁구할	-10.5367
▁괜찮고	-10.537
트	-10.5374
▁상한	-10.5379
▁강	-10.5386
▁정부	-10.5386
▁컴퓨터에	-10.5389
▁찾아보고	-10.539
▁부탁해	-10.539
▁견적서	-10.5392
▁재미있는	-10.5401
▁많다	-10.5408
▁택시비	-10.5412
▁법	-10.5417
▁자리에서	-10.5421
▁입구에서	-10.5422
▁늦어질	-10.5425
▁문제라도	-10.5427
▁나라에서	-10.5428
▁타기	-10.5441
▁도착하지	-10.5443
▁발급받	-10.5445
▁불가	-10.5447
▁일하는	-10.5453
▁높이	-10.5458
▁대회	-10.5463
▁계산서	-10.5469
▁못하는	-10.5472
▁지도에	-10.5482
▁일도	-10.5487
▁내시면	-10.5489
줘	-10.5493
▁캐릭터	-10.5497
▁어제부터	-10.5504
▁보내주	-10.5506
▁떨어진	-10.5511
▁긍정적	-10.5511
▁터	-10.5514
▁요청한	-10.5518
▁불편하	-10.5522
▁토	-10.5524
므로	-10.5527
▁가격표	-10.553
▁아기들	-10.5536
▁잊	-10.5539
시다	-10.5539
▁찜질	-10.5545
하십니다	-10.5548
▁업체에	-10.5552
▁품절	-10.5556
▁세트에	-10.5565
해주셔야	-10.5578
▁대표님	-10.5594
▁간이	-10.5598
▁이륙	-10.5601
▁냉동	-10.5605
▁있으	-10.5614
▁흡연	-10.5623
▁숟가락	-10.5632
▁운송	-10.5638
된다고	-10.5648
▁눈썹	-10.5648
▁얼룩	-10.5648
km	-10.5648
▁공항버스	-10.5649
▁있었나	-10.5649
▁녹차	-10.565
▁좋아할	-10.5651
▁두피	-10.5652
▁바뀌어서	-10.5654
▁듣기로는	-10.5655
▁찾아보자	-10.5655
▁심각한	-10.5658
▁물어보세요	-10.5663
▁복지	-10.5665
▁승진	-10.5665
▁다르지만	-10.5668
▁되었나	-10.5668
▁감소	-10.5671
▁장비	-10.5671
▁있겠습니다	-10.5674
▁보실	-10.5676
▁국물	-10.5677
▁방식으로	-10.5678
▁편해	-10.5679
▁말한	-10.5682
▁사람한테	-10.5683
▁공유	-10.569
▁지속	-10.5691
하셨습니다	-10.5691
▁맞으면	-10.5693
▁사람인데	-10.5693
▁먼지	-10.5695
▁소문이	-10.5695
▁필요하시면	-10.57
▁했고	-10.5701
▁받았어요	-10.5702
하네요	-10.5703
▁S	-10.5704
▁해드리고	-10.5705
▁대단하다	-10.5711
▁도서	-10.5712
▁해볼게요	-10.5714
하셨는지	-10.5715
▁손이	-10.572
▁늦게까지	-10.5726
▁오픈	-10.5729
▁봐주세요	-10.5733
▁나오게	-10.5739
▁명함	-10.574
▁좁	-10.5742
▁해야지	-10.5744
▁아닐까요	-10.5747
▁목요일에	-10.5747
▁업그레이드	-10.5748
▁잃어버리	-10.575
▁집까지	-10.575
▁좋을지	-10.575
▁머리카락이	-10.5753
▁내용은	-10.5756
▁그림이	-10.5761
▁바쁜	-10.5768
▁지출	-10.5771
▁시에는	-10.5775
▁방해	-10.5778
동	-10.5778
▁등산	-10.5779
루	-10.5779
▁가격대	-10.5782
▁나누	-10.5785
▁통로	-10.5789
▁남아서	-10.5805
▁하도	-10.581
▁계산을	-10.5823
▁지점	-10.5825
▁밀	-10.5826
형	-10.5826
▁19	-10.583
▁일이야	-10.583
▁고마워요	-10.5833
▁지각하	-10.5841
▁거냐	-10.5843
▁추	-10.5848
▁손상	-10.5849
▁뽑	-10.5865
▁스케줄	-10.5868
▁따라오	-10.588
어도	-10.5883
▁실내	-10.5887
▁식	-10.5891
▁유료	-10.5891
▁부산에	-10.5892
▁간호사	-10.5893
▁미술	-10.5896
▁영화에	-10.5901
▁확	-10.5908
▁경력	-10.5909
용으로	-10.5909
▁내용에	-10.5912
▁석	-10.5913
'	-10.5915
▁누	-10.5915
▁커플	-10.5919
▁업계	-10.5926
따라	-10.5926
▁저야	-10.5931
▁차감	-10.5933
▁합	-10.594
▁내일모레	-10.594
▁겸	-10.5944
▁어려운데	-10.5946
▁부모님께	-10.5949
▁구워	-10.5959
▁떼	-10.5962
▁없을까	-10.5963
▁300	-10.5971
▁주문해서	-10.5971
▁남겨	-10.5972
▁제공되	-10.5972
▁배우는	-10.5974
▁증빙	-10.5982
▁콧물	-10.5982
▁오빠	-10.5982
▁인테리어	-10.5982
▁그러시다면	-10.5982
▁동영상	-10.5982
▁통신사	-10.5982
▁반갑습니다	-10.5982
▁미안한데	-10.5982
▁119	-10.5983
▁회장님	-10.5985
▁상대방	-10.5985
▁입장권	-10.5988
▁출장에서	-10.5988
▁IT	-10.5992
▁한도	-10.5993
▁물론이지	-10.5993
▁무인	-10.5993
▁도착했는데	-10.5998
▁필요하다고	-10.6
▁손톱	-10.6007
▁들러	-10.6009
셨던	-10.601
▁팀원	-10.601
▁해봐	-10.6016
주일	-10.6016
▁해봤는데	-10.6018
▁시간까지	-10.6018
▁추천합니다	-10.602
▁얼마인지	-10.6021
▁그러시는	-10.6023
▁접	-10.6027
자고	-10.6029
▁화면이	-10.6033
▁보내주신	-10.6033
▁그쪽에	-10.6034
▁가능하면	-10.6036
▁주시는	-10.6039
▁박람회	-10.6044
▁경력이	-10.6044
하려고요	-10.6044
▁이유로	-10.6046
▁써보	-10.6046
▁귀	-10.6051
▁그쪽에서	-10.6051
▁않나	-10.6053
▁역이	-10.6055
▁반납하	-10.6056
▁요청하신	-10.6057
▁하라고	-10.6057
▁맛있을	-10.6058
▁어떡해요	-10.6059
▁시작하기	-10.6074
▁공기	-10.6074
▁옵션	-10.6074
▁나은	-10.6094
봅시다	-10.6097
▁성장	-10.6102
▁미팅이	-10.6105
▁정상	-10.6112
▁수당	-10.6113
▁기사님께	-10.6118
▁삼	-10.612
▁테스트	-10.6127
▁70	-10.6138
▁오셨나	-10.6139
영	-10.6141
▁아니지	-10.6143
▁끼	-10.6145
▁세우	-10.6146
▁매니저님	-10.6149
하다	-10.6152
▁되기	-10.6158
▁아닌지	-10.616
봤는데	-10.6163
▁통역	-10.6164
▁비행기로	-10.6171
하던	-10.6174
▁상사	-10.6176
▁캐리어	-10.6179
▁배우들	-10.6179
▁약국이	-10.619
▁읽어	-10.6195
▁힘들지	-10.6196
▁생	-10.6207
▁취	-10.621
▁올라오	-10.6211
▁마련	-10.6213
▁보내면	-10.6213
사이즈	-10.6218
▁친절	-10.6224
▁마트	-10.6228
▁구경	-10.6229
▁납부	-10.6238
▁모집	-10.6241
▁명의	-10.6241
▁협업	-10.6253
▁출퇴근	-10.6263
▁연예인이	-10.6264
▁관계	-10.6267
▁호	-10.6272
▁항목	-10.6275
했거든요	-10.628
▁무서워	-10.6284
분까지	-10.6288
▁시킬	-10.6291
▁났어	-10.6292
▁세부	-10.63
▁가깝	-10.6301
▁닭	-10.6303
▁짜증	-10.6306
불	-10.6309
▁있더라	-10.6311
▁명단	-10.6314
▁기다릴	-10.6317
▁젓가락	-10.6317
▁차서	-10.6319
▁국제	-10.632
▁아닐	-10.6321
▁가져다드릴	-10.6324
▁견과류	-10.6326
▁빨래	-10.6326
▁스피커	-10.6326
▁즉석	-10.6327
▁버거	-10.6327
▁부채	-10.6327
▁어려움	-10.6327
▁가운데	-10.6328
▁전액	-10.6328
▁보라색	-10.6328
▁치마	-10.6329
▁보냈는데	-10.6329
▁다행이야	-10.633
▁가져갈	-10.633
볼게요	-10.633
▁정품	-10.6333
▁시안	-10.6333
▁낮에	-10.6335
▁소개해	-10.6335
▁국수	-10.6336
개로	-10.6337
▁않았으면	-10.6338
▁지원하	-10.6339
▁알림	-10.6339
▁분께	-10.634
▁재미있게	-10.634
▁평소보다	-10.634
▁비품	-10.6343
▁진단서	-10.6347
▁만들어진	-10.6347
▁단속	-10.6347
▁사진으로	-10.6349
▁계셔서	-10.6349
▁드셔야	-10.6358
▁박스에	-10.6365
▁전자	-10.6366
▁용도	-10.6366
▁흔들리	-10.6368
▁관광지	-10.6369
▁언제든	-10.6371
▁뛰어	-10.6373
▁복사	-10.6374
▁냉장고에	-10.6377
▁학생이	-10.6391
▁전환	-10.6391
▁물감	-10.6392
▁해본	-10.6392
▁통장	-10.6395
▁환급	-10.6399
▁뒤에서	-10.6404
▁인터뷰	-10.6405
▁수박	-10.641
▁들어오면	-10.6412
▁도착해서	-10.6413
▁만들고	-10.6415
▁일요일에	-10.6416
▁몰라요	-10.6416
▁버전	-10.6419
▁시작해서	-10.6432
명으로	-10.6432
▁아프고	-10.6433
▁전기	-10.6435
▁했을	-10.644
▁역에	-10.6441
▁동시	-10.6445
▁들어있	-10.6445
▁가루	-10.6455
▁가르쳐	-10.646
▁귀찮	-10.6464
▁해주시겠어요	-10.6474
▁상상	-10.6476
▁영	-10.6476
▁성분	-10.6481
▁업체에서	-10.6482
▁재입고	-10.6484
▁차질	-10.6487
▁다이어트에	-10.6489
▁안쪽에	-10.6495
▁봉지	-10.6501
▁입에	-10.6508
▁편이라	-10.6508
▁안경	-10.6522
▁종료	-10.6524
▁갈아	-10.6526
▁꼼꼼하	-10.6527
들과	-10.6531
갑니다	-10.6535
한데	-10.6536
▁희망	-10.6537
▁방문할	-10.6537
▁계속해서	-10.6538
▁궁금해	-10.6539
려	-10.654
▁늦으	-10.6541
▁과장님이	-10.6543
▁학기에	-10.6547
▁저희에게	-10.6549
▁정산	-10.655
▁합의	-10.6551
해주시겠어요	-10.6554
량	-10.6554
▁남편이	-10.6554
▁돌아	-10.6559
기만	-10.6561
▁14	-10.6563
▁화장품이	-10.6579
▁낸	-10.6579
▁유행	-10.6584
▁벗	-10.6592
▁말인데	-10.6597
▁프린터	-10.66
▁논문	-10.6618
▁수치	-10.662
▁솜	-10.6622
▁제품과	-10.6624
바로	-10.663
마리	-10.6631
▁무릎	-10.6634
▁단발	-10.6634
▁먹어요	-10.6635
▁마찬가지	-10.6649
▁즐거	-10.665
시가	-10.6658
▁쪽이	-10.6663
▁출근하	-10.6663
셨는지	-10.6666
▁비어	-10.6666
▁주문하시	-10.6666
▁카페에	-10.6667
▁신어보	-10.6667
▁멀미	-10.6669
하	-10.6673
▁실례	-10.6675
▁평일에	-10.6675
▁가봐야	-10.6676
▁출석	-10.6678
▁면접이	-10.6682
▁짠	-10.6684
▁모닝콜	-10.6684
▁복근	-10.6684
▁쿠키	-10.6684
▁진작	-10.6684
▁포크	-10.6684
▁초등학교	-10.6684
▁교재	-10.6684
▁정말요	-10.6684
▁괜찮으시다면	-10.6684
▁매달	-10.6685
▁눈치	-10.6686
▁비행기표	-10.6687
▁몰랐습니다	-10.6687
▁버섯	-10.6688
었나요	-10.669
▁나름	-10.6692
▁밥이	-10.6694
▁내려가시면	-10.6699
▁찌개	-10.6699
▁보군요	-10.6699
▁막혀서	-10.67
▁한복	-10.6702
▁금	-10.6702
▁글자	-10.6703
▁계시나	-10.6706
▁반송	-10.6706
▁가능합니	-10.6706
▁들어가셔서	-10.6707
▁일행이	-10.671
▁볼까	-10.6714
▁찍으면	-10.6715
▁C	-10.6715
▁저렴하고	-10.6717
▁많았어	-10.6717
▁해변	-10.6717
▁선생님께서	-10.6717
▁다니면	-10.6717
▁20,000	-10.6726
▁좋았을	-10.6726
▁보내준	-10.673
▁맞추	-10.6733
력이	-10.6735
▁방법으로	-10.6735
▁전철	-10.6738
▁들었	-10.6741
▁우리나라에서	-10.6741
됐어요	-10.6745
▁앱으로	-10.6751
▁번거롭	-10.6753
▁음	-10.6754
미처	-10.6754
▁이동할	-10.6755
▁계열	-10.6757
하죠	-10.6759
▁모델이	-10.6761
▁들어와	-10.6768
▁결정하	-10.6769
가지	-10.6771
▁인수인계	-10.6772
▁동의	-10.6776
▁경	-10.6777
▁달라요	-10.6781
▁보이고	-10.6782
▁남성	-10.679
▁시켜서	-10.6793
▁우편	-10.6794
▁상황인데	-10.6795
▁이러	-10.6803
▁밝	-10.6808
▁입학	-10.6812
▁거고	-10.6814
더라고	-10.6816
▁날짜로	-10.6816
▁골목	-10.6819
▁신청하고	-10.682
▁쉽	-10.682
▁입사한	-10.6823
▁해달라고	-10.6831
▁선정	-10.6833
▁불량	-10.6839
▁기억에	-10.6844
▁지나가는	-10.685
▁줄래	-10.6852
▁예정인	-10.6854
▁조심해	-10.6855
▁물어볼	-10.6858
▁백화점에	-10.6864
▁수업에	-10.6867
▁에센스	-10.6873
▁박물관에	-10.6873
▁오르	-10.6879
법	-10.6884
▁풀어	-10.6885
▁중앙	-10.689
하시기	-10.6892
▁지난달	-10.6903
▁기초	-10.6904
깐	-10.6905
▁다녔	-10.6908
▁말씀드리	-10.6912
▁상자에	-10.6919
아서	-10.692
▁받아보	-10.692
▁뜨	-10.6922
▁로비	-10.6922
▁날짜에	-10.6933
▁편의점이	-10.6935
▁수강	-10.6936
▁네일	-10.6937
▁주문은	-10.6937
▁상승	-10.6937
▁들리	-10.6939
▁국	-10.6939
▁발생하	-10.694
▁야근이	-10.6941
겠네	-10.6942
▁챙기	-10.6947
▁인증	-10.6951
▁수액	-10.6955
▁조치	-10.6959
▁영업부	-10.6968
▁조심해야	-10.6968
딜	-10.6969
▁결제하고	-10.6977
▁해주시	-10.6978
으며	-10.6991
▁뉴욕	-10.6994
▁찾아오	-10.6998
▁구입하	-10.6999
▁줄여	-10.7006
종일	-10.701
▁갈색	-10.7012
▁큰일이네	-10.7012
▁아픈데	-10.7014
원이에요	-10.7016
▁선생님께	-10.7022
▁쓰실	-10.7024
▁생각하는데	-10.7031
초	-10.7037
▁선배	-10.7041
▁출입	-10.7046
▁이상해	-10.7047
▁식탁	-10.7047
▁농구	-10.7054
▁CCTV	-10.7054
▁숫자	-10.7054
▁시끄럽	-10.7054
▁특정	-10.7054
▁묶어	-10.7054
▁슬리퍼	-10.7054
▁여기저기	-10.7054
▁단추	-10.7054
▁해열제	-10.7054
▁상반기	-10.7054
▁연속	-10.7054
▁보람	-10.7054
▁변심	-10.7054
▁싫은데	-10.7055
분은	-10.7055
▁신기하다	-10.7056
▁알았으면	-10.7057
▁재무제표	-10.7057
▁양고기	-10.7061
▁그러니	-10.7061
▁배울	-10.7063
▁차장님	-10.7065
▁부탁할게요	-10.7066
▁편이에요	-10.7066
▁없으시면	-10.7069
▁어쩌	-10.7069
▁보여드릴게요	-10.7071
▁찾겠어요	-10.7071
▁비싸네요	-10.7072
▁임시	-10.7073
▁출력해	-10.7077
하였는데	-10.7081
▁나왔어	-10.7081
▁측정	-10.7083
▁병동	-10.7086
▁바구니	-10.7087
▁외에는	-10.7087
▁하거든요	-10.7087
▁들어오지	-10.7088
▁이외에	-10.7092
▁좋아하	-10.7093
▁채로	-10.7095
▁보조	-10.7095
▁적혀있는	-10.7096
▁찍어주세요	-10.7096
년간	-10.7098
▁타려고	-10.7101
▁제공하는	-10.7101
▁받으려고	-10.7104
▁사람에게	-10.7106
▁있겠어요	-10.7116
▁포함해	-10.712
▁끝내고	-10.7122
▁깜빡	-10.7123
▁응원	-10.7123
▁세미나	-10.7124
▁방식	-10.7137
▁지원한	-10.7141
분기	-10.7143
원인데	-10.7143
▁팁	-10.7144
▁생각하	-10.7146
▁단지	-10.7148
둘	-10.715
▁드시	-10.7151
석	-10.7156
▁도착한	-10.7156
▁콘퍼런스	-10.7156
▁크지	-10.7164
▁불만	-10.7167
▁접시	-10.7168
▁참석하	-10.7171
▁주의하	-10.7171
▁무대	-10.7177
▁안됩니다	-10.7184
▁들어보	-10.7185
▁별로야	-10.7186
▁앞쪽에	-10.7191
▁질문이	-10.7202
▁예약해야	-10.7203
▁즐기	-10.7204
▁맞아서	-10.7205
▁채	-10.7207
▁준비한	-10.7213
▁움직이	-10.7216
▁판	-10.7217
▁성공	-10.7217
▁있으시	-10.7219
▁아들	-10.7219
▁실력이	-10.7225
▁늦어지	-10.7244
겠는데요	-10.7249
▁건물에	-10.725
▁진정	-10.7251
▁호텔까지	-10.7257
▁어떤지	-10.7273
▁비행	-10.7276
▁말하고	-10.7277
▁묵으	-10.7285
거에요	-10.7287
▁놀이공원	-10.7291
▁싫	-10.7292
▁숨	-10.7316
▁주인공이	-10.7318
표	-10.7318
▁바람이	-10.7324
▁보게	-10.7331
▁구역	-10.7331
이므로	-10.7335
▁버리	-10.7347
분이나	-10.735
▁취향	-10.7352
▁가입하	-10.7353
▁입는	-10.736
▁예쁘	-10.7367
▁수정이	-10.7367
▁선물할	-10.7368
▁상관없으니	-10.7372
▁지하철에	-10.7373
▁어묵	-10.7377
▁했는데요	-10.7379
▁사실은	-10.7385
▁구매해야	-10.7387
▁개설	-10.7388
▁싶으신	-10.7392
▁결제한	-10.7392
▁사주	-10.7394
▁응원하	-10.7395
▁불법	-10.7396
▁얇	-10.7397
▁아니었어	-10.7399
▁통관	-10.74
▁궁금한데	-10.74
▁않네	-10.7408
▁지금이라	-10.7409
▁숙소에	-10.7411
▁팝콘	-10.7413
였어요	-10.742
▁연애	-10.7426
▁경우에	-10.7427
▁그것보다	-10.7431
▁목적지에	-10.7437
▁마스크	-10.7438
▁대단한	-10.7438
▁모바일	-10.7439
▁믿기	-10.7439
▁속눈썹	-10.7439
▁계좌이체	-10.7439
▁스마트폰	-10.7439
▁원산지	-10.7439
▁선글라스	-10.7439
큽	-10.7439
▁비쌀	-10.7439
▁항생제	-10.7439
▁김치찌개	-10.7439
▁욕조	-10.7439
▁미룰	-10.7439
▁맞출	-10.7439
▁파스	-10.744
▁댁	-10.744
▁그저께	-10.7441
▁계정	-10.7441
▁나오기	-10.7442
▁지불해야	-10.7442
▁칫솔	-10.7443
▁급여	-10.7443
▁벌레	-10.7444
▁만두	-10.7444
▁손목	-10.7445
▁그러자	-10.7446
▁대금	-10.7448
▁단품	-10.7448
▁분류	-10.7449
▁교통비	-10.745
▁김밥	-10.745
▁영화관	-10.7451
▁하잖아	-10.7455
▁패키지	-10.7456
▁뭐예요	-10.746
▁우대	-10.7463
▁찬	-10.7464
▁괜찮은가요	-10.7465
▁유학	-10.7466
▁주지	-10.7467
되었네요	-10.7467
▁올릴	-10.7469
▁해주시는	-10.747
▁괜찮다고	-10.7474
▁편의점에서	-10.7481
▁하더니	-10.7481
▁뭐든	-10.7482
▁쓰시면	-10.7482
▁알약	-10.7484
▁안주	-10.7485
▁큰일이네요	-10.7485
▁출장비	-10.7486
▁열리는	-10.7487
▁매운맛	-10.7489
▁아무거나	-10.7492
▁사지	-10.7492
▁넉넉하	-10.7494
▁고소	-10.7495
▁영국	-10.7496
▁선택할	-10.7497
▁굴	-10.7506
▁오니까	-10.7507
▁상황입니다	-10.751
▁동일	-10.7519
▁포장해주세요	-10.7521
▁가신	-10.7523
▁개봉	-10.7523
▁말이지	-10.7524
▁그만두	-10.7526
▁파리	-10.7526
▁환전이	-10.7528
킬로	-10.7531
▁걸어가야	-10.7535
▁충분할	-10.7538
▁찾으면	-10.7539
▁칭찬	-10.7544
▁할인하는	-10.7544
▁운동하는	-10.7546
드리면	-10.7559
▁정차	-10.7563
▁생각한	-10.7574
▁기다려봐	-10.7584
▁주머니에	-10.7589
장이	-10.7593
▁부담이	-10.7593
▁서서	-10.7594
▁지하에	-10.7594
▁찾아야	-10.761
▁중고	-10.7617
▁넘는	-10.762
류	-10.7621
물	-10.7625
▁처방전	-10.7631
▁한식	-10.7639
▁디자이너	-10.7645
▁쿠폰이	-10.7653
▁놓으	-10.7676
▁설명서	-10.7678
▁제시간	-10.7684
급	-10.7685
▁기계에	-10.7686
▁L	-10.7687
▁것과	-10.7696
▁성격	-10.7701
▁애가	-10.7704
▁판매할	-10.771
되어야	-10.7712
층이	-10.7714
더	-10.7715
▁돌아오는	-10.7715
▁장애인	-10.7731
했기	-10.7732
▁추천해주실	-10.7732
▁방학	-10.7738
▁진심	-10.774
▁전이라	-10.7751
▁발전	-10.7763
기에	-10.7765
▁작가님	-10.7766
▁동물원	-10.7769
▁점심에	-10.7772
▁고려	-10.7772
▁측	-10.7773
▁대응	-10.7773
▁되지만	-10.7774
▁아들이	-10.7775
▁아니라고	-10.778
▁자녀	-10.7782
▁창구	-10.7783
▁되어있는	-10.7798
▁식단	-10.7804
▁생겨	-10.7805
▁없던데	-10.7807
▁리조트	-10.7807
▁그렇고	-10.7807
▁경영	-10.781
▁의자에	-10.7814
▁계획이	-10.7823
▁꿈	-10.7826
▁늘어나	-10.7828
▁은행이	-10.7836
▁절반	-10.7838
▁면허	-10.7839
▁교통수단	-10.7839
▁안타깝게도	-10.7839
▁빈자리	-10.7839
▁스스	-10.7839
▁소파	-10.7839
해줄	-10.7839
▁공식	-10.7839
▁수유실	-10.784
▁노선이	-10.784
▁걱정되네요	-10.784
▁렌즈	-10.784
▁가능하신가요	-10.7841
▁리필	-10.7841
▁계란	-10.7841
▁협의	-10.7841
▁구매하	-10.7842
▁예정되어	-10.7842
▁적당히	-10.7844
▁사료	-10.7844
▁컬러	-10.7844
▁소송	-10.7845
▁호흡	-10.7845
▁확실하게	-10.7846
▁남아있습니다	-10.7847
▁봐봐	-10.7849
▁노력하겠습니다	-10.7849
▁넘어	-10.785
▁춤	-10.7851
해드립니다	-10.7851
▁배차	-10.7855
▁느껴져	-10.7856
▁부를	-10.7857
▁손가락	-10.7857
▁망	-10.7858
▁있었네요	-10.7859
▁보는데	-10.7859
▁편안한	-10.786
▁나무	-10.7861
▁교수님께서	-10.7865
▁남아있지	-10.7865
▁가치	-10.7867
▁관련하여	-10.7868
하니	-10.7872
▁했더니	-10.7874
▁신선한	-10.7875
▁좋아하시는	-10.7879
▁시작하면	-10.7882
▁시대	-10.7883
▁제출해	-10.7884
까진	-10.7885
▁그러네요	-10.7886
▁드리려고	-10.7891
▁했으니까	-10.7893
▁경비실에	-10.7895
▁말이에요	-10.7898
▁아파	-10.7901
▁친구들과	-10.7902
▁구경하고	-10.7904
▁그곳에	-10.791
하시겠습니까	-10.791
연	-10.7913
▁추가됩니다	-10.7915
▁감기약	-10.792
▁제공되는	-10.7921
▁처리할	-10.7922
▁이리	-10.7925
▁의외	-10.7928
▁대만	-10.7937
았는데	-10.794
▁빠져	-10.7944
때	-10.7945
하거나	-10.7949
▁따뜻하	-10.7951
▁있잖아요	-10.7952
▁작	-10.7952
▁시장에	-10.7953
처	-10.7954
▁유튜브	-10.7955
▁출산	-10.7956
▁나아	-10.7958
주신	-10.7958
▁해볼까	-10.7959
▁내부에	-10.796
▁필요하지	-10.796
▁신청할	-10.7974
▁성공적	-10.7975
▁넓	-10.7977
▁메모	-10.7982
▁카페인	-10.7982
▁사거리	-10.7983
색	-10.7987
▁땅콩	-10.799
▁맞으시	-10.7992
▁거군요	-10.7993
▁경제	-10.7995
▁일인데	-10.8002
▁동안에	-10.8007
▁페이지	-10.8011
▁주문해야	-10.8014
통	-10.8014
으셔야	-10.8014
▁신청하려고	-10.8016
▁있고요	-10.8017
▁아동	-10.802
▁시행	-10.8024
▁장만	-10.8027
▁앨범	-10.8029
▁갈까요	-10.803
▁친	-10.8033
벌	-10.8041
▁여권이	-10.8042
▁주소지	-10.8045
▁끝이	-10.8052
▁돌리	-10.8056
▁옷에	-10.806
▁작품들	-10.8064
▁걷기	-10.8065
일간	-10.8067
▁물어	-10.8068
성이	-10.8074
볼까요	-10.8076
▁논의	-10.8076
▁부분에서	-10.8089
▁생각입니다	-10.809
▁잠이	-10.8092
▁올까	-10.8093
▁과정	-10.8093
▁설문조사	-10.8098
▁가져올	-10.8102
▁재질	-10.8104
▁걸린	-10.8104
▁틀어	-10.8109
▁겨울	-10.811
▁차량이	-10.811
▁어린아이	-10.8111
이죠	-10.8111
▁좋아지	-10.8111
▁잃어버렸	-10.8114
▁프린트	-10.8115
▁정해야	-10.8116
▁성함이	-10.8116
시려면	-10.8122
자는	-10.8124
▁것이니	-10.8127
▁말해줘	-10.8131
▁가자고	-10.8143
▁보내고	-10.8146
▁불가능한	-10.8154
▁유통	-10.8154
▁추가할	-10.8157
▁설명이	-10.8158
▁전날	-10.8158
▁방향이	-10.816
▁드라마에	-10.8172
▁참가	-10.8173
▁테이블에	-10.8174
▁할인율	-10.8174
▁수익	-10.8177
▁오프라인	-10.8178
▁못해	-10.8178
듭니다	-10.8188
▁기한이	-10.8194
될까요	-10.8196
▁고치	-10.8199
▁발주	-10.82
▁진행되	-10.8201
▁추가하고	-10.8202
▁어린	-10.8209
▁손님들	-10.8216
바구니에	-10.8216
▁사원증	-10.8218
▁힘든데	-10.822
▁좋네	-10.8226
▁되는데요	-10.8231
터	-10.8231
▁되네	-10.8232
▁너만	-10.8235
▁떨어졌	-10.8235
▁준비하는	-10.8235
▁일일	-10.8236
▁선크림	-10.8239
▁재무	-10.8245
▁확인한	-10.8247
▁포기	-10.8248
▁흥미	-10.825
▁늦는	-10.8252
▁올림픽	-10.8253
▁겹치	-10.8255
▁마카롱	-10.8255
▁몸무게	-10.8255
▁묶음	-10.8255
▁벽에	-10.8255
▁탄산음료	-10.8255
▁향신료	-10.8255
쌉	-10.8255
▁우측	-10.8255
mL	-10.8256
▁하필	-10.8256
▁팩스	-10.8256
▁생수	-10.8257
▁매트	-10.8258
▁섞어	-10.826
▁주의사항	-10.8261
▁불가능해요	-10.8261
▁얼마든지	-10.8261
▁완료되었습니다	-10.8261
▁사이드	-10.8261
▁장난	-10.8262
▁예의	-10.8263
▁작동하지	-10.8263
▁않으셨나요	-10.8264
▁주류	-10.8264
▁지인	-10.827
▁않습니까	-10.827
▁뚜껑	-10.827
▁확인해볼게요	-10.8272
▁내리는	-10.8273
▁부장님이	-10.8278
▁경유	-10.8279
▁드네요	-10.8279
▁연락드렸	-10.828
▁신청했는데	-10.8282
▁실험	-10.8284
▁말할	-10.8286
▁피곤해서	-10.8289
▁보신	-10.829
▁경우엔	-10.8291
▁과정에서	-10.8293
▁추운	-10.8294
▁음식들	-10.8295
▁나아지	-10.8295
▁칼	-10.8299
▁막히는	-10.8301
▁아프다	-10.8302
▁17	-10.8307
▁가리	-10.8308
▁친구에게	-10.8308
▁운전하는	-10.8309
▁샀어	-10.8312
▁선물하려고	-10.8314
▁금요일까지	-10.8315
▁환불받	-10.8315
▁자르	-10.8318
▁현지에서	-10.8322
▁힘들다	-10.8323
▁비싸지	-10.8324
▁환승하는	-10.8325
▁다름	-10.8333
▁제안서	-10.8338
▁잡을	-10.8339
▁입어봐	-10.834
▁계시는가	-10.8342
▁만들기	-10.8346
▁예약금	-10.8348
▁일본에서	-10.835
▁착륙	-10.8353
▁맡아	-10.8354
셨습니까	-10.8358
▁장면	-10.8359
▁부치	-10.8361
▁속에	-10.8361
▁되어있어	-10.8365
▁휴대폰으로	-10.8372
▁강도	-10.8383
▁위로	-10.8389
▁올라가면	-10.8393
▁더운	-10.84
▁외국에	-10.8408
▁중이라고	-10.8411
▁스타일로	-10.8412
▁상품권	-10.8413
▁들려	-10.8415
▁서버	-10.8422
▁자료들	-10.843
▁소요될	-10.8434
▁아니니까	-10.8437
▁증정	-10.8439
▁누락	-10.8441
▁경찰에	-10.8444
▁옮길	-10.845
▁출발할	-10.8456
▁탈의실에	-10.8461
할까	-10.8465
▁먹으면서	-10.8468
▁센터에	-10.8472
▁택배사	-10.8479
거	-10.8482
▁계신가	-10.8484
여	-10.8488
▁택배사에	-10.849
▁입학식	-10.8491
▁외출	-10.8492
▁탈의실이	-10.8499
▁지역에	-10.8507
▁남기	-10.8507
▁유명하	-10.8509
▁지갑이	-10.8512
았던	-10.8515
▁남아있	-10.8521
▁잡는	-10.8523
▁종이가	-10.8524
군	-10.8525
후	-10.8525
▁진출	-10.8538
▁신고서	-10.8538
▁아름다	-10.8541
▁볼게	-10.8544
▁소화	-10.8545
▁맛집	-10.8551
▁한국으로	-10.8555
▁보호	-10.8563
▁있을게	-10.8563
▁입술	-10.8565
▁환전해	-10.8567
▁나오는지	-10.8568
▁조각	-10.8571
올	-10.8573
▁외에도	-10.8578
▁건에	-10.8585
▁전달하	-10.8589
▁세탁기	-10.8606
▁시기	-10.8607
▁바뀌었	-10.8607
해줘	-10.8608
▁있겠지	-10.8615
D	-10.8621
▁버스정류장이	-10.8622
▁임신	-10.8623
▁난다	-10.8623
알	-10.8625
▁250	-10.8626
▁빨라	-10.8626
▁한국의	-10.8633
하셨는데	-10.8635
▁취소해	-10.8638
▁할아버지	-10.864
▁정하는	-10.8643
▁지폐	-10.8644
▁어땠어	-10.8647
▁오이	-10.8648
▁남았어	-10.865
▁보이네	-10.8653
▁팀장님께	-10.8659
▁돈으로	-10.8666
▁말씀드릴	-10.8666
▁리	-10.8668
▁분들께	-10.8673
▁이야기해	-10.8676
었다고	-10.8683
▁삼성	-10.8684
▁F	-10.8686
▁알려줄게	-10.8687
▁법이	-10.8689
젠	-10.869
▁머릿결	-10.869
▁브러시	-10.869
▁오징어	-10.869
▁특수	-10.869
▁프로모션	-10.869
▁플라스틱	-10.869
▁성능	-10.869
▁야경	-10.869
▁멤버십	-10.869
▁파워포인트	-10.869
▁비누	-10.869
▁액체류	-10.869
▁없으세요	-10.869
▁기대된다	-10.8691
▁긴급	-10.8691
▁유아	-10.8691
▁다녀왔는데	-10.8692
▁사례	-10.8692
▁신호등	-10.8692
▁그러시죠	-10.8693
▁하늘색	-10.8693
▁이제부터	-10.8693
▁확답	-10.8694
▁팔리	-10.8694
학	-10.8694
▁출입증	-10.8695
▁아쉽다	-10.8695
▁계좌번호	-10.8696
▁그전에	-10.8698
▁예방	-10.8699
▁나갔다	-10.8699
▁있다던데	-10.87
▁팔아	-10.8702
▁듯한데	-10.8703
▁추워서	-10.8706
▁확실한	-10.871
▁중요	-10.8711
▁도와주세요	-10.8712
▁새것	-10.8712
▁급한데	-10.8712
▁생각하면	-10.8713
▁구하기	-10.8713
▁물어볼게요	-10.8714
▁들어왔	-10.8714
▁편인가요	-10.8716
▁나간	-10.8719
▁어린이용	-10.8719
원이라고	-10.8725
▁멀어서	-10.8726
▁있더라고요	-10.8729
▁급해서	-10.8731
▁사람들에게	-10.8731
▁운동할	-10.8732
▁시내까지	-10.8733
▁넘어서	-10.8734
▁말하지	-10.8735
▁불편해서	-10.8737
▁구매해	-10.8739
장에	-10.8744
▁고를	-10.8762
▁도중	-10.8763
했을	-10.8764
▁메	-10.8765
▁그곳에서	-10.8766
▁후식으로	-10.8768
▁지켜	-10.8772
▁스트레칭	-10.8774
▁워크숍	-10.8774
▁업체와	-10.8781
▁나온다고	-10.8789
▁사원이	-10.8792
▁앉은	-10.8796
▁신청해	-10.8797
▁휴게소에	-10.8801
▁알지만	-10.8801
▁팀원들이	-10.8802
▁진한	-10.8802
▁돌아다니	-10.8802
▁거네요	-10.8806
▁엑셀	-10.8806
▁하더라고	-10.8813
▁비슷	-10.8815
▁걸리는지	-10.8816
▁오해	-10.8816
▁지문	-10.882
▁같지만	-10.8823
▁어려웠	-10.8824
▁모델로	-10.8828
▁타지	-10.8829
▁초대	-10.8832
▁메뉴에	-10.8833
▁회복	-10.8835
▁조심하	-10.8836
▁검은색으로	-10.8842
▁확보	-10.8844
▁이동하는	-10.8846
▁날씨에	-10.8849
▁줄이고	-10.8852
▁패드	-10.8853
▁노선도	-10.8855
▁시간만	-10.8859
▁같다고	-10.886
▁서울에	-10.8864
▁예약해주세요	-10.8864
4	-10.8873
복	-10.8874
▁핸드폰이	-10.8876
▁꽃다발	-10.888
▁티	-10.8881
▁올려주	-10.8882
▁자서	-10.8884
▁했다고	-10.8886
했었는데	-10.8895
▁가다	-10.8903
▁빠	-10.8904
▁멀어	-10.8904
▁돌	-10.8907
▁기내식이	-10.8908
▁문제집	-10.8917
겠는데	-10.8918
▁확인했	-10.892
▁위층	-10.892
▁도와주실	-10.892
▁좋기	-10.8921
▁침	-10.8924
▁기숙사	-10.8927
▁맺	-10.8927
▁계산하면	-10.893
▁보이는데요	-10.8942
▁꺼	-10.8948
▁안되는	-10.8948
▁되어야	-10.8951
시입니다	-10.8958
려서	-10.896
▁그들	-10.8963
▁개선	-10.8978
분쯤	-10.8983
▁노트북이	-10.8987
▁추가해	-10.8991
하지만	-10.8991
▁문의해	-10.8994
▁절	-10.9004
▁앉으	-10.9012
▁돌아가는	-10.9014
▁상품이라	-10.9022
▁웹사이트	-10.9026
▁뽑는	-10.9031
▁소음	-10.9034
▁비행기에	-10.9038
▁검토해	-10.9038
말로	-10.9046
던가요	-10.905
직	-10.9052
▁돌아올	-10.9053
▁달콤	-10.9055
▁말에	-10.9056
▁또한	-10.9058
▁하나에	-10.9058
▁통증	-10.906
▁이력서	-10.9064
▁하루만	-10.9069
▁발목	-10.907
▁탔	-10.9078
▁완료되	-10.9078
▁휴지	-10.908
▁처방해	-10.9082
▁달려	-10.9082
▁책상에	-10.9087
▁하겠다	-10.9096
걸요	-10.9096
▁밀가루	-10.91
▁몰랐네	-10.9104
▁가위	-10.9107
▁이직	-10.9107
▁초록색	-10.9109
▁졸	-10.9109
▁닫	-10.9111
▁들어갑니다	-10.9113
▁채우	-10.9116
▁피곤해	-10.9116
▁캐나다	-10.912
보	-10.9122
▁말씀드려	-10.9124
▁닿	-10.9124
▁대부분이	-10.9126
▁주요	-10.9129
▁키우	-10.9131
▁리모컨	-10.9131
▁경찰서에	-10.9138
▁버스정류장	-10.9139
▁월드컵	-10.914
▁최신	-10.9141
▁곳이라	-10.9142
▁않으셨	-10.9142
▁젤	-10.9143
듯이	-10.9143
▁행동	-10.9143
▁하반기	-10.9143
▁혹	-10.9144
릅니다	-10.9144
▁소변	-10.9144
▁브레이크	-10.9145
▁USB	-10.9145
▁늦잠	-10.9145
▁봄	-10.9145
▁신혼여행	-10.9145
▁즐겁	-10.9145
▁카탈로그	-10.9145
▁보여줄	-10.9145
▁입장료	-10.9145
보단	-10.9145
▁특이한	-10.9145
▁샷	-10.9146
▁기재되어	-10.9147
▁돌아갈	-10.9148
▁올라갈	-10.9148
▁탑승권	-10.9149
▁바이러스	-10.9149
▁순서대로	-10.9151
▁제공됩니다	-10.9152
▁있구나	-10.9154
감이	-10.9154
▁아니었나요	-10.9155
▁벨트	-10.9156
▁노트	-10.9157
▁어떡하나요	-10.9158
▁나왔던	-10.9159
▁보이실	-10.9159
▁처리해드리겠습니다	-10.916
▁테니스	-10.9162
▁걸린다고	-10.9164
▁의식	-10.9165
▁오셨어요	-10.9165
▁이용하시는	-10.9166
되고	-10.9168
▁드렸어요	-10.9169
▁죄송하게도	-10.9172
▁경쟁	-10.9173
▁단위로	-10.9174
▁걱정이네요	-10.9175
▁높아서	-10.9176
▁제공해	-10.9176
▁어렵다고	-10.9178
▁빌렸	-10.9179
▁흠집이	-10.9179
▁예산이	-10.9182
▁찾아볼게요	-10.9183
▁자르고	-10.9184
▁8,000	-10.9187
▁맞네요	-10.9189
▁왔네요	-10.919
▁부른	-10.9191
▁내비게이션	-10.9193
건가요	-10.9193
▁보내겠습니다	-10.92
▁없더라고	-10.9206
▁했네요	-10.9213
▁텔레비전에	-10.9213
▁공용	-10.9214
버렸어요	-10.9216
▁줄일	-10.9217
▁한국어로	-10.9218
였던	-10.9218
▁뽑고	-10.9218
년에	-10.9219
▁온라인에서	-10.9219
▁선택이	-10.9224
▁한동안	-10.9225
▁협력	-10.9226
▁결제하	-10.9226
▁벗어	-10.9232
▁소설	-10.9232
▁지난달에	-10.9233
▁'	-10.9237
▁고객사	-10.9239
▁해물	-10.9248
님	-10.9251
레	-10.9252
▁기장	-10.9257
▁견인	-10.9259
▁넓은	-10.9264
▁지역에서	-10.9265
▁관광객들	-10.9266
▁소문	-10.9266
▁결제해주세요	-10.9266
▁레스토랑이	-10.9266
단다	-10.927
▁운전할	-10.9272
▁아프지	-10.9276
했지만	-10.9282
▁타셔야	-10.9285
▁문의해보	-10.9286
▁이익	-10.9286
▁가족들이	-10.9292
▁프로그램에	-10.9292
▁공개	-10.9297
▁앉	-10.931
▁오나요	-10.931
▁추천해줄	-10.9311
▁음식으로	-10.9315
▁잡혀	-10.9321
▁거구나	-10.9322
해보고	-10.9327
▁남편	-10.9327
▁역까지	-10.9328
▁불어	-10.9332
▁용량이	-10.9334
▁출시한	-10.9334
▁비치	-10.9338
▁가만	-10.9342
▁지원해	-10.9344
매	-10.9351
▁의뢰	-10.9354
▁씻	-10.9356
▁알려주셔	-10.9356
▁대리님이	-10.9357
▁그분이	-10.9357
▁입장이	-10.936
▁사신	-10.9361
▁괜찮다	-10.9361
해봅시다	-10.9365
▁선물이	-10.9366
▁답	-10.9368
일로	-10.9382
으시면	-10.9384
▁드리기	-10.9385
▁불가능한가	-10.9385
▁인천	-10.9388
▁대학원	-10.939
▁구매하시	-10.9396
▁순간	-10.9397
▁마케팅팀	-10.9401
▁실력	-10.9406
두고	-10.9409
▁전반적	-10.9411
▁맞다	-10.9417
▁가져다주	-10.942
▁주말이라	-10.942
▁멀	-10.9423
▁내려오	-10.9423
▁가능해	-10.9426
▁않았다	-10.9426
▁채식주의자	-10.9428
▁신분증이	-10.9429
▁창	-10.9435
▁야간	-10.9436
▁발생한	-10.9437
▁갔어	-10.9443
▁할인받	-10.9459
▁설탕	-10.946
▁여드름	-10.9462
신다고	-10.9466
▁대학생	-10.947
었거든요	-10.9473
▁청	-10.9475
▁검색해	-10.9482
▁들어야	-10.9489
▁영업팀에	-10.9498
▁확인해봐	-10.9507
▁문제야	-10.9509
봐요	-10.9511
▁당신은	-10.9513
▁살게	-10.9514
시간에	-10.9516
▁등본	-10.9519
▁다녀올	-10.953
▁미안	-10.9532
▁식당으로	-10.9532
해볼게요	-10.9535
▁다녀와	-10.9537
▁다치	-10.9545
▁가려	-10.9545
시겠습니까	-10.9553
인가	-10.9555
▁드셨	-10.9555
▁여행사	-10.9557
▁흔	-10.9558
▁추첨	-10.956
▁감독	-10.9563
▁했	-10.9563
▁근무하	-10.9569
▁변동	-10.957
▁살까	-10.9571
해주시고	-10.9572
▁이내	-10.9572
▁넣어야	-10.9575
▁먹기에	-10.9576
▁굵	-10.9577
▁도입	-10.9577
▁사용해보	-10.9581
▁좋으니	-10.9583
▁센	-10.9583
▁냉장	-10.9584
▁같더라	-10.9588
▁아시아	-10.9589
▁도난	-10.9589
▁걸리니	-10.9592
주시고	-10.9592
▁올라와	-10.9594
▁하더군	-10.9595
▁타도	-10.9608
▁수정해	-10.961
▁이후에는	-10.9611
▁어울린다	-10.9616
▁운전면허	-10.9618
▁갑작스럽	-10.9621
▁겉으로	-10.9621
▁넥타이	-10.9621
▁러닝머신	-10.9621
▁링거	-10.9621
▁마스카라	-10.9621
▁안전벨트	-10.9621
▁온몸	-10.9621
▁웨이브	-10.9621
▁일괄	-10.9621
▁탕수육	-10.9621
▁파우치	-10.9621
▁횟수	-10.9621
▁고등어	-10.9621
▁염증	-10.9621
▁열쇠고리	-10.9621
▁바코드	-10.9621
▁구급차	-10.9621
▁동반	-10.9621
▁강남	-10.9622
▁무사	-10.9622
▁감사하죠	-10.9622
▁사항에	-10.9622
▁놓치	-10.9622
▁짬뽕	-10.9622
▁사물함	-10.9623
▁엄청난	-10.9623
▁원하신다면	-10.9623
▁제휴	-10.9624
▁미래	-10.9625
▁15%	-10.9625
▁말씀이시죠	-10.9625
▁켜지지	-10.9627
▁팬	-10.9628
▁안내문	-10.9628
▁넓어서	-10.9628
▁따르면	-10.9629
▁칼로리	-10.9629
▁기부	-10.963
▁현대	-10.963
▁반대편에	-10.9632
▁오래돼서	-10.9632
▁맵게	-10.9633
▁노래방	-10.9634
▁걸어가시면	-10.9634
▁주문번호	-10.9634
▁올라가는	-10.9635
▁좋았는데	-10.9636
▁스킨	-10.9637
▁요금제	-10.9637
▁들어왔는데	-10.9638
▁마지막에	-10.9638
▁다녀오세요	-10.9638
▁맵지	-10.9639
▁보내주시겠어요	-10.9642
▁되어있는데	-10.9642
▁호주	-10.9642
▁자금	-10.9642
▁시키자	-10.9644
▁제출해주세요	-10.9648
▁구분	-10.9649
▁교복	-10.9651
▁가져와	-10.9654
▁나오네요	-10.9657
▁사본	-10.9658
▁시간이라	-10.9661
▁마트에서	-10.9661
▁정장	-10.9661
▁예약했었는데	-10.9661
▁알려줄래	-10.9662
▁서점에	-10.9667
▁빠지지	-10.9668
▁가능하다면	-10.9668
▁좋으면	-10.967
▁해보겠습니다	-10.9673
1	-10.9674
▁먹다가	-10.9684
▁불러야	-10.9684
▁본사에서	-10.9687
▁할인됩니다	-10.9689
▁복사기	-10.9691
▁말씀하시	-10.9692
▁적용이	-10.9695
▁막힐	-10.9696
조	-10.9697
▁맞추기	-10.9697
▁이상하게	-10.9698
▁생각이에요	-10.9702
▁데에	-10.9702
▁배상	-10.9707
월부터	-10.9712
▁방송에	-10.9715
감	-10.9716
관	-10.9721
▁가볼래	-10.9721
▁35	-10.9723
▁해드립니다	-10.9729
▁아니겠지	-10.9731
▁불편할	-10.9732
▁다니고	-10.9734
▁시내에서	-10.9739
▁문제점	-10.9744
▁성	-10.975
▁비해서	-10.9751
▁충분한	-10.9751
▁않으니까	-10.9752
▁대가	-10.9756
▁것이라고	-10.9761
시기	-10.9762
▁그때까지	-10.9763
▁광고에	-10.9763
▁인터넷이	-10.9765
▁판매대에	-10.9766
▁괜찮겠어	-10.977
▁둔	-10.9773
▁날짜와	-10.9774
▁경기장	-10.9774
▁외국인이	-10.9775
으신	-10.9776
▁목적	-10.9784
▁뿌려	-10.9784
▁공부하고	-10.9785
▁치고	-10.9788
실에	-10.979
▁된다	-10.9795
▁나가고	-10.9795
▁만났	-10.98
▁섭취	-10.9803
▁당연한	-10.9805
▁숙소에서	-10.9806
제품	-10.9809
▁발령	-10.9815
되	-10.982
▁개별	-10.9823
▁탑승하	-10.9826
▁서적	-10.9832
▁미국에	-10.9835
▁만지	-10.9842
▁넉넉	-10.9842
▁참여할	-10.9842
보겠습니다	-10.9846
운이	-10.985
▁포	-10.985
▁말해줄	-10.9851
시거나	-10.9854
▁배우들이	-10.9857
▁어제까지	-10.9874
▁문제인	-10.9877
▁맛있어요	-10.9877
▁오셔	-10.9882
▁되어가	-10.9883
▁도와줘	-10.9883
▁소금	-10.9886
▁배치	-10.9889
▁화장실에서	-10.989
▁장점	-10.9895
▁늘려	-10.99
▁행사에	-10.9908
▁일행	-10.9916
▁주인	-10.9918
▁호선	-10.992
▁건의	-10.9928
개의	-10.9935
▁지키	-10.9936
▁예쁘다	-10.9952
▁머물	-10.9956
▁올린	-10.9957
▁배웠	-10.996
▁여행이	-10.9961
▁유명하다	-10.9962
▁팀장	-10.9963
▁국물이	-10.9969
▁바닥	-10.997
▁비슷해	-10.9978
▁각인	-10.9983
▁들어갔	-10.9985
▁데서	-10.9987
▁금액에	-10.999
▁투숙	-10.999
▁참석할	-10.9994
▁쌀국수	-10.9995
▁표정이	-10.9998
▁사회	-10.9999
▁시작해	-11.0003
▁영향이	-11.0005
▁성격이	-11.0012
▁이하	-11.0021
▁값	-11.0022
십	-11.0025
▁예술	-11.003
▁프랑스	-11.0039
▁가져다주실	-11.0043
▁해외에	-11.0046
▁느끼는	-11.0057
▁현재는	-11.0058
▁찍어야	-11.006
▁중요해	-11.006
▁공부할	-11.0061
▁티브이	-11.0061
▁바닷가	-11.0064
▁명세서	-11.0066
▁결정이	-11.0072
하신다고	-11.008
원씩	-11.0081
▁소매치기	-11.0081
됐는데	-11.0081
▁생겼어	-11.0081
▁않겠어	-11.0082
▁싶었어	-11.0083
▁피드백	-11.0084
▁그러네	-11.0084
▁남았	-11.0084
▁슬	-11.0086
▁많으	-11.0087
인이	-11.0088
▁먹었어	-11.0088
이다	-11.009
▁맞은	-11.0094
▁백	-11.0096
▁남아있나	-11.0104
▁쌓	-11.0104
▁등기	-11.0108
▁기차역	-11.0108
▁미세먼지	-11.0109
▁생각나	-11.0111
▁비즈니스	-11.0112
▁전신	-11.0113
▁하셨어	-11.0116
▁감사하고	-11.0118
▁수단	-11.0118
턴	-11.0119
▁입어볼	-11.012
▁글씨	-11.012
▁햇빛	-11.0121
▁규제	-11.0121
▁달걀	-11.0121
▁몇몇	-11.0121
▁바닐라	-11.0121
▁보너스	-11.0121
▁블루투스	-11.0121
▁뺄	-11.0121
▁스페셜	-11.0121
▁싱가포르	-11.0121
▁액세서리	-11.0121
▁파인애플	-11.0121
▁메신저	-11.0121
▁건강검진	-11.0121
▁분실신고	-11.0121
▁목소리	-11.0121
▁증명사진	-11.0121
▁귀국	-11.0121
▁관광버스	-11.0121
▁걸어갈	-11.0121
▁245	-11.0122
▁인사팀	-11.0122
▁끝낼	-11.0122
▁타서	-11.0123
▁같았는데	-11.0123
▁괜찮았는데	-11.0123
▁대형	-11.0123
▁목도리	-11.0124
▁드셔보세요	-11.0124
▁통계	-11.0124
▁기구	-11.0124
▁기다렸는데	-11.0124
▁가능하며	-11.0125
▁유제품	-11.0126
▁설비	-11.0126
▁합쳐서	-11.0126
▁늦었는데	-11.0127
▁회의록	-11.0127
▁끼쳐	-11.0129
▁예쁜데	-11.0129
▁장학금	-11.013
▁실시간	-11.0134
▁불편함	-11.0137
임	-11.0137
주는	-11.0138
▁모시	-11.0138
▁전달하겠습니다	-11.0139
▁상황이라	-11.014
▁제시	-11.014
▁프로	-11.0142
▁이왕	-11.0148
록	-11.0151
▁기르	-11.0152
▁시차	-11.0152
▁웹사이트에서	-11.0153
▁힘드네요	-11.0153
▁않는다면	-11.0155
▁빠질	-11.0156
▁있으나	-11.0156
▁측에	-11.0156
▁장소로	-11.0157
▁구매하셔야	-11.0157
▁준비되	-11.016
▁조별	-11.0161
▁좋았어요	-11.0164
▁하다니	-11.0166
▁됐네요	-11.0168
▁요청해	-11.0168
▁생각이네요	-11.0176
▁먹었어요	-11.0176
▁못하는데	-11.0176
▁판단	-11.0177
▁차액	-11.0178
▁잡히	-11.0178
▁외국인들	-11.018
▁아니죠	-11.0182
▁무상으로	-11.0185
대요	-11.0185
▁최소한	-11.0186
▁복잡해	-11.019
▁아래에	-11.0192
▁군	-11.0193
▁하시겠습니까	-11.0195
▁떠	-11.0197
▁신입사원이	-11.0198
▁식기	-11.0198
▁만나자	-11.0203
▁처방	-11.0203
▁야근해야	-11.0208
▁고쳐	-11.0208
▁150	-11.0212
▁멀리서	-11.0213
▁포도	-11.0213
▁시키는	-11.0228
▁결제하신	-11.0232
▁떨어지는	-11.0233
▁소리야	-11.0239
▁했는지	-11.0243
▁오셨	-11.0244
▁애들이	-11.0247
▁곳인데	-11.0249
▁화분	-11.0255
▁개씩	-11.026
▁명단에	-11.0265
▁사업자	-11.0267
▁병실에	-11.0269
회에	-11.0271
▁체결	-11.0272
▁봉사	-11.0272
▁월	-11.0274
▁둘러보	-11.0277
▁건강에	-11.0277
▁수저	-11.0279
▁사진이랑	-11.0279
▁투표	-11.028
▁가야지	-11.0286
▁부과	-11.03
처리	-11.0301
▁이곳이	-11.0302
▁도시에	-11.0304
▁처음이	-11.0304
▁확인하지	-11.0307
▁시원해	-11.0309
▁시작해야	-11.031
▁대답	-11.0315
▁우연	-11.0317
▁안내해드리	-11.032
▁정책	-11.0324
▁해변에	-11.0324
▁곳이야	-11.0327
▁뜨는	-11.0328
▁고르시	-11.033
▁안될	-11.0331
▁시도	-11.0341
▁들어가기	-11.0353
▁풍경	-11.0356
▁들어서요	-11.0361
▁쇼핑백	-11.0362
▁위에서	-11.0372
▁장점이	-11.0381
▁않았던	-11.0381
했다는	-11.0383
▁출동	-11.0386
▁예약자	-11.0389
▁소독	-11.0391
▁수영장이	-11.0391
▁허락	-11.0392
▁열어보	-11.0393
▁먹어본	-11.0397
▁생기는	-11.041
▁빠지는	-11.041
▁유명해	-11.041
는데요	-11.0411
▁똑같	-11.0413
▁대사	-11.0414
하셨어요	-11.0417
▁사시	-11.042
▁높아	-11.0421
▁건너편	-11.0435
팀에서	-11.0437
했으니까	-11.0442
▁제출할	-11.0449
▁컸	-11.045
으려고	-11.0451
▁줄어들	-11.0451
▁컨셉	-11.0455
이군요	-11.0467
▁신청해야	-11.0467
▁주차할	-11.0475
▁시험에서	-11.0475
▁헷갈리	-11.0487
▁교정	-11.0487
▁없애	-11.0489
▁모양이	-11.0497
막	-11.0499
▁일주일이	-11.0503
▁세상에	-11.0513
▁저장	-11.0523
다던데	-11.053
▁인정	-11.053
▁살아	-11.0536
▁깜박하	-11.0542
층까지	-11.0545
▁술이	-11.0545
▁빌리는	-11.0546
▁참아	-11.0547
해야겠다	-11.0548
▁저렴	-11.0551
▁말씀해주실	-11.0553
▁임	-11.0559
튼	-11.0565
▁생신	-11.0568
▁결	-11.0568
▁깨끗하	-11.0573
▁필요한지	-11.0574
▁내지	-11.0578
▁사귀	-11.058
단계	-11.0582
▁쿠션	-11.0583
▁나만	-11.0585
▁지역이	-11.0585
▁55	-11.0587
하셨으면	-11.0588
-	-11.059
▁떨어질	-11.0591
▁힘드	-11.0593
▁비빔밥	-11.0593
▁매표소	-11.0593
▁잃어버려서	-11.0599
▁진행해야	-11.0609
▁나왔나	-11.061
▁많네	-11.0612
▁불만이	-11.0612
갈	-11.0615
▁좋더라	-11.0615
▁쳐	-11.0616
▁교수님께	-11.0616
▁찾아볼게	-11.0616
▁놓아	-11.062
▁개월	-11.0621
▁치는	-11.0624
▁고맙지	-11.0625
▁야외	-11.0625
▁어머님	-11.0626
▁이탈리아	-11.0626
▁서랍	-11.0626
▁치약	-11.0632
▁어머	-11.0633
▁금연	-11.064
▁무거운	-11.0644
▁스페인	-11.0645
받고	-11.0645
▁유산소	-11.0647
▁KTX	-11.0647
▁고구마	-11.0647
▁디카페인	-11.0647
▁매니큐어	-11.0647
쩍	-11.0647
▁회원가입	-11.0647
▁교과서	-11.0647
▁소지품	-11.0647
▁부작용	-11.0647
▁화재	-11.0647
▁부가세	-11.0647
▁양파	-11.0648
▁올라온	-11.0648
▁지퍼	-11.0648
▁그다지	-11.0649
▁장르	-11.0649
▁레몬	-11.0649
▁낭비	-11.0649
▁운전면허증	-11.065
▁멋지	-11.0651
▁주문하셔야	-11.0652
▁등심	-11.0652
집	-11.0652
▁환영합니다	-11.0653
▁중복	-11.0653
▁제조	-11.0653
▁동일하게	-11.0653
▁에이드	-11.0653
▁설치되어	-11.0654
▁식비	-11.0654
▁줄거리	-11.0654
▁직전에	-11.0655
▁시끄러워서	-11.0656
▁식물	-11.0656
▁분실했는데	-11.0656
▁중이	-11.0657
▁힘내	-11.0658
▁미뤄야	-11.0658
▁않는다	-11.0658
▁확률	-11.0658
▁숙박비	-11.066
▁지났	-11.0661
▁깔아	-11.0662
▁25,000	-11.0663
▁볶음	-11.0663
▁시작했는데	-11.0664
▁샤워실	-11.0665
▁궁금하네요	-11.0665
▁그럴게요	-11.0665
▁썼는데	-11.0665
▁모델명	-11.0666
▁되었으면	-11.0667
▁이중	-11.0667
▁다르지	-11.0668
▁뼈	-11.0669
▁아프네요	-11.067
▁체류	-11.0673
▁선물용으로	-11.0673
▁찾으세요	-11.0675
뿐입니다	-11.0675
▁어젯밤에	-11.0678
▁계산할게요	-11.0681
▁상관없어요	-11.0682
▁기억하는데	-11.0683
쪽으로	-11.0685
▁싫다	-11.0688
▁쇼핑몰에서	-11.0688
▁처음이야	-11.069
▁복잡해서	-11.069
▁많던데	-11.0691
▁맡아서	-11.0692
인치	-11.0693
▁듣지	-11.0694
▁전화했어	-11.0695
▁적극적	-11.0695
▁잡아야	-11.0699
▁여는	-11.0701
▁지시	-11.0709
야겠네요	-11.071
▁수정하	-11.0711
▁원만	-11.0711
▁심장	-11.0712
▁가질	-11.0712
▁쓰시는	-11.0713
▁호수	-11.0714
▁편안하	-11.0714
▁사정으로	-11.0715
▁텔레비전에서	-11.0722
되는데	-11.0723
▁넣지	-11.0723
▁부족할	-11.0724
▁출국장	-11.0724
▁안전하	-11.0725
▁분한테	-11.0727
▁예정이고	-11.0731
▁받으시는	-11.0732
▁신나	-11.0733
티	-11.0734
▁그랬나	-11.0735
▁더러운	-11.0735
▁개최	-11.0736
▁주문량	-11.0737
▁엄마랑	-11.074
▁회계팀에	-11.0741
▁올려야	-11.0744
▁책정	-11.0751
▁났	-11.0751
▁말씀이신	-11.0754
▁해당하는	-11.0754
▁입실	-11.0756
▁저렴하	-11.0759
▁느껴지	-11.076
▁바르면	-11.0765
▁가져	-11.0767
었네요	-11.0769
▁그랬어요	-11.077
▁뭐죠	-11.0771
▁인식	-11.0773
▁컬	-11.0781
▁싶지만	-11.0781
▁이번주	-11.079
▁이용한	-11.0793
▁드려서	-11.0797
▁기내에서	-11.08
▁그거야	-11.0814
▁불편하신	-11.0815
▁시간대에	-11.0815
▁립스틱이	-11.0832
▁교	-11.0835
▁와서요	-11.084
▁인력이	-11.084
셨습니다	-11.0841
▁뻔	-11.0844
▁신고하	-11.0846
▁사는데	-11.0848
▁동물	-11.0855
▁뒤면	-11.0856
▁이상으로	-11.0857
▁모임	-11.0859
역에서	-11.0866
▁동료	-11.0867
▁그러니까요	-11.0869
▁바꾼	-11.0869
▁않는데요	-11.087
▁느리	-11.087
모	-11.0871
▁이것만	-11.0872
▁밑	-11.0874
▁보험에	-11.0876
해보자	-11.0878
오세요	-11.0881
▁쇼핑하	-11.0882
▁여름이	-11.0883
▁고정	-11.0884
▁요청하	-11.0889
거리	-11.0893
시에는	-11.0899
▁만들었	-11.0917
▁미뤄	-11.0918
셨네요	-11.0918
▁게다가	-11.0918
▁레스토랑에	-11.0919
▁증명	-11.0919
▁그나	-11.092
▁존	-11.0922
▁생각해서	-11.0924
▁것이라	-11.0926
▁정기	-11.0928
▁직진	-11.0929
▁형	-11.0934
▁특징	-11.0941
▁매니저	-11.0942
려져	-11.0944
▁넣었	-11.0947
▁카운터	-11.0955
B	-11.0955
▁표지판	-11.0969
▁후회	-11.0969
▁커튼	-11.098
▁분기에	-11.0985
▁이용해야	-11.0985
▁효과적인	-11.0994
▁해결해야	-11.0995
▁제품만	-11.1001
▁빼야	-11.1008
▁허	-11.1019
하던데	-11.102
▁별도	-11.1033
▁디자인으로	-11.1034
▁주문하는	-11.1035
판	-11.1035
▁방탄소년단	-11.1037
▁읽어보	-11.1038
라서요	-11.1042
▁들면	-11.1048
▁상품인데	-11.1052
탈	-11.1053
▁조명	-11.1057
인한	-11.1059
▁수입자	-11.1061
▁바빠	-11.1062
▁마을	-11.1064
반	-11.1064
▁출연	-11.1064
▁홍보팀	-11.1068
리가	-11.1075
▁무지	-11.1084
원만	-11.1086
▁한국인	-11.1092
▁회신	-11.1093
▁수습	-11.1096
▁블로그	-11.1104
슬	-11.1108
니까요	-11.111
▁정할	-11.1117
▁운영되	-11.112
▁채식	-11.1124
▁주차장이	-11.1129
량이	-11.1135
따로	-11.1139
▁재미있	-11.1141
분께	-11.1143
▁용품	-11.1143
▁영업시간	-11.1147
▁자재	-11.1152
▁초등학생	-11.1158
▁나타나	-11.1159
▁휴대용	-11.1165
▁소량	-11.1168
▁부품이	-11.117
▁보내줄	-11.1172
▁생각했어	-11.1173
▁문제없습니다	-11.1174
▁손님께	-11.1176
▁늦었	-11.118
▁학원에	-11.1182
▁바비큐	-11.1186
▁지냈	-11.1186
▁운	-11.1188
▁베드	-11.1188
▁터미널에	-11.119
▁짜장면	-11.1196
▁확인해봐야	-11.1199
▁지혈	-11.12
▁낱개	-11.1203
▁렌털	-11.1203
▁아이라이너	-11.1203
▁웹툰	-11.1203
▁프레젠테이션	-11.1203
▁횡단보도	-11.1203
구먼	-11.1203
▁ATM	-11.1203
▁느낄	-11.1203
▁주민등록번호	-11.1203
▁액수	-11.1203
▁어떡합니까	-11.1203
▁단독	-11.1203
▁근거	-11.1203
▁위탁	-11.1203
▁당근	-11.1203
▁공짜	-11.1203
▁무이자	-11.1203
▁영업실적	-11.1203
▁회의실이	-11.1204
▁면회	-11.1204
▁퇴직금	-11.1204
▁인제	-11.1204
▁플래시	-11.1205
▁잡힌	-11.1205
▁발톱	-11.1205
▁과학	-11.1205
▁아쉬워	-11.1205
▁고파서	-11.1206
▁비건	-11.1207
▁않냐	-11.1207
▁갔는지	-11.1208
▁태어나	-11.1208
▁좋겠군요	-11.1208
▁더운데	-11.1209
▁영상이	-11.1209
▁넘었는데	-11.121
▁탑승구	-11.121
▁그중에	-11.1214
▁확인하면	-11.1215
▁전망대	-11.1215
▁어두워서	-11.1216
▁겹쳐	-11.1216
▁갔었는데	-11.1217
▁한글	-11.1217
▁넣어주	-11.1217
▁이상하다	-11.1217
▁중이니	-11.1218
▁할인쿠폰	-11.1218
▁시골	-11.1218
▁괜찮으시면	-11.1222
▁강해서	-11.1224
▁이상하네요	-11.1225
▁보수	-11.1225
▁불안해서	-11.1225
▁라운지	-11.1225
▁같으니까	-11.1225
▁편이라서	-11.1228
▁가루약	-11.1229
▁예정이야	-11.123
▁하길래	-11.1231
▁베스트셀러	-11.1232
▁수제	-11.1234
▁누나	-11.1235
▁목적지까지	-11.1237
▁주의해야	-11.1237
▁같더라고요	-11.1237
▁왔다	-11.124
▁나가시면	-11.1241
▁면세점이	-11.1242
▁고개	-11.1243
▁들어가는데	-11.1244
▁둘러보고	-11.1244
▁목적으로	-11.1245
▁쉬워	-11.1246
▁하시네요	-11.1246
▁임의	-11.1247
▁휴게실	-11.1248
▁팀장님께서	-11.1249
▁다치지	-11.1249
신다면	-11.125
▁사이다	-11.1251
▁싫어하는	-11.1253
▁든다	-11.1254
▁연도	-11.1255
▁뷔페	-11.1255
▁받으세요	-11.1258
▁맞았	-11.1259
▁무엇보다	-11.1261
였어	-11.1264
▁가야겠다	-11.1264
▁마무리하고	-11.1265
▁우수	-11.1265
왔습니다	-11.1266
▁됐습니다	-11.1266
▁중식	-11.1274
▁들어가고	-11.1276
▁연락드려	-11.1277
▁지사	-11.1278
▁안약	-11.1278
▁기간이라	-11.1279
▁유물	-11.128
▁주차장에서	-11.128
▁편하실	-11.1285
▁칸에	-11.1285
▁됐다	-11.1286
▁보던	-11.1286
▁마시지	-11.1287
▁않다고	-11.1288
▁맡게	-11.1289
▁다니지	-11.129
▁시켜야	-11.1291
▁수건이	-11.1291
▁채워	-11.1292
▁듭니다	-11.1293
▁원씩	-11.1294
▁크다	-11.1297
려고요	-11.1299
▁서비스센터	-11.13
▁보험이	-11.1301
주년	-11.1304
▁날인데	-11.1305
▁타자	-11.1306
▁맛없	-11.1308
▁해보자	-11.131
▁출근할	-11.1312
▁도와드리고	-11.1319
▁게시판에	-11.1319
▁안심	-11.132
▁깨지	-11.1321
▁얼	-11.1324
▁생각인데	-11.1326
▁둘이서	-11.1328
▁술집	-11.1328
▁편하고	-11.1334
▁눈으로	-11.1334
▁피곤하	-11.1336
▁보여서요	-11.134
▁털	-11.1346
▁박물관에서	-11.1349
▁다운로드	-11.1356
▁주시나요	-11.1356
▁녹	-11.1364
▁소요됩니	-11.137
겠구나	-11.1371
▁부위에	-11.1372
▁탔어	-11.1372
5,000	-11.1374
▁제시한	-11.1374
▁손으로	-11.1375
▁호출	-11.1377
우	-11.1378
▁파일이	-11.1385
L	-11.1389
▁생기지	-11.1389
▁개의	-11.1394
▁설사	-11.1397
▁문구점에	-11.1405
▁생각할	-11.1405
▁코스로	-11.1411
▁나와야	-11.1414
▁협조	-11.1416
▁구멍이	-11.1416
었는지	-11.1417
▁부드러	-11.1422
▁원인데	-11.1425
음	-11.1427
▁말해야	-11.143
▁느낀	-11.144
▁적립금	-11.1442
▁일본에	-11.1443
명의	-11.1446
▁못하면	-11.1449
▁대회에	-11.1453
▁상태에서	-11.1456
쯤에	-11.1457
버	-11.1459
▁어디쯤	-11.1461
▁욕실	-11.1461
▁된다니	-11.1464
▁조언	-11.1465
▁양도	-11.1465
해드리고	-11.1468
주시나요	-11.147
▁물어봐야	-11.1478
▁더러워	-11.1479
▁양쪽	-11.1484
▁전국	-11.1498
▁질이	-11.1499
▁열려	-11.1502
▁회식이	-11.1505
이었어	-11.1514
▁완벽하	-11.1517
▁자는	-11.1517
▁떨어지	-11.1517
▁찢어	-11.152
▁엄마는	-11.1523
▁몰라도	-11.1528
출	-11.1537
하잖아	-11.1539
▁규칙	-11.154
▁찾아봐야	-11.1541
▁읽는	-11.1542
▁괜찮으	-11.1558
▁해야겠다	-11.1562
▁재밌어	-11.1564
▁80	-11.1568
그	-11.157
이었는데	-11.1572
▁바를	-11.1575
▁예약하는	-11.1579
▁아래층	-11.1582
▁많기	-11.1587
▁생각에	-11.1593
▁한정	-11.1594
▁전산	-11.1599
▁리그	-11.1615
개는	-11.1624
▁물어봤	-11.1627
값	-11.1632
▁느려	-11.1637
야겠군요	-11.1642
▁구비	-11.1644
▁포장지	-11.1646
▁사용하신	-11.1647
집니다	-11.165
▁금이	-11.165
▁않기	-11.1651
▁샘플이	-11.1652
점이	-11.1657
▁한다	-11.1658
▁연결된	-11.1659
▁고객님들	-11.1662
▁말씀드렸	-11.1664
▁27	-11.1665
박스	-11.1666
▁반납할	-11.1666
증이	-11.1668
▁알려주시	-11.1668
▁안내소	-11.1678
느냐	-11.168
▁연착	-11.1682
▁팸플릿	-11.1683
참	-11.1687
▁분담	-11.1687
했잖아	-11.1692
▁줘야	-11.1694
▁처리해	-11.1699
▁240	-11.1703
▁반품이	-11.1707
시까지입니다	-11.1707
탄	-11.1708
▁지원이	-11.1708
▁예뻐	-11.171
▁여쭤볼	-11.1714
봐야겠다	-11.1714
▁스타벅스	-11.1717
▁쓰레기통	-11.172
▁요청이	-11.172
털	-11.1723
▁아쉽	-11.1723
다음	-11.1723
▁진동	-11.1725
▁모으	-11.1725
원짜리	-11.1728
▁밝은색	-11.1729
▁닦아	-11.1733
▁보여주실	-11.1735
▁한국에서는	-11.1735
▁고속도로	-11.1742
료	-11.1743
▁회색	-11.1747
났습니다	-11.1748
▁그렇네	-11.175
▁뻔했어	-11.1751
▁필요해	-11.1752
▁좋았어	-11.1757
▁꽂아	-11.1761
▁장소에	-11.1764
▁영광	-11.1768
▁머무	-11.1769
▁추세	-11.1769
▁보관하	-11.177
▁있다는데	-11.1773
▁나쁜	-11.1776
▁사무	-11.1777
▁되었어	-11.1778
▁지연되	-11.178
▁직	-11.178
▁36	-11.1781
▁직업	-11.1781
▁날은	-11.1783
▁결제했는데	-11.1785
▁되더라고	-11.1786
▁독감	-11.1791
▁가슴	-11.1791
▁냉면	-11.1791
▁드레싱	-11.1791
▁선착순	-11.1791
▁시리즈	-11.1791
▁유기농	-11.1791
▁잉크	-11.1791
▁크리스마스	-11.1791
▁홍삼	-11.1791
▁라디오	-11.1791
▁평범	-11.1791
▁간이침대	-11.1791
▁푸딩	-11.1791
▁배낭	-11.1791
▁타깃	-11.1791
▁바쁠	-11.1791
▁고픈데	-11.1791
▁어쨌든	-11.1791
▁중학교	-11.1791
▁사무용품	-11.1791
▁출장경비	-11.1792
▁수영복	-11.1792
▁소화제	-11.1792
▁관세	-11.1792
▁경치	-11.1792
▁피곤한	-11.1793
▁스토리	-11.1794
▁빌린	-11.1794
▁원목	-11.1795
▁했죠	-11.1796
▁들렀다	-11.1796
▁물어봤는데	-11.1796
국	-11.1796
▁전표	-11.1797
▁예약하면	-11.1797
▁운임	-11.1798
▁참치	-11.1798
▁그러시나요	-11.1799
▁점심때	-11.18
▁좁아서	-11.1801
▁유독	-11.1803
▁빈방	-11.1803
▁가봤는데	-11.1804
▁왔으니	-11.1804
▁가려는데	-11.1804
▁친구들한테	-11.1805
▁보내드릴까요	-11.1805
▁예매했는데	-11.1806
▁발라주세요	-11.1806
▁타격	-11.1807
▁신기하네요	-11.1807
▁극장	-11.1808
▁한다니	-11.1809
일까요	-11.1809
▁모르겠고	-11.1809
▁소요되	-11.1811
▁5%	-11.1812
▁염색약	-11.1812
▁시리얼	-11.1812
▁메뉴판에	-11.1813
▁갑시다	-11.1813
▁같으면	-11.1813
▁잃어버렸어	-11.1814
▁완료되었고	-11.1814
▁막차	-11.1815
▁40,000	-11.1816
▁구장	-11.1816
▁내리시면	-11.1817
줘야	-11.1817
▁경찰서	-11.182
▁지워지	-11.1822
▁집안일	-11.1822
▁뻔했네요	-11.1823
▁손실	-11.1823
▁쉬어	-11.1828
▁맛있지	-11.1829
▁망고	-11.183
▁결제할게요	-11.1831
▁환승해야	-11.1831
▁손님께서	-11.1832
▁먹겠어	-11.1833
▁장면이	-11.1833
▁움직이지	-11.1834
▁다녀와서	-11.1834
▁걱정돼서	-11.1834
▁드시지	-11.1835
▁올랐	-11.1835
▁재미있어	-11.1835
▁뒤편	-11.184
▁다음날	-11.184
▁수리비	-11.1843
▁오신다고	-11.1845
▁탕	-11.1846
▁싶었어요	-11.1849
▁없대	-11.1851
▁말씀드리고	-11.1851
▁해결하	-11.1852
▁낫겠다	-11.1856
▁로고	-11.186
▁세팅	-11.1861
해보는	-11.1862
분으로	-11.1863
▁모발	-11.1863
▁아쉽게도	-11.1866
▁다듬어	-11.1866
▁예약하셔야	-11.1867
▁편리	-11.1869
▁고객센터	-11.1869
▁염색하고	-11.187
▁먹던	-11.1872
▁계산대에서	-11.1874
▁머리에	-11.1875
▁준비했습니다	-11.1877
▁크고	-11.1878
▁봐야겠다	-11.1879
▁보충	-11.1884
▁경로	-11.1884
▁조개	-11.1887
했다가	-11.189
▁보루	-11.1891
▁시간인데	-11.1894
▁붙어있는	-11.1896
▁늘어	-11.1898
▁결제해야	-11.19
▁처음이라서	-11.1902
▁발급받으	-11.1908
▁않는다고	-11.1913
▁매진	-11.1914
▁임원	-11.1917
▁일반적인	-11.192
▁확인했습니다	-11.1921
▁한쪽	-11.1922
▁비교해	-11.1927
▁공원에	-11.193
▁소음이	-11.1943
▁초에	-11.1954
▁전화드렸어	-11.1962
▁후문	-11.1963
▁화면에	-11.1966
▁걸으면	-11.1968
▁프로젝트에	-11.1971
▁변	-11.1975
리라	-11.1984
▁사용하시는	-11.1984
▁마감이	-11.1987
▁진행한	-11.1988
▁힘들었어	-11.199
▁지나지	-11.1994
▁때문이	-11.1997
▁떡	-11.1998
▁비상	-11.1999
▁본인의	-11.2001
▁사무실에서	-11.2001
▁말자	-11.2007
▁수준	-11.2009
▁배운	-11.2011
▁참고하	-11.2012
방	-11.2013
▁학점이	-11.2021
▁준비하	-11.2022
▁하단	-11.2026
▁이해해	-11.2026
▁부스	-11.2028
▁사건	-11.2029
▁문제에	-11.2029
▁찾지	-11.2033
▁빼달라	-11.2034
▁성사	-11.2039
▁주시고요	-11.2049
▁난다고	-11.2053
▁거긴	-11.2054
▁개봉한	-11.2055
▁갈지	-11.2056
▁몰라서요	-11.2058
▁거실	-11.2065
파	-11.207
▁연체	-11.2072
▁일이라	-11.2077
▁규정에	-11.2078
▁디자인에	-11.2083
▁귀가	-11.2084
▁보셨	-11.2084
▁탕비실	-11.2093
▁사인	-11.2097
▁파손	-11.2097
시니까	-11.21
▁참고해	-11.214
▁제주도에	-11.2143
오	-11.2155
해드릴	-11.2156
▁해주는	-11.2158
▁쇼핑센터	-11.2172
▁높지	-11.2177
▁낮추	-11.2178
▁섭외	-11.218
만원	-11.2181
받아서	-11.2182
▁바꿔주	-11.2183
▁전략이	-11.2184
▁우리나라에	-11.2186
▁악	-11.2188
▁기준이	-11.2191
▁법률	-11.2191
이라서요	-11.2196
▁과제가	-11.2203
▁만나면	-11.2206
▁자막	-11.2207
▁포기하	-11.2215
되었어요	-11.2219
▁않으신	-11.222
▁고급	-11.2224
▁다니기	-11.2233
▁케이팝이	-11.2237
▁과장	-11.2238
했었어	-11.224
▁오늘만	-11.2241
▁간판	-11.2243
▁문제없	-11.2249
▁푸	-11.2251
▁판매가	-11.2253
율이	-11.2254
▁들어가도	-11.2255
▁편도	-11.2258
▁되겠	-11.2262
▁끼워	-11.2276
▁보인다	-11.2283
▁보내줘	-11.2292
치고	-11.2297
디	-11.2298
▁나오니	-11.2304
▁발표자	-11.2311
▁메뉴판이	-11.2312
▁전해	-11.2313
▁팬이	-11.2315
▁먹으라	-11.232
▁않다	-11.2323
▁찍혀	-11.2325
리는	-11.2328
▁도착지	-11.233
▁28	-11.2331
▁침대에	-11.2331
▁당겨	-11.2331
▁써봐	-11.2333
▁할래	-11.2346
▁용돈	-11.2347
▁수거	-11.2348
▁법적	-11.2353
▁버	-11.2354
▁선택한	-11.2355
▁어학	-11.2357
▁오전까지	-11.2359
▁강남역	-11.2361
창	-11.2363
치수	-11.2363
▁빛	-11.2373
▁충원	-11.238
▁정확	-11.2382
▁원화	-11.2388
▁진단	-11.2388
▁필름	-11.239
장으로	-11.2395
▁데려가	-11.2395
▁전문가	-11.2398
▁먹을래	-11.2399
▁90	-11.2404
옵니다	-11.2405
▁통보	-11.2409
▁조회해	-11.2409
▁어땠	-11.241
▁다르다	-11.2411
▁싱글	-11.2413
▁복	-11.2415
▁파란	-11.2415
▁독특한	-11.2415
▁VIP	-11.2416
▁가습기	-11.2416
▁껐다	-11.2416
▁마일리지	-11.2416
▁부득이	-11.2416
▁프리미엄	-11.2416
▁PT	-11.2416
▁파트너	-11.2416
▁별말씀을요	-11.2416
▁구내식당	-11.2416
▁시험공부	-11.2416
▁설계	-11.2416
▁창업	-11.2416
▁선호하는	-11.2416
▁기타	-11.2416
▁밤새	-11.2416
▁퇴실	-11.2417
▁마스크팩	-11.2417
▁배추	-11.2417
▁도보	-11.2417
▁교환학생	-11.2417
▁알람	-11.2417
▁할인행사	-11.2418
▁결산	-11.2418
▁부럽다	-11.2418
▁적합한	-11.2418
▁에너지	-11.2418
▁100%	-11.2418
▁콩	-11.2418
▁오타	-11.2419
▁스페인어	-11.2419
▁찍을게요	-11.2419
▁더블	-11.2421
▁소통	-11.2421
▁확신	-11.2422
▁회장님께서	-11.2422
▁회화	-11.2424
▁받아보실	-11.2424
▁싶으신가요	-11.2424
▁돌고	-11.2424
▁찾았는데	-11.2425
▁함부	-11.2425
▁강연	-11.2426
▁가져다드릴까요	-11.2427
▁기반	-11.2427
▁했었지	-11.2427
▁않았지만	-11.2428
▁난리	-11.2429
▁어려서	-11.2429
▁주신다면	-11.2429
▁가능하죠	-11.243
버렸어	-11.243
▁건강하게	-11.2431
▁깎아주세요	-11.2433
▁힘들겠다	-11.2433
▁깨져서	-11.2434
▁뜨는데	-11.2434
▁들어본	-11.2434
▁괜찮네요	-11.2435
▁깔끔한	-11.2436
▁무리하게	-11.2437
▁발라보	-11.2438
▁사실이야	-11.2438
▁무거워서	-11.2439
▁월요일부터	-11.244
▁매출액	-11.2441
▁서랍장	-11.2442
▁예약번호	-11.2443
▁선택하시면	-11.2444
▁좋겠지만	-11.2445
▁켜져	-11.2447
▁식전	-11.2447
▁다칠	-11.2448
▁계시는데	-11.2451
▁대상자	-11.2455
▁무리하지	-11.2456
▁사람들한테	-11.2457
▁용지	-11.2457
▁발목이	-11.2459
했네요	-11.246
▁나을까요	-11.2462
▁좋아하세요	-11.2463
▁그중에서	-11.2467
▁시원하	-11.2468
▁아래쪽	-11.2469
▁응대	-11.2473
▁내리기	-11.2474
▁대피	-11.2475
▁위험한	-11.2479
▁금고	-11.2479
▁안전한	-11.2481
▁두통이	-11.2481
▁궁금하신	-11.2486
▁끼고	-11.2488
▁취소된	-11.2494
▁말씀드리면	-11.2497
▁유명해서	-11.2497
▁와요	-11.2499
▁철도	-11.2499
▁일하기	-11.2501
▁톤	-11.2502
▁궁금하다	-11.2503
▁구글	-11.2503
▁주차장에	-11.2505
▁시작되	-11.2506
▁살게요	-11.2508
▁생각하기	-11.2512
▁D	-11.2514
▁열어서	-11.2516
▁도시에서	-11.2516
▁당일에	-11.2517
▁그렇기	-11.2518
▁어울리는지	-11.252
▁기다린	-11.2523
▁만들면	-11.2524
▁환전하는	-11.2525
▁했기	-11.2525
▁친한	-11.2527
▁확인해드리겠습니다	-11.2528
▁신문	-11.253
▁걸리고	-11.253
▁고려해	-11.2531
▁회의실에서	-11.2532
▁비율이	-11.2533
▁유행이라	-11.2533
▁원하	-11.2534
▁결제하겠습니다	-11.2534
▁되었고	-11.2536
▁숙소까지	-11.2539
▁싫어서	-11.2539
▁그렇	-11.2541
▁바뀌는	-11.2544
▁배정	-11.2548
상자	-11.2551
내	-11.2552
는걸요	-11.2552
명까지	-11.2557
▁돌아가야	-11.2561
▁들어오고	-11.2561
▁박물관이	-11.2563
▁책자에	-11.2566
▁좋아하실	-11.2568
▁보이게	-11.257
▁느껴지는	-11.2573
▁데려다주	-11.2574
▁찍어주시	-11.2574
▁백화점에서	-11.2577
▁태워	-11.2585
▁생각인	-11.2586
▁왔고	-11.2586
원이며	-11.2589
▁갈비	-11.2595
▁올라가셔	-11.2598
▁올라	-11.26
▁갈아타는	-11.2601
▁이쪽에서	-11.2602
▁처리하는	-11.2602
▁우려	-11.2609
▁생산이	-11.2611
▁가격인가요	-11.2613
으십니까	-11.2626
▁지역으로	-11.2628
▁말해봐	-11.2628
▁끝났	-11.2631
▁몰랐	-11.2632
▁기다리지	-11.2634
▁갈아입으	-11.2634
▁해야겠어	-11.2648
놓겠습니다	-11.2651
▁돼야	-11.2652
▁조율	-11.2655
▁생겼나	-11.2659
▁갱신	-11.2663
▁배달해	-11.2665
▁찾아왔	-11.2672
▁정도야	-11.2676
▁편명	-11.2677
▁차이점	-11.2678
▁수정해야	-11.2679
▁클	-11.2685
▁보여드릴	-11.2687
▁허리에	-11.2688
▁토론	-11.2694
▁참여하	-11.2697
▁작업이	-11.2702
▁싶은지	-11.2708
▁외국어	-11.2709
버려서	-11.2716
▁어떡하	-11.2719
▁말해보	-11.2721
▁되나	-11.2725
▁참석자	-11.2727
▁들으니	-11.2729
▁불가능하다	-11.2731
속	-11.2733
▁업체들	-11.2734
졌는데	-11.2735
갔으면	-11.2737
▁아이스크림은	-11.2738
▁부착	-11.2745
▁신청이	-11.2745
▁타사	-11.2756
▁지불하셔	-11.2757
▁안내판	-11.2757
▁분과	-11.276
▁해드리	-11.277
주면	-11.2783
▁동행	-11.2784
▁일식	-11.2787
겠다는	-11.2794
▁완료된	-11.2808
해둔	-11.2809
▁부어	-11.2815
▁놓을	-11.2822
낸	-11.2828
업체	-11.2841
▁지성	-11.2841
▁상관없	-11.2842
했고	-11.2845
겠니	-11.2845
되는지	-11.2846
▁추진	-11.2851
▁22	-11.2853
▁베이컨	-11.2854
▁졸업하	-11.2859
▁다녀오면	-11.286
준	-11.2861
▁작을	-11.2862
▁인도	-11.2864
▁머리카락	-11.2865
냐고	-11.2868
▁하나로	-11.2869
▁알아보는	-11.2875
었으니	-11.2882
▁느꼈	-11.2884
락	-11.2885
▁민원	-11.2894
개와	-11.2907
▁보여드리	-11.2907
짐	-11.2907
▁비율	-11.291
▁복사해	-11.2911
▁수준이	-11.2912
▁누르시	-11.292
▁어른들	-11.2921
▁전까지는	-11.2927
▁차단	-11.2929
▁자를	-11.293
▁철저	-11.2935
▁요일	-11.2936
▁반대하	-11.2936
피	-11.294
▁협찬	-11.2941
▁취소하려고	-11.2942
▁줄까	-11.2945
하는지	-11.2947
▁구매자	-11.2947
다며	-11.2956
▁분량	-11.2956
▁휴무	-11.2956
▁추천하는	-11.2957
▁비즈니스석	-11.2958
▁힘들고	-11.2967
▁과일이	-11.2968
▁신제품이	-11.2972
▁나가도	-11.2976
▁조절할	-11.298
▁마쳤	-11.2985
야겠어	-11.2986
▁오래전	-11.2992
▁품목이	-11.2992
▁라	-11.2998
▁제품명	-11.2999
▁과목이	-11.2999
▁우체국	-11.3
A	-11.3
▁작아	-11.3005
▁세척	-11.3005
▁양식이	-11.3007
저것	-11.301
금일	-11.3012
▁제품이라서	-11.3017
▁올리는	-11.302
▁멋있	-11.3021
▁성당	-11.3021
▁소비자가	-11.3025
▁정해	-11.3027
▁강조	-11.303
▁보내드렸는데	-11.303
▁받아오	-11.3035
▁어울려	-11.3038
▁비닐	-11.304
▁새기	-11.304
▁하얀색	-11.3041
▁상관없어	-11.3042
▁단위	-11.3043
▁됐네	-11.3044
▁말라	-11.3045
▁담겨	-11.3046
▁많더라	-11.3046
▁두꺼	-11.3049
팅	-11.3049
▁압니다	-11.3051
왔으면	-11.3051
▁무제한	-11.3053
▁구매가	-11.3053
▁암	-11.3057
▁오른	-11.3057
▁드라이	-11.3057
▁서류들	-11.3067
팩	-11.3072
▁먹이	-11.3075
▁고추	-11.3075
▁없으신	-11.3078
▁고속버스	-11.3082
▁꽂혀	-11.3083
▁곰팡이	-11.3083
▁된장찌개	-11.3083
▁매뉴얼	-11.3083
▁빨갛	-11.3083
▁생년월일	-11.3083
▁섞여	-11.3083
▁안녕하십니까	-11.3083
▁유모차	-11.3083
▁전광판	-11.3083
▁주민등록등본	-11.3083
▁줄넘기	-11.3083
▁질의응답	-11.3083
▁캄보디아	-11.3083
▁콘텐츠	-11.3083
▁감싸	-11.3083
▁봉사활동	-11.3083
▁영업이익	-11.3083
▁레슨	-11.3083
▁과외	-11.3083
▁마라톤	-11.3083
▁연필	-11.3083
▁간혹	-11.3083
▁일시불	-11.3083
▁축하드려요	-11.3083
▁경력직	-11.3083
▁죄송하며	-11.3083
▁안내방송	-11.3083
▁없으나	-11.3083
▁바탕	-11.3083
▁영양	-11.3083
▁후로	-11.3083
▁임금	-11.3084
이시죠	-11.3084
▁유사	-11.3084
▁세관신고서	-11.3084
▁분유	-11.3084
▁금발	-11.3085
▁배달료	-11.3085
▁딴	-11.3085
▁링크	-11.3085
▁차원에서	-11.3086
▁있겠군요	-11.3086
▁덕분입니다	-11.3086
▁둘째	-11.3087
▁펜션	-11.3088
▁말씀드린	-11.3089
▁낫겠네요	-11.3089
▁상관없는데	-11.3089
▁기획안	-11.309
▁운동하면	-11.3091
▁고객센터에	-11.3091
▁복잡한	-11.3091
▁팔리는	-11.3091
▁식대	-11.3092
▁많아져서	-11.3092
▁연구소	-11.3093
▁중요하지만	-11.3093
▁조화	-11.3093
▁피곤할	-11.3094
▁소주	-11.3096
▁생각하니	-11.3097
▁부드럽게	-11.3098
▁괜찮으니까	-11.3098
▁탔는데	-11.3098
되기	-11.3099
▁부탁드리고	-11.3099
▁드니까	-11.3099
▁이슈	-11.3099
▁산업	-11.3099
▁세제	-11.3101
▁회계팀	-11.3102
▁작성되어	-11.3102
▁남아있는데	-11.3103
▁넣었는데	-11.3103
▁누군가	-11.3103
▁다쳐서	-11.3103
▁가스	-11.3105
생	-11.3106
▁다르네요	-11.3107
▁꺼지	-11.3108
▁귀찮아서	-11.3108
▁안내해드릴게요	-11.3113
▁완료라고	-11.3113
▁적혀있어	-11.3114
▁기본요금	-11.3115
▁싶다는	-11.3115
▁식감이	-11.3116
▁제품보다	-11.3119
▁반대합니다	-11.312
▁나왔네요	-11.312
▁남아있어요	-11.3121
▁각질	-11.3123
▁가시죠	-11.3124
▁영업부에서	-11.3124
▁심해지	-11.3125
▁투	-11.3126
▁결함이	-11.3128
▁행복해	-11.3128
▁팀원들과	-11.313
▁상품들	-11.3131
▁오시나요	-11.3132
▁전시관	-11.3133
▁봤습니다	-11.3136
▁뉴스에서	-11.3138
▁합니다만	-11.3141
▁차선	-11.3142
▁싫어해서	-11.3142
▁들으면	-11.3142
▁있으시고	-11.3145
비는	-11.3145
▁직장에서	-11.3145
▁체력이	-11.3145
하다고	-11.3146
▁들려서	-11.3147
▁하시죠	-11.3148
▁막히지	-11.3148
▁입원비	-11.3151
▁온대	-11.3153
▁재미없	-11.3154
▁보죠	-11.3155
▁헬스장에서	-11.3156
▁예약할게요	-11.3156
▁가보려고	-11.3159
▁걸리니까	-11.3159
▁언제인지	-11.3164
▁왔던	-11.3164
▁잔액	-11.3165
▁나가자	-11.3166
▁구청	-11.3169
▁해주셨으면	-11.3169
▁갔어요	-11.317
▁정도예요	-11.3172
▁성공하	-11.3174
▁도와줄게	-11.3175
▁영수증에	-11.3175
▁본데	-11.3177
▁쓰니까	-11.3182
▁발급해	-11.3184
코	-11.3186
▁룸으로	-11.3189
▁알아볼	-11.3191
▁좋겠	-11.3194
▁없으시	-11.3197
▁곳이에요	-11.3198
▁남색	-11.3198
▁기종이	-11.3198
▁일정으로	-11.3199
▁점심시간이라	-11.3203
▁아니네요	-11.3203
▁했거든	-11.3206
▁해놓	-11.3206
▁너에게	-11.3208
▁물이랑	-11.3209
▁복싱	-11.3221
▁교체해	-11.3223
계	-11.3223
▁기다렸다	-11.3225
▁국내에서	-11.3226
▁맞은편에	-11.3228
▁자연스러	-11.323
▁지진이	-11.3231
▁일인지	-11.3232
놨는데	-11.3238
분께서	-11.3242
▁시장에서	-11.3248
▁서점	-11.3251
▁빌리면	-11.3251
▁입점	-11.3252
▁검색해보	-11.3255
▁불가능하고	-11.326
▁만만	-11.3263
개인	-11.3265
▁수령하	-11.3266
▁벗어나	-11.3272
하려는데	-11.3274
▁학생증	-11.3275
시인데	-11.3275
▁요리에	-11.3276
▁로봇	-11.3277
▁준비하면	-11.3277
▁여행하는	-11.3281
▁생각하기에	-11.3288
▁변동이	-11.3298
▁단기	-11.3299
▁결석	-11.3301
분씩	-11.3306
▁시도해	-11.3315
▁편지	-11.3315
▁친구분	-11.3319
▁참여하는	-11.3323
▁스케줄이	-11.3326
색이	-11.3334
▁미용실에	-11.3337
▁파업	-11.3337
▁고용하	-11.3344
▁송금	-11.3345
서요	-11.3349
▁컵라면	-11.335
▁참석해야	-11.3352
▁값이	-11.3352
5	-11.3354
무	-11.3355
▁처리하고	-11.3364
▁회의실에	-11.3366
▁병원이	-11.3367
▁개로	-11.3369
▁등에	-11.3369
달러로	-11.3374
▁방문하신	-11.3375
▁늦어지는	-11.3376
▁도착했어	-11.3376
▁환전해야	-11.3376
▁회원님	-11.3378
▁복구	-11.3381
▁카운터에	-11.339
▁열고	-11.3399
▁반값	-11.34
▁이용하려고	-11.3403
▁없어졌	-11.3406
▁변경해야	-11.3406
▁철	-11.3409
▁듯해	-11.3409
▁중요하다	-11.341
▁실패	-11.341
▁추천해준	-11.3412
▁사자	-11.3413
있습니다	-11.3415
▁놓쳐	-11.3417
드렸던	-11.3421
▁긴장되	-11.3423
▁시각에	-11.3426
▁600	-11.3427
▁설치하	-11.3427
▁해보세요	-11.343
▁육아	-11.3433
▁생산량	-11.3436
인실이	-11.3445
▁바뀌었어	-11.3446
▁둘러	-11.3446
▁찾아뵙	-11.346
▁부르는	-11.3464
▁하셨는지	-11.3467
▁오더	-11.3473
상의	-11.3473
▁취소하	-11.3475
▁입어보시	-11.3476
▁음식들이	-11.348
▁교환하려고	-11.3488
▁청소년	-11.3491
▁먹어보는	-11.3492
▁금식	-11.3494
로운	-11.3494
▁일인가요	-11.3495
▁붙어있	-11.3496
▁엉망이	-11.3496
▁어울릴까	-11.3501
▁먹을게	-11.3509
호실	-11.3509
오는	-11.3509
▁매점에	-11.351
▁그것만	-11.3519
해주는	-11.3519
▁보이니	-11.3519
▁놀라	-11.3523
▁의견에	-11.353
▁무섭	-11.3536
라던데	-11.3537
▁보이기	-11.3541
▁가볼까	-11.3542
▁말까지	-11.3547
▁승객	-11.3548
▁커피나	-11.3554
▁불렀	-11.3562
2,000	-11.3563
▁등급	-11.3568
▁은색	-11.3569
▁없어진	-11.3569
▁비밀	-11.3571
▁관광객이	-11.3573
▁붓	-11.3578
▁베	-11.3579
▁대사관에	-11.3583
▁마셨	-11.3586
▁티켓이	-11.3592
절	-11.3595
▁클럽	-11.3597
▁일어날	-11.3603
▁화장이	-11.3613
01	-11.3619
▁비행기에서	-11.3619
▁했었어	-11.3621
▁자연	-11.3621
▁전화할	-11.3623
▁웃기	-11.3626
▁재질이	-11.3627
것	-11.3633
층은	-11.3634
▁집안	-11.3638
▁올라가야	-11.3639
세트	-11.364
▁400	-11.3641
▁비우	-11.366
▁사라지	-11.3662
수가	-11.3664
▁동작	-11.3666
유로	-11.3667
▁물건들이	-11.3669
▁관리하는	-11.367
▁청소하	-11.367
▁막히	-11.3673
▁비싸다	-11.3673
▁지루해	-11.3675
▁해봤	-11.3675
▁최악이	-11.3681
▁보험사에	-11.3681
▁나라에	-11.3685
▁연락드렸어	-11.3687
▁승차	-11.3689
▁매점	-11.369
▁까다롭	-11.3692
크	-11.3695
▁예시	-11.3696
▁입고가	-11.3702
▁됐나	-11.3702
▁놀이터	-11.3709
▁말로	-11.3715
얼	-11.3719
탕	-11.372
▁무대에	-11.3722
▁날로	-11.3723
찬	-11.3729
시킬	-11.3729
▁설명해주실	-11.3731
▁상무님	-11.3732
▁홍보하는	-11.3732
▁결혼식	-11.3733
▁그려	-11.3735
▁장난감이	-11.3735
▁퇴원할	-11.3737
▁품절이	-11.374
▁재무팀	-11.3741
▁이렇게까지	-11.3745
▁금융	-11.3747
▁좌회전	-11.3747
▁마이크	-11.3752
▁즐겨	-11.3752
됐습니다	-11.3754
▁세안	-11.3755
▁안돼	-11.3755
▁다행이네	-11.3757
▁카드사	-11.3758
▁그중	-11.3759
▁시도해보	-11.3759
▁구체적	-11.3764
▁되겠네	-11.3765
▁아니더라	-11.3767
▁아쉽게	-11.3768
▁체	-11.3768
▁오랜	-11.3769
▁혈액	-11.377
▁골프	-11.3771
▁가보는	-11.3776
▁복귀	-11.3778
▁완벽	-11.3782
▁육	-11.3783
▁견	-11.3785
▁보습	-11.3786
▁소모	-11.3788
▁가는지	-11.3789
▁놔	-11.379
▁고등학생	-11.379
▁정치	-11.3791
▁구조	-11.3791
▁전공이	-11.3791
▁초안	-11.3792
▁저보다	-11.3795
▁아쉬운	-11.3795
▁모둠	-11.3796
g	-11.3797
▁셀프	-11.3797
▁반창고	-11.3797
▁부동산	-11.3797
▁소견서	-11.3797
▁아닙니까	-11.3797
▁어댑터	-11.3797
▁엑스레이	-11.3797
▁인트라넷	-11.3797
▁일어난	-11.3797
▁종업원	-11.3797
▁최초	-11.3797
▁케이터링	-11.3797
▁코엑스	-11.3797
▁트러블	-11.3797
▁특가	-11.3797
▁핫도그	-11.3797
▁홍차	-11.3797
▁훔쳐	-11.3797
▁액정	-11.3797
▁유니폼	-11.3797
▁유산균	-11.3797
▁사직서	-11.3797
▁근태	-11.3797
▁로밍	-11.3797
▁현황	-11.3797
▁평생	-11.3797
▁필터	-11.3797
▁헤매	-11.3797
▁의료	-11.3797
▁생선구이	-11.3797
▁귀여운	-11.3797
▁우버	-11.3797
▁연료	-11.3797
▁카트	-11.3797
▁아이폰	-11.3797
▁노선표	-11.3798
▁엔화	-11.3798
▁공복	-11.3798
▁소매	-11.3798
▁앞자리	-11.3798
▁넘어졌는데	-11.3798
▁소품	-11.3798
▁출입구	-11.3798
▁모서리	-11.3799
▁지사제	-11.3799
▁색조	-11.3799
▁쉬울	-11.3799
▁순환	-11.3799
▁두드러기	-11.38
▁퀄리티	-11.38
▁명확	-11.38
▁직무	-11.38
▁물류	-11.38
▁공포	-11.38
▁조항	-11.38
▁생겼는지	-11.38
왔어요	-11.38
▁그랬군요	-11.3801
▁본관	-11.3801
▁있겠죠	-11.3801
▁익혀	-11.3801
▁비상약	-11.3802
▁변비	-11.3802
▁배송료	-11.3802
▁230	-11.3802
▁있었는지	-11.3803
▁장거리	-11.3803
▁직진하시면	-11.3803
▁쉬었다	-11.3804
▁스타일링	-11.3804
▁라떼	-11.3804
▁어찌	-11.3805
▁심판	-11.3805
▁선약이	-11.3805
▁그녀	-11.3805
▁흔적	-11.3805
▁되겠군요	-11.3806
▁문의하	-11.3807
▁세탁물	-11.3807
▁자정	-11.3807
▁맞으세요	-11.3809
▁가족끼리	-11.3809
▁보여주셔야	-11.381
▁졸려	-11.381
▁한다던데	-11.381
▁그렇겠지	-11.381
▁살살	-11.3812
▁젤리	-11.3812
▁감사했습니다	-11.3813
▁계시네요	-11.3813
▁들어있습니다	-11.3813
▁되시고	-11.3814
▁오셨네요	-11.3814
▁누구한테	-11.3814
▁불편하네요	-11.3815
▁빌지	-11.3815
▁등록금	-11.3815
▁의상	-11.3815
▁말해주면	-11.3816
▁말씀드렸는데	-11.3816
▁공모전	-11.3817
▁먹을만한	-11.3819
▁초점	-11.382
▁긴데	-11.382
▁심한데	-11.382
▁처방받은	-11.3822
▁애초	-11.3825
▁사용해보세요	-11.3827
▁가까워서	-11.3829
▁요청사항	-11.383
▁없겠네요	-11.3832
▁인지도	-11.3834
▁놓치면	-11.3834
▁7,000	-11.3835
▁공연장	-11.3837
▁가져온	-11.3839
▁찍어드릴게요	-11.384
▁변기	-11.3842
▁찢어져	-11.3843
▁아니어서	-11.3845
▁불가능할	-11.3853
▁위쪽	-11.3855
▁이용했는데	-11.3857
▁체크해	-11.386
▁잡혀있	-11.3862
▁생겼어요	-11.3864
▁봤지	-11.3866
▁예쁘고	-11.3869
▁음식값	-11.3869
▁돌아서	-11.3872
▁작성할	-11.3872
▁남았어요	-11.3873
▁먹을게요	-11.3874
▁편의점에	-11.3875
▁왜요	-11.3876
▁졸업식에	-11.3877
▁있냐	-11.3878
▁늘어난	-11.3879
▁환	-11.3879
▁어렵지만	-11.3881
▁올라서	-11.3881
▁가야겠네요	-11.3883
▁않겠어요	-11.3883
▁정해지	-11.3884
▁시킬까	-11.3886
▁상태에	-11.3887
대가	-11.3889
▁구독	-11.3891
▁담당하는	-11.3892
▁품질이	-11.3895
▁되더라	-11.3899
▁담백	-11.39
▁추천해줘	-11.3904
▁참석해	-11.3904
▁미술관에서	-11.3905
▁지내는	-11.3907
▁방송에서	-11.3908
▁턱	-11.3909
▁받으시고	-11.3909
▁됐고	-11.3911
▁바퀴	-11.3911
▁좌석에	-11.3911
▁분야에서	-11.3911
▁쓰여있는	-11.3912
▁연결되어	-11.392
▁짜서	-11.3922
▁어쩌다	-11.3924
▁고맙다	-11.3926
▁모임에	-11.3926
어진	-11.3928
▁보고하	-11.3929
▁위치에	-11.3929
▁공원에서	-11.3931
▁판매합니다	-11.3935
▁쪽은	-11.3941
▁갔지	-11.3941
▁방음	-11.3944
▁45	-11.3947
▁건성	-11.3947
았습니다	-11.3949
▁친절하	-11.3949
▁결제하는	-11.3949
▁선택하	-11.3951
비가	-11.3952
▁운행하는	-11.3953
▁가지만	-11.3955
▁작성하는	-11.3956
▁제시하	-11.3958
▁소독약	-11.3958
▁해드려요	-11.396
▁이달	-11.396
▁보내려고	-11.3962
▁문제인지	-11.3962
▁터져	-11.3963
▁놀이	-11.3964
▁돌면	-11.3967
▁차량에	-11.3968
▁간장	-11.397
▁표지판이	-11.3971
볼까	-11.3974
▁팔려	-11.3974
▁촬영해	-11.3974
▁쪽지	-11.3977
▁신입사원들	-11.398
▁조건으로	-11.398
▁적고	-11.3982
▁대학에	-11.3983
▁이거랑	-11.3985
▁폭	-11.3991
▁찾아와	-11.3994
▁음식점이	-11.3998
▁않았고	-11.3998
▁통역사	-11.4005
▁보여주면	-11.4006
▁리가요	-11.4007
▁입원하	-11.4008
▁진행하기	-11.4009
▁때보다	-11.4014
▁수표로	-11.4014
▁추가금액	-11.4016
자에게	-11.4017
▁빠르다	-11.4021
▁넣어두	-11.4021
▁배로	-11.4025
▁안내해드릴	-11.4026
▁보유	-11.4026
▁골목길	-11.4029
어져서	-11.4038
▁가려는	-11.4042
▁후원	-11.4042
▁보이면	-11.4042
▁스	-11.4043
▁모이	-11.4045
▁우승	-11.4048
▁판다	-11.4052
했거든	-11.4055
▁다음번	-11.406
▁약도	-11.4064
▁나니	-11.4066
▁데스크	-11.4067
쳐서	-11.4069
▁선보이	-11.407
▁이동하	-11.4073
▁묻어	-11.4074
▁빵이	-11.4075
▁없지요	-11.4082
▁통이	-11.4087
▁있던데요	-11.4093
▁가까우니	-11.4095
▁오려고	-11.4097
▁달력	-11.4097
▁신상	-11.4099
실로	-11.4107
▁전부입니다	-11.4108
▁않은데요	-11.4114
▁지각이	-11.4118
하려는	-11.412
▁현상이	-11.4121
▁추천받	-11.4121
▁하여	-11.4122
었는데요	-11.4123
▁이미지에	-11.4127
▁중국으로	-11.4127
▁필요하다는	-11.4129
▁거스름돈	-11.4141
▁점심시간이	-11.4141
▁노력해	-11.4143
▁실수한	-11.4144
▁어디든	-11.415
물이	-11.4162
▁대고	-11.4172
▁인도장	-11.4173
▁심해	-11.4174
▁바꿨	-11.4179
▁동기들	-11.418
다시피	-11.4182
▁선배님	-11.4187
▁전인데	-11.4189
▁돼서요	-11.4191
▁나가기	-11.4195
▁제목	-11.42
▁재계약	-11.4206
봐야	-11.4206
받을	-11.4207
▁대학교에	-11.4207
▁입금해	-11.4208
▁한정식	-11.4218
▁이루어지	-11.4221
▁대단하	-11.4222
▁덜어	-11.4227
▁환영	-11.4228
역	-11.423
▁말씀해주신	-11.4231
▁약정	-11.4233
▁빌려줄	-11.4234
▁놀랐	-11.4235
▁낮춰	-11.4235
액	-11.4237
▁소진	-11.4241
정도	-11.4247
재	-11.4248
▁렌트	-11.4253
▁귀중품	-11.4255
▁방식이	-11.4257
▁그치	-11.4257
▁필기	-11.426
▁않았는데요	-11.4261
▁원이고	-11.4264
▁모자라	-11.4266
▁확장	-11.4271
키	-11.4272
▁지원해주	-11.4273
▁향상	-11.4279
▁예약하	-11.4279
▁들여	-11.4279
▁많나	-11.4287
포	-11.4292
▁개봉하	-11.4293
▁강사	-11.4294
▁음주운전	-11.4294
▁확인서	-11.4302
▁답이	-11.4304
▁나왔으니	-11.4304
줍니다	-11.431
▁설치해	-11.4311
▁달까지	-11.4312
프	-11.4325
▁적절	-11.4334
▁드리지	-11.4336
으실	-11.4337
했더니	-11.4346
▁걸렸	-11.4347
▁치워	-11.435
▁노출	-11.4356
거예요	-11.4356
▁쓰여있	-11.4357
▁심각하	-11.4361
▁버스보다	-11.4361
별	-11.4367
▁내려갈	-11.4367
▁위약금	-11.4374
▁시간이라서	-11.4378
함	-11.4382
익	-11.4382
▁어렵다	-11.4383
▁수영장에	-11.4384
▁가능은	-11.4388
왔는데	-11.4392
력	-11.4394
▁듯하	-11.4404
▁이메일이	-11.4414
▁31	-11.4418
▁유지하	-11.4419
▁맞을까	-11.4426
놓을게요	-11.4426
▁팔렸	-11.4426
▁넘어가	-11.4429
▁한강	-11.4431
호로	-11.4434
▁손질	-11.4436
▁바꿔드릴	-11.4441
▁물로	-11.4445
개월까지	-11.4447
▁이마	-11.4447
▁kg	-11.4449
▁폐	-11.4451
▁공부하면	-11.4452
문	-11.4458
시느라	-11.446
▁신뢰	-11.446
▁해외로	-11.4461
투	-11.4463
▁방문한	-11.4463
들에	-11.4463
▁경기장에	-11.4466
항	-11.4468
박에	-11.4469
▁부서별	-11.4472
토	-11.4473
▁약한	-11.4475
▁계십니	-11.4477
▁해결할	-11.4482
▁가기에	-11.4482
▁공급	-11.4483
힐	-11.4484
▁장이	-11.449
실까요	-11.4492
▁검진	-11.4493
▁판매자	-11.45
▁막혀	-11.4504
▁입국심사	-11.4507
▁현	-11.4508
바	-11.4509
▁가봐	-11.4515
▁기업이	-11.4522
하더니	-11.4522
▁토핑	-11.4524
▁힘드네	-11.4526
▁소속	-11.4526
▁있겠네	-11.4527
▁정도입니다	-11.4527
시간씩	-11.4531
▁맞네	-11.4535
▁큰일인데	-11.4535
▁왔네	-11.4536
▁사양	-11.4536
중에	-11.4538
▁800	-11.4543
▁깔	-11.4544
▁재밌을	-11.4544
님께서	-11.4546
▁가야겠어	-11.4548
▁때문인	-11.4548
▁칵테일	-11.455
▁임산부	-11.4557
▁특허	-11.4559
▁우회전	-11.4559
▁병이	-11.456
▁남았으니	-11.4564
▁재활	-11.4565
▁옆자리	-11.4565
▁응급	-11.4566
▁체육	-11.4566
▁붉은	-11.4566
▁블랙	-11.4566
▁갑각류	-11.4566
▁공기청정기	-11.4566
▁끓여	-11.4566
▁동남아시아	-11.4566
▁마라탕	-11.4566
▁바우처	-11.4566
▁스펀지	-11.4566
▁아보카도	-11.4566
▁아이템	-11.4566
▁응급처치	-11.4566
▁전자담배	-11.4566
▁피아노	-11.4566
h	-11.4566
▁배고파	-11.4566
▁퀴즈	-11.4566
▁키오스크	-11.4566
▁패밀리	-11.4566
▁시외버스	-11.4566
▁면담	-11.4566
▁접촉사고	-11.4566
▁고궁	-11.4566
▁런던	-11.4566
▁건전지	-11.4566
▁직항	-11.4566
▁신메뉴	-11.4566
▁애플	-11.4566
▁파견	-11.4566
▁여름휴가	-11.4566
▁스프레이	-11.4566
▁전자제품	-11.4566
▁자외선	-11.4567
▁욕	-11.4567
▁상영관	-11.4567
▁올라간	-11.4567
▁여성복	-11.4567
▁비상구	-11.4567
▁많으셨습니다	-11.4568
▁침구	-11.4568
▁접종	-11.4568
▁뷰	-11.4568
▁꿀	-11.4569
▁간략하게	-11.457
▁유감스럽	-11.457
▁카	-11.4571
▁연령대	-11.4571
▁환불처리	-11.4572
▁대구	-11.4572
었잖아	-11.4573
▁보였는데	-11.4573
▁하얀	-11.4573
▁1,500	-11.4573
▁원작	-11.4574
▁클렌징	-11.4574
▁찾았	-11.4575
▁소용이	-11.4575
▁떨어졌는데	-11.4575
▁대관	-11.4575
▁파손된	-11.4575
▁끝났습니다	-11.4575
▁회사들	-11.4575
▁메모리	-11.4576
▁당황스럽	-11.4576
▁하마	-11.4576
▁본체	-11.4577
▁흡연실	-11.4578
▁남았습니다	-11.4579
▁26	-11.4579
▁부족한데	-11.4579
▁단맛	-11.458
▁볼래	-11.458
▁보내드려	-11.458
▁행복한	-11.4581
▁왔으니까	-11.4581
▁일반적으로	-11.4583
▁가능하시고	-11.4583
▁양보	-11.4583
▁열리지	-11.4584
▁내년부터	-11.4584
▁난이도	-11.4584
▁퍼센트	-11.4585
▁걸리네요	-11.4585
▁넣었어	-11.4585
▁있으셨나요	-11.4586
▁도착했다고	-11.4587
▁연주	-11.4587
▁봤었는데	-11.4587
▁버스표	-11.4589
▁보증서	-11.459
▁지켜야	-11.459
▁왔었는데	-11.4591
▁부부	-11.4591
▁뜯어서	-11.4591
▁해보려고	-11.4591
▁순대	-11.4592
▁남성용	-11.4592
▁홍보물	-11.4593
▁마시는데	-11.4593
▁표현	-11.4593
▁하려는데	-11.4594
▁넘으면	-11.4595
▁말했잖아	-11.4596
▁많으신	-11.4596
▁가져왔어요	-11.4597
▁기다려주시겠어요	-11.4599
▁상호	-11.4599
졌습니다	-11.4599
▁설	-11.46
▁사라졌어요	-11.46
▁대단해	-11.4601
▁벤	-11.4601
▁실망	-11.4602
▁감량	-11.4603
▁나가실	-11.4603
▁입어야	-11.4603
▁좋아했는데	-11.4603
▁먹었습니다	-11.4604
▁않았네요	-11.4606
▁하겠지만	-11.4607
▁저렴해서	-11.4607
▁개인카드	-11.4609
▁결제해드릴게요	-11.461
▁뭐라	-11.4611
▁있더라고	-11.4611
▁법적으로	-11.4611
▁좋아한다고	-11.4612
▁달라진	-11.4612
▁뽑아야	-11.4613
▁조치하	-11.4613
▁지원금	-11.4615
▁되었으니	-11.4617
▁익히	-11.4618
▁운전하면	-11.4621
▁다행이지	-11.4621
▁전복	-11.4624
▁있겠지만	-11.4625
▁봐주시면	-11.4625
▁듣는데	-11.4626
▁지점에	-11.4627
▁있었지	-11.4628
▁달간	-11.463
▁찾아왔는데	-11.4631
▁자판기	-11.4635
▁외부에서	-11.4635
▁시장이	-11.4636
▁접대	-11.4636
▁4,000	-11.4637
▁편이야	-11.4637
▁비어있는	-11.4638
▁운전하기	-11.4639
▁방영	-11.4639
▁포장할	-11.464
▁동의서	-11.464
▁주간	-11.4642
▁넘겨	-11.4642
▁분에게	-11.4644
▁정하면	-11.4645
▁하겠네요	-11.4646
▁강의실	-11.4647
▁장부	-11.4649
▁나아요	-11.4649
▁부모님께서	-11.465
▁간다	-11.4652
버리고	-11.4655
▁샀어요	-11.4656
▁좋으니까	-11.4656
▁주문했어요	-11.4658
▁품절이라	-11.4659
▁해주면	-11.4659
▁계산해주세요	-11.466
▁사야겠어	-11.4662
▁드라이기	-11.4663
▁생각하지만	-11.4667
▁낫겠어	-11.4668
▁예측	-11.4668
▁위생	-11.4669
▁현장에	-11.4672
▁자유시간	-11.4674
되었는데	-11.4674
▁그러다가	-11.4676
▁다인실	-11.4676
정작	-11.4678
▁홍보할	-11.4685
▁분야에	-11.4685
▁다르기	-11.4689
▁쓰려고	-11.4691
▁늘어났	-11.4691
▁사람인데요	-11.4691
▁환전하면	-11.4695
분간	-11.4695
▁다르니까	-11.4698
▁새해	-11.4699
▁책임지	-11.4702
▁시스템에	-11.4708
놨어요	-11.4708
▁추천하고	-11.4708
▁법무팀에	-11.4711
▁되시면	-11.4712
▁되었네	-11.4714
▁시험에	-11.4716
▁기대돼	-11.4718
▁싶었	-11.4722
▁가나	-11.4723
▁어르신들	-11.4723
▁동봉	-11.4727
▁주려고	-11.473
▁원단	-11.4731
▁내놓	-11.4731
▁상품들이	-11.4731
▁돌잔치	-11.4732
▁사장님과	-11.4735
▁마트에	-11.4736
놓고	-11.4737
0	-11.4741
▁찬성	-11.4742
역까지	-11.4744
▁변경하려고	-11.4745
▁달라서요	-11.4746
▁일어났	-11.4749
▁주말까지	-11.475
▁부서와	-11.4753
▁나오니까	-11.4755
▁동네에서	-11.4755
라는데	-11.4756
▁편에	-11.4761
▁작년보다	-11.4764
▁이체	-11.4764
▁시작된	-11.4765
▁크기에	-11.477
▁칠	-11.4774
시키는	-11.4776
▁용	-11.4776
▁줄게요	-11.4779
▁나가지	-11.4782
▁코너에서	-11.4784
▁원합니다	-11.4788
▁소화기	-11.4789
▁줬	-11.479
▁해산물이	-11.4795
▁열린다	-11.4797
▁상태인데	-11.4797
▁하며	-11.4798
▁어제보다	-11.4798
▁큰데	-11.48
▁바뀌	-11.4804
▁무시	-11.4805
▁배송된	-11.4807
▁테스트해	-11.4808
▁실례합니다만	-11.4808
테니	-11.4812
▁인식이	-11.4814
▁저쪽에서	-11.4816
▁커피랑	-11.4816
▁지하로	-11.4819
▁효과적	-11.4819
▁디자인과	-11.4823
▁예정이라서	-11.4826
▁부족하	-11.4827
▁변경된	-11.4829
▁곤란하	-11.4835
▁흡수	-11.4835
▁잡으려	-11.4837
▁버리는	-11.4839
▁정리하	-11.4844
▁왕	-11.4845
▁마음으로	-11.485
▁가라고	-11.485
▁풀려	-11.4851
▁거네	-11.4854
▁제작이	-11.4859
▁가던	-11.4862
▁방석	-11.4866
▁좋던데	-11.4866
타	-11.4868
▁이곳으로	-11.4869
하셨다면	-11.4869
▁볼까요	-11.487
용품	-11.4872
책	-11.4872
▁텀블러	-11.4872
▁교육이	-11.488
▁팀원이	-11.4881
▁계절	-11.4887
돼	-11.489
▁마약	-11.4892
▁놀이공원에	-11.4896
▁드라마에서	-11.4896
▁따라와	-11.4896
겠으니	-11.4898
▁수요일이	-11.4898
▁원하시는지	-11.4902
▁잘할	-11.4904
▁완성되	-11.4905
▁표정	-11.491
▁없기	-11.4915
▁시작하고	-11.4922
▁있으셔	-11.4928
▁펜이	-11.4929
▁완화	-11.493
봐야겠어요	-11.4936
▁않지	-11.4936
▁좋은가요	-11.4938
▁섬	-11.4942
▁인천공항	-11.4943
▁않았으니	-11.4943
▁그분들	-11.4946
▁저렴하다	-11.4946
▁전화드렸	-11.4951
▁삭제	-11.4952
▁중국에	-11.4953
▁방송이	-11.4971
▁뛰어나	-11.4972
▁할인되는	-11.4979
▁좋아하고	-11.4981
▁선반	-11.4981
▁세계적	-11.4985
팀이	-11.4988
▁만기	-11.4989
부에	-11.4995
▁세기	-11.4995
시에서	-11.4997
▁사업이	-11.4997
▁남아있어	-11.5
▁괜찮으시겠	-11.5001
▁자제	-11.5004
▁매력	-11.5006
▁참여해야	-11.5016
이지	-11.5016
▁착각했	-11.5017
▁맵	-11.5017
▁축하해줘	-11.5025
으셔서	-11.5031
▁불편하셨	-11.5035
▁휴일	-11.5036
▁건조하	-11.5038
▁피자가	-11.5041
하라고	-11.5043
이신데	-11.5046
뿐	-11.5047
▁이물질	-11.5049
▁적어야	-11.5053
▁상영	-11.5057
▁학과	-11.5059
▁쉬면	-11.5059
▁시작이	-11.5059
▁것인데	-11.5061
▁회수	-11.5067
▁목적이	-11.5067
원은	-11.5072
▁취하	-11.5073
▁주머니	-11.5077
▁일이지	-11.5079
▁만료	-11.5081
▁땅콩이	-11.5084
곳	-11.5093
▁넣어주시	-11.5093
▁생일이라	-11.5093
값이	-11.5097
▁건강이	-11.51
▁아까워	-11.5101
▁계약에	-11.5104
▁경쟁력	-11.5108
▁단어	-11.5108
민	-11.5113
▁잠들	-11.5115
경	-11.5116
▁예약했어	-11.512
함이	-11.512
▁표지	-11.5121
▁휴직	-11.5121
▁수술이	-11.5122
리고	-11.5123
개까지	-11.5123
▁날개	-11.5126
공	-11.5126
▁저만	-11.5128
▁있었는데요	-11.5128
▁어려우	-11.5129
▁적립이	-11.5129
셨다니	-11.5129
식이	-11.5133
▁좋다는	-11.5133
▁디	-11.5136
심	-11.5138
▁지연	-11.5142
▁소책자	-11.5142
▁시식	-11.5147
팀에	-11.5148
▁찾아갈	-11.5153
되었다고	-11.5154
인용	-11.5155
▁정오	-11.5155
▁회의할	-11.5161
9	-11.5162
시키	-11.5177
▁놨	-11.5181
▁정리한	-11.5182
▁송	-11.5189
▁사안	-11.5194
해준	-11.5194
▁집중하	-11.5195
▁아름답	-11.5196
해드리면	-11.5197
▁독	-11.5201
▁난방	-11.5201
보니까	-11.5202
▁이직하	-11.5203
▁박람회에	-11.5203
▁출고가	-11.5204
▁출발해야	-11.5205
▁설문	-11.5209
▁그럴까	-11.5211
▁곳보다	-11.5216
▁밑반찬	-11.5219
였는지	-11.5227
▁포함되는	-11.5229
▁드셔보시	-11.523
▁선물용	-11.5242
▁없다니	-11.5242
▁하셔	-11.5243
하시죠	-11.5244
놓	-11.5245
번호	-11.5246
▁지하철역에	-11.5248
보험	-11.5249
▁추천해주	-11.525
시간이면	-11.5254
▁자르는	-11.5258
▁난감하	-11.5263
▁지각할	-11.5263
로부터	-11.5268
▁운동장	-11.527
▁도착했	-11.5271
쁘게	-11.5272
▁되겠어	-11.5273
▁종점	-11.5282
▁찍으	-11.5283
업무	-11.5285
▁가까워	-11.5289
▁빙수	-11.5291
▁학	-11.5291
▁대처	-11.5291
▁중단	-11.5293
▁포장된	-11.5295
것같아	-11.5295
▁좋더라고	-11.5297
▁돌려받	-11.5299
▁열정	-11.5306
▁활용하	-11.531
▁요소	-11.5312
▁가정	-11.5315
▁멤버	-11.5315
▁체력	-11.5321
한대	-11.5322
▁닫아	-11.5328
▁입찰	-11.5328
새	-11.5329
▁기뻐	-11.533
▁어둡	-11.5332
▁휴게	-11.5333
▁단골	-11.5333
▁들었나	-11.5337
▁시티	-11.5338
▁주의해	-11.5339
▁쇼	-11.5341
▁신청하	-11.5341
▁범죄	-11.5342
▁동기	-11.5344
▁항의	-11.5351
▁치우	-11.5353
학기	-11.5354
▁스키	-11.5354
▁되고요	-11.5357
▁헷갈려	-11.5358
▁없어졌어	-11.536
▁어떨	-11.5363
▁책으로	-11.5364
▁부장님께	-11.5369
▁가져와야	-11.537
▁세로	-11.537
▁뜨겁	-11.5376
▁믿어	-11.5379
▁상여금	-11.5381
▁하거든	-11.5381
▁찌	-11.5386
▁겁	-11.5389
▁챙겨야	-11.539
▁스캔	-11.539
▁조절해	-11.539
▁옆방	-11.5391
▁대행	-11.5391
▁무서운	-11.5393
▁유심	-11.5393
▁하늘	-11.5394
▁해봤어	-11.5394
▁바깥	-11.5395
▁봉	-11.5396
▁노란	-11.5397
▁상표	-11.5397
춘	-11.5399
▁상업	-11.5399
▁아이섀도	-11.5399
▁낙지	-11.5399
▁기저귀	-11.5399
▁늦춰	-11.5399
▁미성년자	-11.5399
▁겉에	-11.5399
▁계란말이	-11.5399
▁끄고	-11.5399
▁더블베드	-11.5399
▁디즈니랜드	-11.5399
▁리무진	-11.5399
▁붕대	-11.5399
▁빨대	-11.5399
▁스캐너	-11.5399
▁스쿼트	-11.5399
▁웃긴	-11.5399
▁위스키	-11.5399
▁탐방	-11.5399
읍	-11.5399
▁베이징	-11.5399
▁재수강	-11.5399
▁린스	-11.5399
▁운동기구	-11.5399
▁인감증명서	-11.5399
▁케이블카	-11.5399
▁패키지여행	-11.5399
▁시장조사	-11.5399
▁손잡이	-11.5399
▁맞춤	-11.5399
▁비롯	-11.5399
▁엊그제	-11.54
▁마을버스	-11.54
▁족발	-11.54
▁단발머리	-11.54
▁눈곱	-11.54
▁잘됐다	-11.54
▁체육대회	-11.54
▁한정판	-11.54
▁2019	-11.54
▁외투	-11.54
▁생활용품	-11.54
▁고데기	-11.54
▁스위트룸	-11.54
▁관절	-11.54
▁꼭대기	-11.5401
▁대책	-11.5401
▁왜냐하면	-11.5401
▁다르겠지만	-11.5401
▁길어질	-11.5401
▁많으셨어요	-11.5401
▁샤프심	-11.5401
▁마중	-11.5401
▁치아	-11.5401
▁응급차	-11.5402
▁유아용	-11.5402
▁않으세요	-11.5402
▁감사하지만	-11.5402
▁상체	-11.5402
▁기다릴게요	-11.5403
▁케첩	-11.5403
▁패치	-11.5403
▁확인하는	-11.5403
▁나아질	-11.5403
▁그랬구나	-11.5404
▁찾아봤는데	-11.5405
▁자격	-11.5405
▁눌렀는데	-11.5405
▁도안	-11.5405
▁지나간	-11.5405
▁났는지	-11.5406
▁경영지원팀	-11.5406
▁예산안	-11.5406
▁물어볼게	-11.5406
▁쓰이는	-11.5406
▁때문이죠	-11.5406
▁무서운데	-11.5406
▁걱정돼	-11.5407
▁일정표	-11.5407
▁순차	-11.5407
▁전시되어	-11.5408
▁머무르	-11.5408
▁땅	-11.5408
▁그래프	-11.5409
▁오길	-11.5409
▁보관소	-11.5409
▁마른	-11.5409
▁늦었습니다	-11.541
▁보험료	-11.541
▁예쁘네요	-11.541
주로	-11.5411
▁확대	-11.5411
▁들리는데	-11.5412
▁좋겠죠	-11.5412
▁실물	-11.5412
▁들어왔어요	-11.5413
▁않으시면	-11.5413
▁비중	-11.5414
▁라테	-11.5414
▁시청률	-11.5415
▁대행사	-11.5416
▁와인잔	-11.5416
▁회진	-11.5416
▁점원	-11.5417
▁교수님한테	-11.5417
▁주연	-11.5417
▁쳐다보	-11.5417
▁궁금하	-11.5418
▁죄송하고	-11.5419
▁딱딱한	-11.5419
▁기쁘	-11.542
▁발음	-11.542
▁갖추고	-11.5421
▁과장님께서	-11.5421
▁미팅룸	-11.5421
▁들어갔는데	-11.5421
▁단기간에	-11.5422
▁회비	-11.5422
▁불편한데	-11.5422
▁낮아서	-11.5423
▁써보세요	-11.5423
▁소식이네요	-11.5424
▁느낌이에요	-11.5424
▁관람할	-11.5426
▁편하신	-11.5426
▁강하게	-11.5426
▁이래서	-11.5426
▁하체	-11.5426
▁나왔으면	-11.5426
시스	-11.5427
▁분들에게	-11.5427
▁기차역까지	-11.5429
▁기상	-11.5429
▁고객에게	-11.5429
▁지루하	-11.5431
▁기다리겠습니다	-11.5431
▁어머니께서	-11.5433
▁있었다고	-11.5433
▁최고야	-11.5434
▁언젠가	-11.5435
▁리뷰	-11.5435
▁경과	-11.5436
▁올래	-11.5437
가량	-11.5439
▁스트레스받	-11.5441
▁의심	-11.5442
▁좋아져서	-11.5443
▁확인되었습니다	-11.5444
▁조식이	-11.5444
호에	-11.5448
▁쓴다고	-11.5448
▁하던가요	-11.5449
▁틈	-11.545
▁불가능하	-11.5451
▁끝났고	-11.5452
▁자료에	-11.5453
▁앞이	-11.5453
▁영화관에	-11.5454
▁요청하시면	-11.5454
▁해보시	-11.5454
▁테이블이	-11.5454
▁됐는지	-11.5454
▁구매할게요	-11.5455
▁잘했네요	-11.5455
▁명시	-11.5456
▁났다	-11.5459
▁세탁실	-11.5462
▁뻔했어요	-11.5465
▁가운	-11.5466
▁근육량	-11.5467
▁받는다고	-11.5468
▁생일이	-11.5471
▁잡혀서	-11.5471
▁들어가자	-11.5472
▁자문	-11.5473
▁신청하시면	-11.5476
▁한다는데	-11.5477
▁거겠지	-11.548
▁말씀해주시	-11.5485
▁알려주신	-11.5486
▁내선	-11.5486
▁알잖아	-11.5487
▁없더라	-11.5487
▁도심	-11.5489
▁간판이	-11.5492
▁하겠어요	-11.5492
▁괜찮지만	-11.5492
▁배려	-11.5493
▁야근하는	-11.5493
▁않겠습니다	-11.5494
▁맛있네요	-11.5494
▁잔돈	-11.5499
▁감정	-11.55
▁놓을게요	-11.5501
▁미나	-11.5501
▁현장에서	-11.5502
▁접수하	-11.5504
▁작품에	-11.5504
▁페이지에	-11.5505
▁걷고	-11.5507
▁참가하	-11.5508
번이나	-11.551
▁해주지	-11.5512
▁받습니다	-11.5514
▁그러나	-11.5516
▁맵기	-11.5517
▁있었잖아	-11.5517
▁주셨는데	-11.5518
▁되실	-11.5519
▁보내줄게	-11.5519
▁보장	-11.5519
▁거래처와	-11.5522
▁좋겠지	-11.5524
▁공책	-11.5525
▁부족하다	-11.5527
▁편리한	-11.5528
▁중이라서요	-11.5529
스트	-11.5529
▁필요해서요	-11.553
▁생각했어요	-11.5531
▁총금액	-11.5538
▁드렸는데요	-11.5538
권이	-11.5538
▁비행시간	-11.5538
▁시절	-11.554
▁정한	-11.554
▁사용하기	-11.554
▁여쭤보려고	-11.554
▁조장	-11.5542
▁대단	-11.5542
▁내리지	-11.5543
▁성공할	-11.5544
▁케이블	-11.5544
▁리본	-11.5546
▁처음이에요	-11.5547
▁응급실	-11.5547
▁예능이	-11.5554
였으니	-11.5556
▁부분인데	-11.5559
▁생각해보니	-11.5565
▁이어폰이	-11.5566
▁하지요	-11.5566
해봤는데	-11.5566
▁아시는	-11.5568
망	-11.557
▁가봤	-11.5571
▁어린이집	-11.5571
▁선호하시	-11.5572
▁잡기	-11.5573
▁음료로	-11.5577
▁분께서	-11.5578
▁추가하시면	-11.5579
▁현지에	-11.558
▁좋아하시	-11.5581
▁공항이	-11.5582
▁유럽에	-11.5584
▁안내서	-11.5585
▁본사에	-11.5585
▁고생했어	-11.5587
▁무릎이	-11.5596
▁시작되는	-11.5597
▁하셨	-11.5598
▁신청하는	-11.5599
▁방지	-11.5602
▁매점이	-11.5606
▁틀렸	-11.5609
▁미안해요	-11.561
▁정하고	-11.5612
▁중국어로	-11.5615
되겠죠	-11.5617
▁늘려야	-11.5619
▁원인이	-11.5628
든지	-11.563
▁싶기	-11.5631
▁귀에	-11.5633
▁느끼한	-11.5633
▁나에게	-11.5635
▁나왔다	-11.564
▁하는군요	-11.564
▁놓았	-11.5641
▁취급하	-11.5645
▁내용물	-11.5646
버릴	-11.5646
드려	-11.5647
▁설치하는	-11.5647
원이면	-11.5653
▁가니	-11.5654
▁먹여	-11.5655
▁가니까	-11.5657
▁구하	-11.5659
▁일들이	-11.5666
금액	-11.567
▁씻어	-11.5674
▁나쁘	-11.5677
▁관객	-11.5678
▁죄송	-11.568
▁유턴	-11.5681
▁총액	-11.5681
봐야겠네요	-11.5683
이란	-11.5684
▁천장	-11.5686
▁여름이라	-11.57
▁문제없을	-11.57
분들	-11.5707
▁입원해	-11.5708
▁진료받	-11.5709
▁내려가면	-11.5712
▁자체에	-11.5713
▁먹으니	-11.5718
▁단순한	-11.5718
하셨다고	-11.5718
▁보완	-11.572
▁내장	-11.572
▁바늘	-11.572
▁타임	-11.5725
▁사용하려고	-11.5728
▁포인트로	-11.5733
일까	-11.5735
▁찍기	-11.574
▁결혼식에	-11.5746
▁머	-11.5749
▁청구하	-11.5751
▁줄이기	-11.5754
▁통에	-11.5755
▁필요하실	-11.5758
▁일한	-11.5759
▁것이죠	-11.576
▁실행	-11.5763
줄래	-11.5764
▁판매되는	-11.5768
▁붙여야	-11.5768
듯해요	-11.5769
▁카메라는	-11.5776
▁입맛이	-11.5776
명이고	-11.5778
▁가능하니까	-11.5781
▁풀릴	-11.5786
▁프로그램에서	-11.5787
▁도착하기	-11.5789
▁회원이	-11.5796
▁팬들	-11.5796
▁모임이	-11.5798
▁유튜버	-11.5802
▁동아리에서	-11.5804
부로	-11.5805
▁어린이들	-11.5815
▁배편	-11.5816
▁공문	-11.5823
▁운동한	-11.5824
▁있지요	-11.5831
▁기재해	-11.5831
부에서	-11.5834
텐데	-11.5836
▁저희와	-11.5837
▁전망이	-11.5848
▁사수	-11.5851
▁별개	-11.5856
▁촉박하	-11.5859
이었던	-11.586
▁현실	-11.5865
▁운전해	-11.5866
▁달라지	-11.5875
▁길인데	-11.5876
▁마르	-11.5876
▁그렇게까지	-11.588
▁주쯤	-11.5887
평	-11.5888
거라	-11.5888
▁끝냈	-11.5888
년도	-11.589
▁건이	-11.5892
해볼까	-11.5899
▁도전	-11.59
▁잘하지	-11.5906
▁연락할	-11.591
▁보여줘	-11.5915
명에	-11.5916
▁구석에	-11.592
▁맛집이	-11.592
▁안대	-11.5921
▁조합	-11.5925
▁발생할	-11.5926
▁세탁기에	-11.5931
▁과실	-11.5932
▁가전제품	-11.5937
▁부러	-11.5944
▁성실	-11.5945
▁발생하는	-11.5949
▁트럭	-11.595
▁맞습니다만	-11.5953
▁승무원	-11.596
▁바쁘지	-11.5962
▁내리셔	-11.5966
▁전과	-11.5968
▁뿌듯	-11.5978
▁없으셨	-11.5978
▁높여	-11.5979
▁해두	-11.5995
▁파기	-11.5996
▁기둥	-11.5996
▁모를	-11.6003
▁개강	-11.6006
▁공이	-11.6007
▁보관할	-11.6014
▁불편하실	-11.6018
▁신선	-11.6018
▁길거리	-11.6018
▁약국에	-11.6019
▁적어주	-11.6021
▁짓	-11.6024
▁말씀드려야	-11.6025
▁연말이라	-11.6029
▁사람이랑	-11.603
▁사랑	-11.6031
▁저장해	-11.6033
▁대용량	-11.6034
▁축하한다	-11.6037
▁너와	-11.6042
▁좋아하시나	-11.6044
▁부딪	-11.6047
셨군요	-11.6057
▁나사	-11.6057
▁캠핑	-11.6057
분한테	-11.6064
▁운동에	-11.6066
▁다행이	-11.6069
▁단점	-11.6071
▁도와드려	-11.6084
▁건물로	-11.6086
▁주무시	-11.6088
▁좋은지	-11.6093
▁행	-11.6095
▁넘어지	-11.6097
▁출판	-11.6099
▁방법에	-11.61
▁닫았	-11.6101
▁허용	-11.6103
▁종목	-11.6104
업	-11.6105
▁계실	-11.6105
▁엄마도	-11.6106
▁불리	-11.6118
▁햄버거에	-11.6119
▁당시	-11.6121
림	-11.6122
▁쉬다	-11.6126
해본	-11.6129
▁인쇄해	-11.6131
▁전보다	-11.6135
▁추적	-11.6141
석이	-11.6141
▁확인하려고	-11.6147
▁지경이	-11.6149
▁멈춰	-11.6153
▁신청했어	-11.6153
▁가격보다	-11.6153
▁촬영할	-11.6162
▁1.5	-11.6162
▁내려가는	-11.6162
▁쌍	-11.6165
▁연락해보	-11.6166
▁카디건	-11.6173
▁편집	-11.6174
시네요	-11.6175
▁내려가셔	-11.6176
▁배에	-11.6181
관리	-11.6183
▁결합	-11.6188
된다면	-11.6192
▁환전하	-11.6194
▁예약도	-11.6194
▁깨끗	-11.6196
▁적당하	-11.6198
상품	-11.62
▁내려가야	-11.62
였나요	-11.6207
▁남들	-11.6208
▁결정해	-11.6211
▁가볼	-11.6211
해주셨으면	-11.6216
▁회식에	-11.6218
▁프런트	-11.6225
▁민폐	-11.6227
▁제작하는	-11.6229
▁푸는	-11.623
▁주무	-11.6233
▁광화문	-11.6236
▁핸드폰에	-11.6238
들끼리	-11.6244
▁근무한	-11.6244
▁색연필	-11.6245
향이	-11.6248
▁정거장이	-11.6251
▁스위스	-11.6251
▁적혀있던데	-11.6255
▁김대리님	-11.6256
▁아이돌이	-11.6258
▁머리끝	-11.6259
▁동남아	-11.6261
▁북	-11.6261
▁지진	-11.6265
▁소비	-11.6267
▁광	-11.6271
▁좋겠네	-11.6274
▁무거워	-11.6274
▁어머니께	-11.6277
▁탁구	-11.6277
▁달성	-11.628
▁싱겁	-11.6284
▁많더라고	-11.6287
▁위험해	-11.6287
듬	-11.6288
▁인생	-11.6292
▁통합	-11.6293
▁매너	-11.6302
▁방문이	-11.6302
▁간략	-11.6304
▁고프	-11.6305
▁넘기	-11.6305
체	-11.6306
▁샤프	-11.6307
촌	-11.6307
슨	-11.6308
r	-11.6308
▁간다면	-11.6308
▁부담스럽	-11.6308
▁셔틀	-11.6308
▁접촉	-11.6308
▁도둑	-11.6309
▁마들렌	-11.6309
▁스노클링	-11.6309
▁옮긴	-11.6309
▁기안서	-11.6309
▁꽂을	-11.6309
▁닭가슴살	-11.6309
▁디럭스	-11.6309
▁리포트	-11.6309
▁물티슈	-11.6309
▁블러셔	-11.6309
▁숯불	-11.6309
▁스카프	-11.6309
▁어금니	-11.6309
▁오디션	-11.6309
▁잤어	-11.6309
▁잦아	-11.6309
▁청첩장	-11.6309
▁컨설팅	-11.6309
▁클라우드	-11.6309
▁클래스	-11.6309
▁클래식	-11.6309
▁트렁크	-11.6309
▁트리트먼트	-11.6309
▁홈쇼핑	-11.6309
▁흉터	-11.6309
▁공항철도	-11.6309
▁좌측	-11.6309
▁핑계	-11.6309
▁주재원	-11.6309
▁일러스트	-11.6309
▁시티투어	-11.6309
▁콩국수	-11.6309
▁생크림	-11.6309
▁데이트	-11.6309
▁드레스	-11.6309
▁마늘	-11.6309
▁폭포	-11.6309
▁대한항공	-11.6309
▁파워	-11.6309
▁중소기업	-11.6309
▁조교	-11.6309
▁토너	-11.6309
▁침구류	-11.6309
▁예쁠	-11.6309
▁체지방량	-11.6309
▁마칩니다	-11.6309
▁고무	-11.6309
▁체중	-11.6309
▁조그	-11.6309
▁승차권	-11.6309
▁명심하	-11.6309
▁하시는데	-11.6309
▁뛰어난	-11.6309
▁과거	-11.6309
▁재직	-11.631
▁켰는데	-11.631
▁책임감	-11.631
▁위임장	-11.631
▁호두	-11.631
▁부피	-11.631
▁드론	-11.631
▁바보	-11.631
▁미디어	-11.631
▁느껴질	-11.631
▁연계	-11.6311
▁위험하니	-11.6311
▁용어	-11.6311
▁얼굴형	-11.6311
▁중독성	-11.6311
▁후보	-11.6311
▁반갑다	-11.6311
▁기대되네요	-11.6311
▁안타깝네요	-11.6312
▁녹색	-11.6312
▁단단	-11.6312
▁핀	-11.6312
▁좋으세요	-11.6312
▁하나하나	-11.6312
▁박수	-11.6313
▁끼우	-11.6313
▁전력	-11.6313
▁성과금	-11.6313
▁번화가	-11.6314
▁먹었더니	-11.6314
▁갖춰져	-11.6314
▁페리	-11.6314
▁오른편	-11.6314
▁와보는데	-11.6314
▁촉촉한	-11.6314
▁손등에	-11.6314
▁않으셨어요	-11.6315
▁보냈습니다	-11.6315
▁태워다	-11.6315
▁있으려나	-11.6315
▁수능	-11.6315
▁물어봐야겠다	-11.6316
▁복장	-11.6316
▁아프신가요	-11.6317
▁뜨거워서	-11.6317
▁질환	-11.6317
▁여성용	-11.6318
▁하시니	-11.6318
▁움직일	-11.6318
▁분배	-11.6318
▁병가	-11.6318
▁빗	-11.6318
▁쪄	-11.6318
▁캔	-11.6318
▁꾸미	-11.6319
▁고속	-11.6319
▁무난한	-11.6319
▁해드리는데	-11.6319
▁형이	-11.6319
▁담임	-11.6319
▁공정	-11.6319
▁대안	-11.6319
▁화상회의	-11.632
▁돌아와서	-11.632
▁많구나	-11.632
▁복용법	-11.6321
▁가로	-11.6321
▁감염	-11.6322
▁일주일간	-11.6323
▁바랄게요	-11.6323
▁가이드님	-11.6323
▁정도인가요	-11.6324
▁운송장	-11.6324
▁추리	-11.6325
▁보니깐	-11.6325
▁지내시나요	-11.6325
▁교환해드릴까요	-11.6325
▁이해하지만	-11.6325
▁천장에	-11.6325
▁하셨잖아요	-11.6325
▁고추장	-11.6326
▁독일어	-11.6327
▁물병	-11.6327
▁부러워	-11.6327
▁동의합니다	-11.6328
▁끝났는데	-11.6328
▁소리예요	-11.6329
▁희	-11.6331
▁적혀있는데	-11.6331
▁싱싱한	-11.6331
▁갈아입고	-11.6331
▁학생들에게	-11.6331
주시니	-11.6332
▁고맙고	-11.6334
▁구성품	-11.6334
▁금속	-11.6334
▁자정까지	-11.6335
▁편인지	-11.6335
▁좋군요	-11.6336
▁되시는지	-11.6336
▁다양한데	-11.6337
▁좋아하니까	-11.6337
▁마셨는데	-11.6338
▁아이들에게	-11.6338
▁장치	-11.6338
▁근사한	-11.6339
▁건조해서	-11.634
▁형식으로	-11.6341
▁먼데	-11.6341
▁같더라고	-11.6342
▁지불하시면	-11.6342
▁숨기	-11.6343
▁프런트에	-11.6344
▁의향	-11.6344
▁있음	-11.6344
라니까	-11.6344
▁근육통	-11.6345
▁만들어야	-11.6346
▁그랬지	-11.6347
▁짧아서	-11.6347
▁비싸니까	-11.6347
▁힘들었는데	-11.6348
▁부장님께서	-11.6349
마저	-11.635
▁하셨죠	-11.6352
▁도쿄	-11.6353
▁원가	-11.6353
▁것이고	-11.6354
▁바꿔드릴게요	-11.6354
▁기종	-11.6356
▁홍콩에	-11.6358
▁연락해보고	-11.6359
▁영화제	-11.6362
▁도착하는데	-11.6362
▁경쟁사에서	-11.6363
▁만족도	-11.6366
▁데워	-11.6368
▁직원분이	-11.6369
▁소지	-11.637
▁유명한데	-11.6371
▁정문에서	-11.6371
▁나이대	-11.6372
년째	-11.6373
▁원화로	-11.6373
▁비용에	-11.6379
▁추가되는	-11.638
▁생겼다	-11.6382
호입니다	-11.6383
▁놀다가	-11.6384
▁것만으로	-11.6385
▁읽을	-11.6385
▁생일인데	-11.6386
▁깨끗하고	-11.6387
▁두부	-11.6387
▁주셨어요	-11.6388
▁메모지	-11.6389
▁두시고	-11.6389
▁보여드리면	-11.639
▁내렸어	-11.6391
▁가능하지	-11.6392
▁사무실이	-11.6393
▁살아서	-11.6393
▁뉴스에	-11.6396
▁블로그에	-11.6396
▁확인했고	-11.6397
▁정거장에서	-11.6397
▁지점에서	-11.6399
▁가봤어	-11.6401
▁추천할	-11.6403
▁산책	-11.6409
평가	-11.6409
▁발표에	-11.6411
▁사업부	-11.6411
▁연락하	-11.6413
▁사용하시	-11.6414
▁쓰는데	-11.6414
▁아니었는데	-11.6416
▁모르지	-11.6417
▁발생하지	-11.6417
▁없던	-11.6418
▁입으면	-11.6419
▁부드럽	-11.642
제도	-11.642
▁업로드	-11.6421
▁해봐서	-11.6422
▁무서워서	-11.6423
▁해드리지	-11.6423
▁하나야	-11.6424
▁접근	-11.6424
▁착용하	-11.6425
▁증거	-11.6427
▁완료되었	-11.6429
▁안내소에	-11.643
▁모기	-11.643
▁하셨으면	-11.6431
▁배부	-11.6432
▁맞나	-11.6432
▁켜서	-11.6435
▁배달비	-11.6436
▁통일	-11.6436
▁추가금	-11.6438
▁배고프	-11.6439
▁재미있을	-11.644
▁지하철역까지	-11.644
▁물어보려고	-11.6442
▁결과물	-11.6444
▁세상	-11.6444
▁중앙에	-11.6449
▁택시로	-11.6449
▁제시해	-11.645
▁미술관에	-11.645
▁홍보에	-11.6453
▁오리	-11.6454
▁제철	-11.6456
▁레스토랑에서	-11.6456
었을	-11.6457
▁맛있나요	-11.6457
▁확인해드릴게요	-11.6458
▁데다가	-11.6459
▁했다는	-11.6459
▁오니	-11.646
▁착용해보	-11.6461
▁끊기	-11.6464
▁반복	-11.6464
▁변경하는	-11.6467
회의	-11.6468
▁찍어드릴	-11.6468
우면	-11.6469
▁사정에	-11.6472
▁물품들	-11.6473
8,000	-11.6475
▁준비했는데	-11.6476
셨죠	-11.6482
▁바꾸자	-11.6482
▁하였는데	-11.6485
▁유익	-11.6486
중	-11.6496
▁교회	-11.6498
▁잡혔	-11.6499
전이	-11.6499
▁우동	-11.6501
▁입장에서	-11.6503
▁것이기	-11.6507
▁보내드리고	-11.651
▁사장	-11.6511
▁다음주	-11.6512
▁편해서	-11.6512
▁걱정할	-11.6515
▁감축	-11.6516
▁시간당	-11.6516
살이	-11.652
▁계산대에	-11.652
▁취향이	-11.6525
▁입력하면	-11.6526
▁싫어요	-11.6526
▁타시는	-11.6527
▁비결이	-11.6528
▁빠르지	-11.6532
▁그린	-11.6533
▁서울역	-11.6536
▁아이돌들	-11.6537
▁같던데요	-11.654
▁본다고	-11.654
▁보고서에	-11.6542
▁위약금이	-11.6542
▁출발한	-11.6547
▁헬스장에	-11.6548
▁사귄	-11.6553
▁시작됐	-11.6554
▁축구장	-11.6555
▁상관없는	-11.6561
▁맞는데요	-11.6565
▁모이는	-11.6569
▁영업일	-11.6571
▁찾아볼	-11.6572
▁왔는	-11.6573
워	-11.6574
▁공원이	-11.6575
▁수정하고	-11.6575
▁요청하는	-11.6576
▁일이니	-11.6577
▁돌려주	-11.658
▁주문하셨던	-11.6582
인분으로	-11.6584
▁사이에서	-11.6585
장만	-11.6588
▁추려	-11.6589
▁나눠주	-11.659
▁발표할	-11.6592
▁일이에요	-11.6599
▁예약해서	-11.66
▁추가된	-11.6601
▁건의해	-11.6604
▁좋아하던	-11.6605
▁당기는	-11.6606
해야겠어	-11.6607
▁바닥이	-11.6614
▁동아리방	-11.6615
개에	-11.6616
▁생각해봐	-11.6618
▁행복	-11.6618
▁지리	-11.6619
▁중학생	-11.6621
▁뽑으	-11.6624
▁가능하나	-11.6626
번씩	-11.6626
▁포장으로	-11.6627
▁배포	-11.6628
▁불편하지	-11.6631
▁앞서	-11.6633
▁식사하는	-11.6635
▁흐름	-11.6635
▁취득	-11.6635
▁맞지만	-11.6637
▁제작한	-11.6643
▁앉았	-11.6644
▁파운데이션이	-11.6649
▁매콤	-11.665
▁고르면	-11.665
▁확실해	-11.6653
▁적용해	-11.6653
▁발표하는	-11.6655
▁생겨서요	-11.6655
되었다는	-11.6656
▁회장	-11.6658
▁뭐지	-11.6658
▁올랐어	-11.6663
개랑	-11.667
▁이러다	-11.6674
▁0	-11.6674
문으로	-11.6674
▁가져가야	-11.6675
▁더위	-11.6679
▁비싸요	-11.6683
▁하시더라고	-11.6686
▁입지	-11.6688
▁도착한다	-11.6689
▁떠나는	-11.6691
상으로는	-11.6692
▁처리될	-11.6695
▁알면	-11.6697
▁때문일	-11.6698
▁지켜보	-11.6703
▁들어가요	-11.6708
▁비켜	-11.6709
▁봐주	-11.6712
▁계기	-11.6716
▁바꾸면	-11.6722
▁판매율	-11.6722
▁비서	-11.673
▁대접	-11.6735
버린	-11.6736
▁계약한	-11.6738
▁러시아	-11.6739
당한	-11.6739
▁상가	-11.6741
▁보내지	-11.6741
▁상품이라서	-11.6742
▁분할	-11.6742
▁구석	-11.6744
▁테라스	-11.6749
▁알아봐야	-11.675
▁입소문	-11.675
▁냄비	-11.6751
▁조정해	-11.6752
장에서	-11.6754
▁기내식은	-11.6758
▁길어	-11.6762
▁불량인	-11.6764
▁235	-11.677
▁객실에서	-11.6772
▁문신	-11.6774
▁짝	-11.6775
받아	-11.6776
▁발라도	-11.6781
▁결정할	-11.6783
분에서	-11.6785
▁무난하	-11.679
▁바꾸어	-11.679
▁전주	-11.679
▁형식	-11.6795
▁기자	-11.6796
▁살다	-11.6798
▁검색대	-11.6798
▁계시니	-11.6799
하시네요	-11.6799
였으	-11.68
했나	-11.6802
▁지지	-11.6805
▁취급	-11.6806
▁주변에서	-11.6806
▁바꾸기	-11.681
▁게임기	-11.6811
다기보다는	-11.6814
▁접대비	-11.682
▁레	-11.6821
▁괜찮으십니	-11.6826
▁주식	-11.6833
▁개랑	-11.6841
하셨습니까	-11.6842
▁쉬어야	-11.6845
달러에	-11.6846
▁풍경이	-11.6848
▁묻는	-11.6848
보실래요	-11.685
▁대학원에	-11.6853
▁앱이	-11.6857
▁구매자들	-11.6859
▁장식	-11.686
▁사리	-11.6862
▁하라는	-11.6865
▁퇴원하	-11.6867
▁옆쪽에	-11.6874
▁고생했	-11.6879
▁검토해보	-11.688
▁전달받	-11.6881
▁현상	-11.6883
▁신중하	-11.6885
▁꽃이	-11.6886
▁걷다	-11.6886
있어서	-11.6889
▁앉으시	-11.6898
▁채점	-11.6901
▁대기하	-11.6902
오시면	-11.6904
▁주력	-11.6904
▁계획서	-11.6905
▁아닌데요	-11.6907
천만	-11.6911
▁지금보다	-11.6912
해보려고	-11.6917
▁경제적	-11.6919
▁바꿔보	-11.6919
▁서비스에	-11.6921
▁챙겨주	-11.6925
▁장바구니	-11.6929
▁헷갈리네	-11.6932
▁말입니다	-11.6933
▁하기에	-11.6943
▁맞으니	-11.6943
▁입어보니	-11.6946
▁초과하	-11.6948
▁곳과	-11.6949
▁관람객	-11.6954
▁다음부터	-11.6956
▁마케팅에	-11.696
▁오븐	-11.6962
▁출연하	-11.6964
▁열릴	-11.6967
▁소개하는	-11.6967
▁근무시간	-11.697
▁강화	-11.697
▁뿌	-11.6976
▁연락드리	-11.6976
▁장사	-11.6977
▁인간	-11.698
봤어	-11.6985
8	-11.6986
▁끊어	-11.6991
▁대사관	-11.6991
▁세워야	-11.6996
▁복잡	-11.6997
▁제기	-11.6999
▁이쪽이	-11.6999
▁열리	-11.7005
▁지참하	-11.7005
술	-11.7005
▁휴게소	-11.7011
▁버려	-11.7012
▁배달원	-11.7014
▁당구	-11.7015
▁정차하는	-11.7023
되었으니	-11.7026
▁걸쳐	-11.7028
▁총괄	-11.7036
▁알려줘야	-11.7036
▁들어있는	-11.7041
▁지점이	-11.7049
▁떨리	-11.7051
▁매력이	-11.7051
▁나라별	-11.7054
▁했었나	-11.7056
스럽게	-11.7061
▁나가요	-11.7063
▁골라야	-11.7064
▁평	-11.7072
호인데	-11.7073
왔던	-11.7076
▁괜찮으시	-11.7077
▁들어가시	-11.7077
▁동호회	-11.7079
▁현지인	-11.7081
▁고생한	-11.7081
▁사용되는	-11.7082
▁오염	-11.7089
▁사려	-11.7092
▁가죽이	-11.7103
자료	-11.7104
▁원해	-11.7106
향	-11.7107
▁건축	-11.7111
▁배경이	-11.7112
▁보고해	-11.7113
▁아이들은	-11.7119
▁데려다줄	-11.7119
▁느껴	-11.7121
보았습니다	-11.7124
▁선택해	-11.7125
▁금지되	-11.7131
▁많아졌어	-11.7132
번이	-11.7134
▁접수해야	-11.7134
황	-11.7141
설	-11.7142
▁말해주	-11.7144
▁여권으로	-11.7146
▁지울	-11.7149
▁입었	-11.7153
▁들어왔다	-11.7159
▁이용하신	-11.7163
▁넣어드리	-11.7169
▁퇴직	-11.7172
▁빠졌	-11.7174
▁기대해	-11.7176
▁추천할게	-11.7178
▁입학한	-11.7179
탑	-11.7185
너	-11.7196
봤더니	-11.7197
▁산책하	-11.7201
▁당직	-11.7201
▁대학생이	-11.7202
▁그릇이	-11.7214
▁매워	-11.7217
▁생신이	-11.7223
액이	-11.7226
매장	-11.7227
▁마땅	-11.7228
▁헤	-11.7229
▁짧아	-11.7229
▁익숙해지	-11.7231
▁버렸	-11.7232
▁상황이니	-11.7232
▁품	-11.7233
컷	-11.7234
▁치료비	-11.7236
셨으니	-11.7237
▁아르바이트생	-11.7237
300	-11.7243
다닐	-11.7243
더욱	-11.7243
려진	-11.7244
정보	-11.7246
▁무겁	-11.7247
시군요	-11.7247
▁어젯밤	-11.7249
▁예약했던	-11.725
▁포장해가	-11.7253
거죠	-11.7253
해보겠습니다	-11.7256
▁스크린	-11.7257
▁알아볼게	-11.7257
▁접수해	-11.7259
▁습관	-11.7259
킬	-11.726
▁지참	-11.7261
▁장미	-11.7261
▁트윈	-11.7262
▁보낼게	-11.7262
▁내기	-11.7264
자리	-11.7265
▁강남에	-11.7265
▁같았어	-11.7266
▁포함이	-11.7266
▁사라졌어	-11.7267
모로	-11.7267
▁아이스크림이	-11.7267
▁계셔	-11.7268
▁주문했었는데	-11.727
▁처리하	-11.7272
▁맡기는	-11.7272
▁필요하니	-11.7273
▁추워	-11.7273
▁권장	-11.7274
▁연봉이	-11.7274
▁기억해	-11.7277
▁하겠어	-11.7277
▁빼는	-11.7278
▁가능하실	-11.728
▁적혀있	-11.7281
▁떠오르	-11.7281
▁입력하	-11.7282
▁싶네	-11.729
▁확인했어	-11.7291
▁필리핀	-11.7293
▁매워서	-11.7294
▁주기적	-11.7295
▁잠깐이라	-11.7295
▁의무	-11.7295
▁봐주실	-11.7297
▁용산	-11.7297
킬로에	-11.7297
▁보셨나	-11.7297
▁실무	-11.7301
▁챙겼	-11.7301
▁무작	-11.7303
▁올리브	-11.7303
▁여보	-11.7304
▁끄는	-11.7305
▁홀	-11.7308
했었어요	-11.7308
▁스마트	-11.7309
▁정규직	-11.7309
▁고춧가루	-11.7309
▁기쁩니다	-11.7309
▁꺾으	-11.7309
▁껍질	-11.7309
▁논란	-11.7309
▁놀이기구	-11.7309
▁뒷면	-11.7309
▁뚜렷	-11.7309
▁바디워시	-11.7309
▁벽화	-11.7309
▁새우튀김	-11.7309
▁생필품	-11.7309
▁스쿠터	-11.7309
▁썩은	-11.7309
▁아껴	-11.7309
▁액션	-11.7309
▁엽서	-11.7309
▁오디오	-11.7309
▁원어민	-11.7309
▁인도네시아	-11.7309
▁정류소	-11.7309
▁종아리	-11.7309
▁파슬리	-11.7309
▁핵심	-11.7309
▁햇볕	-11.7309
▁훌륭한	-11.7309
▁휠체어	-11.7309
▁페이스북	-11.7309
▁근로계약서	-11.7309
▁프랜	-11.7309
▁겨울옷	-11.7309
▁시카고	-11.7309
▁독립	-11.7309
▁식빵	-11.7309
▁대리운전	-11.7309
▁독채	-11.7309
▁예방주사	-11.7309
▁니트	-11.7309
▁소셜	-11.7309
▁증빙서류	-11.7309
▁폐기물	-11.7309
▁LG	-11.7309
▁보아하니	-11.7309
▁혁신	-11.7309
▁숨겨	-11.7309
▁소시지	-11.7309
▁실현	-11.7309
▁현금영수증	-11.7309
▁음주단속	-11.7309
▁부츠	-11.7309
▁인사고과	-11.7309
▁충돌	-11.7309
▁검정	-11.7309
▁레드	-11.7309
▁피겨	-11.7309
▁메인메뉴	-11.7309
▁주유소	-11.7309
▁같으세요	-11.7309
▁해결책	-11.7309
▁끝낸	-11.7309
▁뱃살	-11.731
▁외화	-11.731
▁효력	-11.731
▁가져간	-11.731
▁합리적	-11.731
▁조직	-11.731
▁민정	-11.731
▁육회	-11.731
▁만족스러운	-11.731
▁공동	-11.731
▁닭발	-11.731
▁두통약	-11.731
▁반가운	-11.731
▁구직	-11.7311
▁로마	-11.7311
▁등산화	-11.7311
▁회원권	-11.7311
▁옆쪽	-11.7311
▁야식	-11.7312
▁대회의장	-11.7312
▁국밥	-11.7312
▁H	-11.7312
▁드셨다니	-11.7312
▁죄	-11.7313
▁롯데	-11.7313
▁냈는데	-11.7313
▁기도실	-11.7313
▁2~3	-11.7313
▁피곤한데	-11.7313
▁사라진	-11.7314
▁했네	-11.7314
▁여유롭	-11.7314
▁이용료	-11.7315
▁버려주세요	-11.7315
보셨나요	-11.7315
▁시급	-11.7315
▁국산	-11.7316
▁구축	-11.7316
▁당했는데	-11.7316
▁골라보세요	-11.7316
▁써봤는데	-11.7316
▁타이어	-11.7316
▁기쁘네요	-11.7317
▁교통편	-11.7317
▁이루어져	-11.7317
▁출동하겠습니다	-11.7317
▁명소	-11.7318
▁보호대	-11.7318
▁부럽네요	-11.7319
▁깨끗한	-11.7319
▁절감	-11.7319
▁국내산	-11.732
▁담당자님	-11.732
▁워드	-11.732
▁성향	-11.732
▁흰	-11.732
▁케어	-11.732
▁심해져서	-11.7321
▁구매하였는데	-11.7321
▁행복하	-11.7321
▁오십시오	-11.7322
▁초행길이라	-11.7322
▁식권	-11.7322
▁샵	-11.7323
▁밀려있어서	-11.7323
▁출	-11.7324
▁걸리죠	-11.7326
▁지나치	-11.7326
▁블록	-11.7327
▁출근길	-11.7327
▁떨려서	-11.7327
▁돌아오실	-11.7327
▁걸렸는데	-11.7328
▁기대했는데	-11.7328
▁늦어져서	-11.7328
▁보내주셔야	-11.7329
▁추가되는데	-11.7329
▁오셨는데	-11.733
▁먹어보자	-11.733
▁다운받아	-11.7331
▁부족해요	-11.7332
▁있군요	-11.7332
▁싶었습니다	-11.7332
▁모자랄	-11.7332
▁완료했습니다	-11.7333
▁만화	-11.7334
▁바쁜데	-11.7334
▁목표치	-11.7334
▁떨어졌어요	-11.7334
▁불가능한데	-11.7335
▁뜯	-11.7335
▁있거나	-11.7335
▁바른	-11.7335
▁회전	-11.7335
▁중이며	-11.7335
▁수용	-11.7336
▁승차장	-11.7337
▁세관에	-11.7338
▁재정	-11.7339
▁미니	-11.7339
▁일시적으로	-11.734
▁확인해주실	-11.734
▁면에서	-11.734
▁길지	-11.734
▁끼치	-11.7341
▁테이프	-11.7341
▁민감	-11.7341
▁응답	-11.7341
▁흘리는	-11.7342
▁부대	-11.7344
▁없군요	-11.7344
▁잠겨	-11.7344
▁쓰시고	-11.7344
▁내어	-11.7344
▁몰랐지	-11.7344
▁예정이래	-11.7345
▁먹을지	-11.7346
▁자국이	-11.7346
▁제공하지	-11.7348
▁되던데	-11.7348
▁주행	-11.7349
▁오다니	-11.7349
▁넣어드릴게요	-11.7349
▁걸고	-11.735
▁권리	-11.735
▁검은	-11.735
▁다녀오겠습니다	-11.735
▁악화	-11.735
▁잡아주세요	-11.735
▁품절입니다	-11.7351
격적	-11.7351
▁매표소에	-11.7352
▁엄마한테	-11.7353
▁체한	-11.7354
▁배운지	-11.7355
▁해보니	-11.7355
▁마케팅팀에서	-11.7356
▁주방장이	-11.7357
▁확인해보니까	-11.7359
▁화물	-11.736
▁상해	-11.7362
▁놓친	-11.7362
▁프런트에서	-11.7363
▁구매하셨나요	-11.7364
▁와줄	-11.7364
▁큰길	-11.7365
▁가져오겠습니다	-11.7366
▁상단	-11.7366
▁인대	-11.7367
데요	-11.7369
▁말았어	-11.7369
▁떨어지지	-11.7369
▁심해요	-11.737
▁극장에서	-11.737
▁똑같아	-11.7371
▁뜨지	-11.7371
▁매표소에서	-11.7371
▁알맞은	-11.7372
▁없어졌어요	-11.7374
▁가시겠어요	-11.7374
▁찾는데	-11.7374
▁떨어지고	-11.7376
▁차종	-11.7377
▁증가하고	-11.7378
▁내시고	-11.7378
▁장염이	-11.7379
▁추천해드릴게요	-11.7381
▁이미지와	-11.7381
▁시사회	-11.7381
▁위험할	-11.7383
▁잘하시는	-11.7385
▁부어서	-11.7386
▁별일	-11.7386
▁챙겨주세요	-11.7387
▁잘했어	-11.7388
▁야구장	-11.7388
▁제공할	-11.7389
▁타입이	-11.739
▁실내에서	-11.7393
▁계약금	-11.7393
▁생각이다	-11.7393
▁데려오	-11.7394
▁때만	-11.7396
▁이용하는데	-11.7397
▁판매처	-11.7398
▁정정	-11.7399
▁대리입니다	-11.7399
▁고민하	-11.7401
▁염색하려고	-11.7401
▁예약되어	-11.7401
▁방문하겠습니다	-11.7402
▁다음주에	-11.7403
할래	-11.7404
▁외주	-11.7406
▁페이지에서	-11.7407
▁나오던데	-11.7408
▁나타났	-11.7408
▁책에	-11.7409
▁빠져서	-11.741
▁확인할게요	-11.741
▁어디지	-11.741
▁의미에서	-11.741
▁업계에서	-11.7411
▁입국장	-11.7412
▁방법밖에	-11.7413
▁불편해서요	-11.7413
▁됐다고	-11.7415
▁건조한	-11.7418
▁할걸	-11.7421
▁정하	-11.7422
▁생산하는	-11.7424
▁거지만	-11.7429
▁냉동고	-11.7431
▁않았다고	-11.7432
▁외부에	-11.7433
▁벌점	-11.7436
▁미루고	-11.7436
▁잠실역	-11.7436
▁느끼고	-11.7436
▁광주	-11.7437
▁연말까지	-11.7438
▁난감	-11.744
▁익숙한	-11.7443
▁지연이	-11.7445
었거든	-11.7445
▁정전이	-11.7447
▁편리하	-11.7449
▁십	-11.7451
▁해드리면	-11.7453
▁미용실에서	-11.7457
▁졸업할	-11.7458
▁창구에	-11.7459
▁초기	-11.7459
▁상담원	-11.7459
▁다르고	-11.746
▁받는데	-11.7461
▁말씀드리기	-11.7462
었나	-11.7462
해야죠	-11.7462
▁중점	-11.7467
▁걷지	-11.7469
였죠	-11.7469
▁하시지	-11.7472
▁배송받을	-11.7474
▁부드러워	-11.7474
▁듯싶	-11.7475
▁대중교통으로	-11.7475
기능	-11.7475
▁잘해	-11.7479
▁느낌으로	-11.7479
▁취미로	-11.7482
▁붙일	-11.7486
▁시점	-11.7487
▁집안에	-11.7491
▁멀미약	-11.7493
▁우산이	-11.7498
▁지원할	-11.7498
▁시대에	-11.7499
▁꿈에	-11.7503
▁후면	-11.7504
▁가수들이	-11.7508
▁표지판에	-11.7508
▁웹사이트에	-11.7515
▁고급스러	-11.752
▁가을에	-11.7521
▁구경할	-11.7523
▁끔찍해	-11.7523
약	-11.7524
▁일해야	-11.7528
▁많았고	-11.753
▁거절	-11.7532
▁해주신	-11.7533
▁부재중	-11.7533
▁취급하는	-11.7534
▁먹나요	-11.7535
▁되시는	-11.7539
▁공부해서	-11.754
▁알죠	-11.7541
▁적었는데	-11.7541
▁별로인데	-11.7542
해볼	-11.7542
▁않으셔서	-11.7544
e	-11.7544
▁렌트하	-11.7546
▁전까지만	-11.7552
▁기도	-11.7552
▁선물해	-11.7555
▁샐러드에	-11.7558
▁이동해야	-11.7564
되었	-11.7565
시지요	-11.7568
▁수요일까지	-11.7568
▁바쁘신	-11.757
▁지워	-11.7572
▁구해야	-11.7573
▁불량품	-11.7574
▁이사님	-11.7575
▁굽기	-11.7583
▁회사들이	-11.7585
▁체크인하려고	-11.7585
▁역시나	-11.7586
▁밖이	-11.7588
▁막힌	-11.7594
▁이끌어	-11.7595
▁사진에	-11.7598
▁클럽에	-11.7599
되니	-11.7599
▁개발자	-11.7604
▁들어가는지	-11.7606
▁공유하	-11.7609
▁않았었나	-11.7609
▁아는데요	-11.7612
▁좋으시	-11.7615
▁있대요	-11.7616
▁블랙박스	-11.7617
자로	-11.7618
▁강하	-11.7622
▁처치	-11.7624
▁진행하지	-11.7625
▁쓰려	-11.763
▁시야	-11.7633
▁사항들	-11.764
▁다녀야	-11.7652
▁번째로	-11.7653
▁깎아주시	-11.7657
▁일반인	-11.7658
▁세금이	-11.7669
▁괜찮았	-11.7671
▁색상과	-11.7673
▁솔루션	-11.7676
줬어	-11.7676
▁편의	-11.7679
▁급해	-11.7682
▁명까지	-11.7684
▁검은색이	-11.7687
▁되겠지	-11.7695
▁신고하고	-11.7696
▁180	-11.7707
▁자리인	-11.7709
▁편안	-11.7713
▁고향에	-11.7713
▁투약	-11.7713
▁해줘야	-11.7714
▁서빙	-11.7715
▁봉지에	-11.7718
렸는데	-11.772
디지	-11.772
▁누우	-11.7725
▁일인	-11.7727
▁올려두	-11.773
▁월요일이	-11.7731
▁관련이	-11.7744
▁희망하는	-11.7746
▁벤치	-11.7746
셨다면	-11.7748
▁소설이	-11.775
▁어디에다	-11.7752
▁바에	-11.7753
▁된대	-11.7759
▁도시로	-11.7761
▁룸이	-11.7764
▁선발	-11.7766
▁불빛	-11.7767
▁시청에	-11.7768
분부터	-11.7769
▁접어	-11.777
▁탑승하면	-11.7772
▁발견했	-11.7778
▁부탁할	-11.7781
▁곳이라서	-11.7783
▁유의	-11.7788
인으로	-11.779
▁답답	-11.779
▁도와주면	-11.7796
▁카메라로	-11.7796
▁입맛	-11.78
▁염색이	-11.7802
▁뿌듯하	-11.7802
▁차량으로	-11.7803
▁기억하시나	-11.7806
시니	-11.7811
▁발매	-11.7812
▁공부해	-11.7814
하시려는	-11.7816
▁팀과	-11.7826
▁앉아있	-11.7829
▁사줘	-11.7832
▁많아졌	-11.7838
▁사은품이	-11.7838
동으로	-11.7838
▁포장하고	-11.7839
▁금액대	-11.7841
▁탑	-11.7844
▁못하였	-11.7846
▁선택해야	-11.7846
▁당기	-11.7848
▁운행하	-11.7854
▁답답하	-11.7854
▁연봉에	-11.7855
▁보아	-11.7861
▁별관	-11.7862
▁휴게실에	-11.7869
▁가르쳐주	-11.7876
▁사람으로	-11.7883
놔야	-11.7886
▁쇼핑백에	-11.7888
양이	-11.7889
였지	-11.789
▁책에서	-11.7892
▁매진이	-11.7892
▁경품	-11.7893
▁가져왔	-11.7897
▁마감일	-11.7904
▁공감	-11.7911
▁퇴사하	-11.7912
▁부었어	-11.7915
▁충격	-11.7919
달라는	-11.7922
▁면접에	-11.7923
▁클라이언트	-11.7924
▁시간입니다	-11.7925
▁급하	-11.793
▁인쇄기	-11.7936
▁생각만	-11.7937
▁서류에	-11.794
인데도	-11.7942
▁우리한테	-11.7944
▁출시하	-11.7947
▁두시간	-11.7948
▁장소에서	-11.7948
▁도와드렸	-11.7952
▁폴더	-11.7953
▁처	-11.7955
▁혼	-11.7959
▁정원	-11.7964
▁기술이	-11.7972
▁변경하면	-11.798
▁몰랐다	-11.7981
▁뽑을	-11.7989
▁하시는지	-11.7993
▁업체들이	-11.7996
▁제품이라고	-11.7998
▁연락하고	-11.8
▁구해	-11.8006
▁준비물	-11.8006
▁전에도	-11.8011
▁금요일이	-11.8011
▁결혼식이	-11.8014
▁널	-11.802
▁신속	-11.8033
▁발송해	-11.8038
▁바이어들	-11.8044
▁부탁한	-11.8045
▁가져갔	-11.8046
었더니	-11.8046
▁지금처럼	-11.8046
▁여러분들	-11.8056
▁대리님께	-11.8057
▁감동	-11.8058
▁입고되	-11.8058
됐는지	-11.8059
▁건강식품	-11.806
상에	-11.8062
▁이번만	-11.8065
▁잡아보	-11.8066
▁추억	-11.8069
▁정당	-11.8069
▁헤드폰	-11.8071
▁투자자	-11.8072
▁약해서	-11.8074
▁파일에	-11.8076
▁체크인이	-11.8082
▁부분들	-11.8088
▁푸드	-11.8092
▁끝내야	-11.8096
뿐인데	-11.8096
▁닫혀	-11.81
▁훌륭하	-11.8102
▁만원	-11.8105
▁지불	-11.8106
▁완료할	-11.811
▁주임님	-11.8111
결제	-11.8114
▁수분	-11.8117
▁뜯어	-11.8119
링	-11.8126
▁기다렸	-11.8129
▁신촌역	-11.8132
▁필요하고	-11.8133
▁해야겠네	-11.8133
▁불량품이	-11.8134
▁맛에	-11.8137
이신	-11.8138
▁재료들	-11.8144
▁깨져있	-11.8146
▁식사에	-11.8147
▁골목에	-11.8149
10	-11.8151
▁반영되	-11.8151
▁냈	-11.8153
▁명단이	-11.8154
▁중동	-11.816
철	-11.8162
▁복잡하	-11.8163
▁올렸	-11.8163
비슷해서	-11.8166
▁지나갔	-11.8167
▁경쟁이	-11.8171
드려요	-11.8171
▁받아보시	-11.8179
▁게시판	-11.8184
▁위험하	-11.8199
▁됐으니	-11.8202
겨	-11.8207
청	-11.821
▁피로	-11.8215
뿐이야	-11.8216
▁원정석	-11.8217
▁촉촉하	-11.8218
▁알겠다	-11.822
고자	-11.8225
▁쏟아	-11.8226
▁뛰어가	-11.8228
▁지루	-11.8229
▁잡았	-11.8231
▁201	-11.8232
▁사진들	-11.8235
▁도구	-11.824
▁꿈이	-11.8241
▁당첨	-11.8242
▁많아서요	-11.8244
줬는데	-11.8244
되니까	-11.8245
글	-11.825
▁고가	-11.8255
▁제품인	-11.8255
▁34	-11.826
▁흐르	-11.8264
▁건조	-11.8267
▁민	-11.8275
신데	-11.8287
▁해결해	-11.829
▁올라왔	-11.8292
다는데	-11.8295
승	-11.8297
▁납기	-11.8297
▁도울	-11.8298
빛이	-11.8299
광	-11.8301
▁해주셔	-11.8302
▁나나요	-11.8304
▁다르니	-11.8305
▁축제에	-11.8307
▁선배들	-11.8309
▁통하는	-11.8314
▁폐업	-11.8318
▁75	-11.8319
▁주주	-11.8321
충	-11.8323
%	-11.8326
▁교체하는	-11.833
▁주기	-11.833
▁엉덩이	-11.8332
▁반나절	-11.8334
▁맡았	-11.8334
▁디자인팀	-11.8336
▁결함	-11.8343
▁온열	-11.8344
백	-11.8344
▁완료될	-11.8344
채	-11.8345
▁곁들	-11.8347
K	-11.8349
홀	-11.835
E	-11.835
▁선호	-11.8351
"	-11.8351
▁거부	-11.8352
그릇	-11.8352
틈	-11.8352
머리	-11.8354
코드	-11.8354
▁앉아계시	-11.8355
▁직급	-11.8357
▁침착하	-11.8359
▁카메라에	-11.8359
▁책임이	-11.8361
▁확인해볼	-11.8363
▁분리	-11.8364
50,000	-11.8365
▁안정	-11.8365
주셨던	-11.8366
▁어플	-11.8367
▁겨울이	-11.837
▁전쯤	-11.8371
쁜	-11.8371
▁나가셔	-11.8373
▁근	-11.8374
▁반가워	-11.8375
▁귀찮아	-11.8375
말고	-11.8375
▁해볼	-11.8375
▁티비	-11.8377
▁충분하	-11.8378
▁가져왔어	-11.8379
즈	-11.8379
▁부담스러워	-11.8379
▁출구에	-11.8385
▁입고될	-11.8385
▁드네	-11.8386
▁교체할	-11.8386
▁행정	-11.8387
▁확실하	-11.8387
▁시작했어	-11.8387
명씩	-11.8388
▁보증	-11.839
▁가입할	-11.8391
▁32	-11.8395
▁원까지	-11.8398
▁드나	-11.84
▁알았지	-11.8401
▁부족했	-11.8402
화로	-11.8403
브	-11.8403
▁해볼게	-11.8403
▁입안에	-11.8404
분들이	-11.8406
▁스탠드	-11.8408
▁새겨	-11.8408
▁통근	-11.8412
▁시끄러운	-11.8417
▁다음으로	-11.8417
▁다행인	-11.8417
▁뛰어다니	-11.8418
▁휴대	-11.8418
▁최상	-11.8419
y	-11.842
▁웰던	-11.842
▁PPT	-11.842
▁애완동물	-11.842
▁특실	-11.842
▁CEO	-11.842
▁귀마개	-11.842
▁네트워크	-11.842
▁다이어리	-11.842
▁닭볶음탕	-11.842
▁디퓨저	-11.842
▁레시피	-11.842
▁룸메이트	-11.842
▁립밤	-11.842
▁뭉치	-11.842
▁발코니	-11.842
▁밤늦게	-11.842
▁배드민턴	-11.842
▁벽걸이	-11.842
▁병문안	-11.842
▁보조배터리	-11.842
▁뵐게요	-11.842
▁성희롱	-11.842
▁쇠고기	-11.842
▁승용차	-11.842
▁시끄러우	-11.842
▁시애틀	-11.842
▁어긋나	-11.842
▁연세대학교	-11.842
▁옥수수	-11.842
▁요구르트	-11.842
▁웨이터	-11.842
▁인센티브	-11.842
▁전자레인지	-11.842
▁창밖	-11.842
▁캐러멜	-11.842
▁캘리포니아	-11.842
▁컨테이너	-11.842
▁컨펌	-11.842
▁프리랜서	-11.842
▁훈련	-11.842
겐	-11.842
힙	-11.842
▁글리터	-11.842
▁대형마트	-11.842
▁손목시계	-11.842
▁충혈	-11.842
▁콘센트	-11.842
▁영유아	-11.842
▁패션	-11.842
▁헤드셋	-11.842
▁가성비	-11.842
▁공룡	-11.842
▁리모델링	-11.842
▁출혈	-11.842
▁스킨로션	-11.842
▁태그	-11.842
▁도자기	-11.842
▁훈제	-11.842
▁식혜	-11.842
▁베이스	-11.842
▁미취	-11.842
▁장갑	-11.842
▁거치대	-11.842
▁후드티	-11.842
▁즉석식품	-11.842
ml	-11.842
▁냉동식품	-11.842
▁허브	-11.842
▁멸치	-11.842
▁클레임	-11.842
▁레이저	-11.842
▁로즈	-11.842
▁종교	-11.842
▁단축	-11.842
▁초청	-11.842
▁바나나	-11.842
▁터키	-11.842
▁전자책	-11.842
▁카페라테	-11.842
▁연설	-11.842
▁김슬기이고	-11.842
▁배송받	-11.842
▁수출입	-11.842
▁출간	-11.842
▁세부사항	-11.8421
▁필통	-11.8421
▁남녀	-11.8421
▁900	-11.8421
▁명품	-11.8421
▁80%	-11.8421
▁글씨체	-11.8421
▁환자복	-11.8421
▁일몰	-11.8421
▁70%	-11.8421
▁불참	-11.8421
▁아침밥	-11.8421
▁환영회	-11.8421
▁떠들	-11.8422
▁일등석	-11.8422
▁코끼리	-11.8422
▁기미	-11.8422
▁했대	-11.8422
▁천연	-11.8423
▁40%	-11.8423
▁경비처리	-11.8423
▁더블룸	-11.8423
▁미용	-11.8423
▁예보	-11.8423
▁깔창	-11.8423
▁성별	-11.8423
▁얼음팩	-11.8423
▁사과드립니다	-11.8423
▁아동용	-11.8424
▁모자란	-11.8424
▁1000	-11.8424
▁중식당	-11.8424
▁매직	-11.8424
▁들어옵니다	-11.8424
▁부칠	-11.8424
▁블루	-11.8424
▁잼	-11.8424
▁앓	-11.8424
▁PC	-11.8424
▁재결제	-11.8424
▁오피스	-11.8424
▁사무직	-11.8425
▁좋으시네요	-11.8425
▁버터	-11.8425
▁범인	-11.8425
▁평균적으로	-11.8425
▁배탈	-11.8425
▁방향제	-11.8425
▁익숙하지	-11.8425
▁전화하면	-11.8425
▁투명	-11.8425
▁외래	-11.8426
▁추천해드려요	-11.8426
▁유용	-11.8426
▁책가방	-11.8427
▁회의자료	-11.8427
▁증정품	-11.8428
▁금색	-11.8428
▁가입되어	-11.8428
▁내부적으로	-11.8429
▁울어서	-11.843
▁중이었는데	-11.843
▁봤다	-11.843
▁배구	-11.843
▁만들어져	-11.843
▁무언가	-11.843
▁남겨주시면	-11.8431
▁보이던데	-11.8431
▁있으신데	-11.8431
▁무늬	-11.8432
▁클리닉	-11.8432
▁전쟁	-11.8432
▁비울	-11.8433
▁소중	-11.8433
▁중이어서	-11.8434
▁졸음	-11.8434
분정도	-11.8434
▁정기권	-11.8434
▁신기해	-11.8435
▁걸어가셔야	-11.8435
▁신기하게	-11.8435
▁들었니	-11.8436
▁상황이라서요	-11.8437
▁출근이	-11.8437
▁단말기	-11.8438
▁환급해주세요	-11.8438
▁배부르	-11.8438
▁어째서	-11.8438
▁포함하여	-11.8439
▁주민	-11.8439
▁세단	-11.8439
▁죄송한	-11.8439
▁들어있는데	-11.8439
▁왔던데	-11.8439
▁댄스	-11.844
▁캐스팅	-11.8442
▁크니까	-11.8442
▁빌리려고	-11.8442
▁구이용	-11.8442
▁29	-11.8442
▁매체	-11.8442
▁나오셔서	-11.8445
▁탑승이	-11.8445
미터	-11.8445
▁타시고	-11.8445
▁예민한	-11.8445
▁싶으시면	-11.8446
▁지각이야	-11.8447
▁주위에	-11.8447
▁보내드렸습니다	-11.8448
▁번호판	-11.8449
▁전단지	-11.8449
▁고려하면	-11.845
▁처리해드릴게요	-11.8451
▁성인용	-11.8451
▁편리하게	-11.8451
▁많았는데	-11.8452
▁통장에	-11.8453
▁좋다는데	-11.8453
▁복용하세요	-11.8455
▁누구에게	-11.8455
▁진행할까요	-11.8457
된다	-11.8457
▁앞줄	-11.8457
▁이쁜	-11.8458
▁전화드렸는데요	-11.8459
▁태도	-11.8459
▁광장	-11.8459
▁저렴해요	-11.8462
▁대용량으로	-11.8463
▁막내	-11.8463
▁먹어볼래	-11.8464
▁괜찮아질	-11.8465
▁포장되어	-11.8465
▁여쭤	-11.8465
▁배워서	-11.8466
▁자수	-11.8467
다더니	-11.847
▁같았어요	-11.847
▁협상이	-11.8471
▁추구하	-11.8475
▁부족하면	-11.8476
▁바이어와	-11.8476
▁지급하	-11.8476
▁중요한데	-11.8478
▁자석	-11.8478
▁굵기	-11.8478
▁않겠지	-11.8479
▁만점	-11.8479
▁시외	-11.8481
▁만들려고	-11.8481
▁G	-11.8482
▁신어봐	-11.8482
▁괜찮았어	-11.8483
▁확인하시고	-11.8485
▁명인지	-11.8487
▁예쁘지	-11.8487
▁상관없고	-11.8488
▁로그인	-11.8488
▁습관이	-11.8488
▁배송해드리겠습니다	-11.8489
▁"	-11.8489
▁전화상으로	-11.8491
▁도착했습니다	-11.8491
▁방문해야	-11.8493
▁전화했는데	-11.8494
▁뿐인데	-11.8494
▁않죠	-11.8498
▁때문인가요	-11.8498
▁얘기하는	-11.85
▁별로인	-11.8501
▁읽어보고	-11.8502
▁나가려고	-11.8502
▁이유식	-11.8506
▁유나	-11.8507
▁방문하시는	-11.8509
▁발리	-11.8511
▁월요일까지	-11.8513
▁이하로	-11.8515
▁커버력	-11.8518
▁깨질	-11.8519
▁총인원	-11.8519
▁뜯지	-11.8519
▁앉고	-11.852
▁첫날	-11.8521
▁영화관에서	-11.8521
았으면	-11.8525
▁멈추지	-11.8525
▁수당이	-11.8526
▁이동해	-11.8526
▁입사하고	-11.8528
▁책상이	-11.8528
차로	-11.8528
▁쉽고	-11.8529
하므로	-11.8529
▁누락되었	-11.8533
▁날이야	-11.8534
▁서점에서	-11.8534
▁알려주시고	-11.8536
▁시작해요	-11.8538
▁챙기고	-11.854
▁세대	-11.8542
▁취합	-11.8542
▁가져다주시	-11.8542
▁마케팅부	-11.8542
▁게시	-11.8543
▁알려줄게요	-11.8543
▁이용하셔	-11.8545
▁뒀	-11.8546
▁사건이	-11.8547
▁누구야	-11.8548
▁그렇다는	-11.8549
▁오일이	-11.855
▁훼손	-11.8551
▁부사장님	-11.8551
▁그저	-11.8555
▁없던데요	-11.8556
▁공휴일이라	-11.8558
▁커피숍	-11.8558
▁납기일	-11.856
▁앉는	-11.856
▁개인정보	-11.8562
뜩이	-11.8563
월까지	-11.8564
▁들릴	-11.8565
제한이	-11.8565
▁들어가실	-11.8567
이네	-11.857
▁돌아온	-11.8571
▁국가에서	-11.8571
▁중이고	-11.8572
▁사용하세요	-11.8573
▁사업에	-11.8573
▁물린	-11.8577
▁받아주	-11.8583
보이네요	-11.8589
▁생각됩니다	-11.8589
▁생깁니	-11.859
▁오르는	-11.859
▁돌아가면	-11.8592
▁봐야겠어요	-11.8592
▁받았고	-11.8594
▁일정대로	-11.8598
▁생각하는지	-11.8599
▁참석이	-11.86
▁서야	-11.8601
▁찍히	-11.8602
▁줄이야	-11.8607
▁경비에	-11.8608
▁교양	-11.8609
▁해줄래	-11.8615
▁그러신	-11.8615
▁공연에	-11.8617
됐나요	-11.8619
▁출판사	-11.8621
보면	-11.8624
▁넣어드릴	-11.8624
▁있으신지	-11.8631
▁퇴원하고	-11.8634
▁뭘까	-11.8635
▁그릴	-11.8635
▁세웠	-11.8638
▁허용되	-11.8639
▁이용해주세요	-11.864
▁주말이	-11.8642
▁준비했	-11.8643
▁나오는데요	-11.8647
▁한우	-11.8649
▁없잖아요	-11.8649
▁빠듯	-11.865
하더라	-11.865
▁정리할	-11.865
▁한강에	-11.865
▁아니어	-11.8652
▁기억하기	-11.8655
▁보험사	-11.8656
버려야	-11.8656
▁싸서	-11.8658
▁가져가시	-11.8658
▁고민되네	-11.8659
▁임대	-11.866
▁일하다	-11.866
▁글로	-11.8661
▁가야겠어요	-11.8662
▁곳이니까	-11.8665
▁일이죠	-11.8665
▁걸립니	-11.8666
▁통지	-11.8667
▁연말에	-11.8672
▁보냈	-11.8673
▁못해요	-11.8673
▁하거나	-11.8673
▁제품이니	-11.8675
▁장시간	-11.8675
▁가시는데	-11.8677
▁철저하	-11.8678
▁공유해	-11.868
▁빨간색이	-11.868
기까지	-11.8682
▁시켰	-11.8683
▁진료실	-11.8686
▁너무나	-11.869
▁구입	-11.869
▁말씀해주셔야	-11.869
▁옮겼어	-11.869
▁심할	-11.8694
▁마사지사	-11.8696
▁달리기	-11.8697
▁정해졌	-11.8699
▁효과적이	-11.8699
▁수하물로	-11.8704
렸습니다	-11.8706
▁지나가다	-11.8709
▁연락해야	-11.8709
▁이상부터	-11.8713
▁밀어	-11.8716
▁챙겨와야	-11.8717
▁보이나	-11.8717
▁찍으려	-11.8718
▁봐야지	-11.8719
▁당시에	-11.872
▁계산하려고	-11.8722
▁파악하	-11.8722
▁얘기하고	-11.8726
▁원칙	-11.8728
▁보냈다	-11.873
지지	-11.8733
▁검색했	-11.8736
▁잭	-11.8737
▁일시적	-11.8738
▁아실	-11.8739
여도	-11.8748
▁기다리기	-11.875
▁회식하	-11.8754
▁지원받	-11.8755
▁거잖아요	-11.8756
되었던	-11.8756
▁알겠는데	-11.8759
▁하나인데	-11.8762
▁배우기	-11.8763
▁하고요	-11.8767
▁보였어	-11.8767
▁높고	-11.8774
▁허가	-11.8774
▁귀사에	-11.8775
▁제약	-11.8781
▁손가락이	-11.8782
o	-11.8783
▁옷들이	-11.8785
▁입기	-11.8785
▁수주	-11.8787
▁정리하는	-11.8789
▁결정해야	-11.8792
▁약에	-11.8794
▁바뀌었나	-11.8795
▁시키지	-11.8802
▁엄격하	-11.8804
▁색깔로	-11.8805
▁고용	-11.8807
▁조리해	-11.8808
▁경복궁	-11.8809
다니까	-11.8813
▁유형	-11.8814
▁마켓	-11.8815
았어	-11.8815
▁자막이	-11.8817
▁지원팀	-11.8821
▁설탕이	-11.8823
줘야지	-11.8824
▁비싸고	-11.8826
▁안되	-11.883
▁항목이	-11.8831
▁알기	-11.8832
▁전날에	-11.884
▁좋아하신다	-11.884
▁적정	-11.8841
▁선택지	-11.8842
지방	-11.8846
▁기준에	-11.8846
▁운동해야	-11.8847
▁빡빡	-11.8849
▁나가셔야	-11.885
▁당사	-11.8851
▁유도	-11.8852
▁저러	-11.8852
▁해소	-11.8855
▁풀면	-11.8856
▁적었	-11.8856
▁지원자분	-11.8857
▁들더라	-11.8859
▁종류로	-11.886
▁해드려야	-11.8862
▁끝나기	-11.8863
▁장바구니에	-11.8867
▁조명이	-11.8867
하네	-11.8868
해주시는	-11.8874
▁취합해	-11.8878
▁제육볶음	-11.8879
▁반찬이	-11.8879
▁과도	-11.888
▁가긴	-11.888
▁다리에	-11.8883
원에서	-11.8888
스러운	-11.8888
▁찾으시	-11.8889
▁오래되	-11.8889
▁실시	-11.8889
▁들어오기	-11.8895
▁다쳤	-11.8898
▁현금만	-11.8899
▁민감한	-11.8904
해놓으	-11.8908
▁정리해야	-11.8911
▁도전해보	-11.8913
▁지사로	-11.8917
일째	-11.8925
▁맞았어	-11.8927
▁공장이	-11.8927
▁상점	-11.8928
▁대학생들	-11.8932
▁여지	-11.8933
▁들어갔다	-11.8938
▁가져올게	-11.8942
▁방침	-11.8943
▁나빠	-11.895
▁준수	-11.8952
▁강사님	-11.8958
▁피하	-11.8958
▁복용해	-11.896
▁환불받을	-11.896
▁별로였어	-11.8962
▁친구야	-11.8967
▁묵는	-11.8968
▁동의해	-11.8971
▁차분	-11.8974
▁방이라	-11.8974
안	-11.8974
▁과실이	-11.8974
▁가져가는	-11.8974
▁그림에	-11.8974
▁퇴근하면	-11.8976
▁문제일	-11.8977
▁찍어주	-11.8978
▁팬들이	-11.8983
▁장식이	-11.8986
▁길어져	-11.8992
했대	-11.8994
오셨으면	-11.8995
랄	-11.9
▁잡혀있어	-11.9001
▁입고되는	-11.9001
▁지도에서	-11.9004
▁구이	-11.9005
▁섬에	-11.9005
▁포장하는	-11.9007
▁별로였	-11.901
▁표시해	-11.9012
▁출근하면	-11.9013
▁저조한	-11.902
▁개념	-11.9021
▁정가	-11.9027
▁예매하	-11.9027
▁인사부	-11.9031
▁기계로	-11.9034
▁저렴해	-11.9035
▁탕비실에	-11.9037
▁등교	-11.9037
▁시즌에	-11.9037
▁입고된	-11.9041
▁받으셨나	-11.9041
▁탑승장	-11.9045
해드려요	-11.9052
▁와인이	-11.9055
▁광고에서	-11.9055
▁물어볼까	-11.9056
▁적어주시	-11.9059
▁설립	-11.9061
▁길고	-11.9063
▁환급이	-11.9063
▁궁금	-11.9065
▁시간이니까	-11.9065
▁실망이	-11.9078
▁그쪽이	-11.9079
▁가져다드리면	-11.9082
▁일시	-11.9083
▁가래	-11.9084
▁이동하면	-11.9087
▁나와서요	-11.9093
▁드리려	-11.9094
▁진행해서	-11.91
▁확정이	-11.91
▁쌓였	-11.9102
▁줄여야	-11.9109
▁등록할	-11.9116
▁마케팅이	-11.9117
▁순위	-11.9119
▁분인데	-11.912
▁폭이	-11.9125
▁한계	-11.9128
▁변경하시	-11.9129
센터에서	-11.9136
▁한잔하	-11.9137
▁증	-11.9145
▁휴학	-11.9146
▁수출하는	-11.9148
▁자극	-11.9148
킹	-11.9149
▁없었나	-11.9152
▁적립금이	-11.9153
▁기능에	-11.9153
▁거에	-11.9154
했	-11.9155
▁신어	-11.9156
염	-11.9158
▁서점이	-11.9159
▁책장	-11.9166
▁정책이	-11.9168
▁정도까지	-11.9169
▁진짜요	-11.9169
▁안내판에	-11.9171
▁치료받으	-11.9174
▁조율하	-11.9175
▁고려해야	-11.9176
▁봤나	-11.9182
▁빌	-11.9184
▁창의적	-11.9185
▁실적에	-11.9185
소한	-11.9189
▁연락할게	-11.919
▁지방이	-11.9193
▁달라지는	-11.9196
▁집중해야	-11.9199
▁먹어봐야	-11.9203
▁가을이	-11.9204
▁헤어지	-11.9207
정거장	-11.9209
▁바늘이	-11.921
▁녹음	-11.921
▁시작했	-11.9215
▁풀리	-11.9215
▁손가락에	-11.9218
▁그렇다	-11.9219
▁주문서에	-11.9219
▁시연	-11.922
▁달지	-11.9221
▁라켓	-11.9222
▁거절하	-11.9224
▁척	-11.9227
▁적어두	-11.9229
▁택	-11.9245
▁체인점	-11.9246
▁건너가	-11.9246
▁사거리에	-11.9248
▁열풍	-11.9249
▁옥상에	-11.9249
▁투어에	-11.9249
▁도둑맞	-11.9253
받으실	-11.9261
받으신	-11.9262
으	-11.9268
▁않던	-11.927
▁데려다	-11.928
▁뜻이	-11.9282
▁어지럽	-11.9284
▁환급해	-11.9289
▁찾아보는	-11.929
▁공부한	-11.9295
▁분만	-11.9296
▁보내기	-11.9299
▁왔거든	-11.93
▁그다음에	-11.9302
s	-11.9306
▁운동해	-11.9307
▁비염	-11.9311
▁거짓말	-11.9313
▁아파트에	-11.9314
▁이때	-11.9314
교	-11.9316
르지	-11.9316
▁수립	-11.9317
▁상할	-11.9318
▁증가하였	-11.9321
▁곳들	-11.9323
O	-11.9323
▁보관해	-11.9326
▁찍으시	-11.9328
▁노동	-11.9331
▁가져오셨	-11.9332
▁동아리방에	-11.9336
▁그것까지	-11.9336
▁사귄다	-11.9338
▁만드	-11.9343
▁자몽	-11.9343
▁서명하	-11.9345
▁받으셨	-11.9346
▁반반	-11.9346
▁거품	-11.9351
▁해제	-11.9356
▁국민	-11.9356
▁감수	-11.9363
▁줄에	-11.9371
됐다는	-11.9371
▁늦추	-11.9372
▁대비해	-11.9373
렸어요	-11.9373
▁참조	-11.9376
▁신입이	-11.9378
▁세미나에	-11.9382
▁미치	-11.9383
▁경기도	-11.9387
동이	-11.939
▁기침이	-11.9391
률	-11.9394
▁맞은편	-11.9398
▁버스비	-11.9398
▁이수	-11.9399
▁주민등록증이	-11.94
▁신인	-11.9404
▁신가요	-11.9404
▁도착해	-11.9405
▁취할	-11.9405
편	-11.9405
▁오리엔테이션	-11.9409
▁전단	-11.9414
정된	-11.9414
▁절약	-11.9416
작업	-11.9435
▁달이	-11.9442
▁넣으시	-11.9447
증	-11.945
▁마련이	-11.9452
G	-11.9453
▁건너에	-11.9456
▁관람이	-11.9457
▁일상생활	-11.9461
▁했다면	-11.9462
▁음식점에	-11.9463
▁발권하	-11.9464
▁얘기하면	-11.9465
▁열람실	-11.9466
▁연락하면	-11.947
해주신다면	-11.9472
▁자리인데	-11.9473
▁인재	-11.9476
▁공연장에	-11.9477
카드	-11.948
▁하셨던	-11.9481
▁비워	-11.9483
줄게	-11.9484
▁스타트업	-11.9489
▁타보	-11.9499
▁베이지색	-11.9504
▁하셨으니	-11.9504
둘게	-11.9504
▁열린	-11.9507
▁자체적	-11.9512
▁모르겠	-11.9519
▁키워	-11.9522
센터	-11.9522
▁차트	-11.9522
▁실망하	-11.9524
▁지난해	-11.9525
▁입금되	-11.953
▁되었을	-11.9534
▁뿐이	-11.9536
▁그러셔	-11.9538
▁120	-11.954
▁연락드릴	-11.9541
▁기관에	-11.9547
▁졸업한	-11.9547
놔	-11.9547
▁대기자	-11.9549
▁발견하	-11.955
▁담당자분	-11.9551
▁그러다	-11.9552
들만	-11.9557
▁신용	-11.9557
▁변경해드리	-11.9565
엄	-11.9567
짝	-11.9569
▁똑똑	-11.957
교육	-11.9571
▁벗겨	-11.9576
합	-11.9576
▁마무리되	-11.9579
실에서	-11.9581
▁장염	-11.9584
▁보았	-11.9585
문제	-11.9586
▁지출이	-11.9586
▁가셔	-11.9587
볼래요	-11.9589
▁영문	-11.959
▁사랑하	-11.9591
소스	-11.9596
버스	-11.9601
▁터졌	-11.9602
▁혼란	-11.9602
벨	-11.9603
▁들어와야	-11.9603
변경	-11.9604
봅니다	-11.9604
힘	-11.9605
학점	-11.9607
▁필	-11.9608
▁식감	-11.9608
▁비교해보	-11.961
▁죽겠어	-11.9611
▁내역이	-11.9612
▁언론	-11.9612
▁환불해드릴	-11.9613
▁시즌이	-11.9613
봉지	-11.9613
▁거라는	-11.9617
▁퍼	-11.9618
▁코치님	-11.9618
▁기다려보	-11.9619
갈비	-11.9619
▁관리팀에	-11.962
▁아쉬운데	-11.962
▁구역에	-11.9622
야겠네	-11.9623
▁새치	-11.9624
명세서	-11.9624
▁못하겠어	-11.9625
▁노후	-11.9625
▁잘됐네	-11.9628
▁빠졌어	-11.9628
▁뻔했네	-11.9629
▁모드	-11.9629
▁서두르	-11.9632
▁찾겠어	-11.9632
▁잘해야	-11.9633
▁자기소개	-11.9634
▁걸렸어	-11.9634
▁물놀이	-11.9635
▁보이잖아	-11.9636
▁물질	-11.9636
▁나왔네	-11.9637
▁대기업	-11.9638
▁늦었어	-11.9639
▁전화드렸는데	-11.9639
▁간에	-11.9642
▁아시	-11.9642
4,000	-11.9644
롭지	-11.9646
▁아동복	-11.9646
▁불안해	-11.9646
일과	-11.9647
▁교환으로	-11.9648
▁드라이브	-11.9653
하셨네요	-11.9654
▁아프신	-11.9655
▁윤	-11.9656
▁수행	-11.9661
▁찍어드리	-11.9661
▁촬영하는	-11.9661
▁진급	-11.9661
▁중순	-11.9663
▁소형	-11.9663
▁간호사님	-11.9663
▁진찰	-11.9664
▁헬스	-11.9666
▁수월하	-11.9666
▁감는	-11.9666
▁언	-11.9667
▁마셔야	-11.9667
▁어떨지	-11.9668
▁초록	-11.9668
▁스위트	-11.9668
t	-11.9669
▁여동생	-11.967
▁여행객	-11.967
▁제임스	-11.967
▁카테고리	-11.967
▁태블릿	-11.967
▁곁에	-11.967
▁구조조정	-11.967
▁규율	-11.967
▁그사이에	-11.967
▁나눌	-11.967
▁논술	-11.967
▁눈앞에	-11.967
▁다큐멘터리	-11.967
▁레모네이드	-11.967
▁로맨스	-11.967
▁멕시코	-11.967
▁명찰	-11.967
▁믹서기	-11.967
▁믿음	-11.967
▁밥솥	-11.967
▁벼락치기	-11.967
▁빔프로젝터	-11.967
▁손빨래	-11.967
▁스쾃	-11.967
▁아마추어	-11.967
▁액티비티	-11.967
▁야유회	-11.967
▁양배추	-11.967
▁에어로빅	-11.967
▁엑스트라	-11.967
▁열애설	-11.967
▁염려	-11.967
▁예방접종	-11.967
▁왁싱	-11.967
▁유람선	-11.967
▁인건비	-11.967
▁인공지능	-11.967
▁인상착의	-11.967
▁재작년	-11.967
▁지출결의서	-11.967
▁짧았	-11.967
▁초음파	-11.967
▁콜택시	-11.967
▁트래킹	-11.967
▁트레이닝	-11.967
▁트로트	-11.967
▁특급	-11.967
▁틴트	-11.967
▁패브릭	-11.967
▁팻말	-11.967
▁한국전자	-11.967
▁헷갈릴	-11.967
▁화살표	-11.967
▁효능	-11.967
▁흠이	-11.967
덟	-11.967
뿍	-11.967
쩜	-11.967
▁간병인	-11.967
▁김해리	-11.967
▁스위치	-11.967
▁유인물	-11.967
▁헤맸	-11.967
▁여행자수표	-11.967
▁크루즈	-11.967
▁미숙	-11.967
▁아가씨	-11.967
▁베란다	-11.967
▁식단조절	-11.967
▁프라이드치킨	-11.967
▁번거로우시겠지만	-11.967
▁재발송	-11.967
▁혼합	-11.967
▁계란찜	-11.967
▁꼬마	-11.967
▁양궁	-11.967
▁덕분이죠	-11.967
▁아로마	-11.967
▁골프채	-11.967
▁미니바	-11.967
▁진동벨	-11.967
▁손바닥	-11.967
▁철분제	-11.967
▁베스트	-11.967
▁잠옷	-11.967
▁쓸데없	-11.967
▁빈혈	-11.967
▁엄두	-11.967
▁가족여행	-11.967
▁처벌	-11.967
▁드라이버	-11.967
▁생머리	-11.967
▁실밥	-11.967
▁인턴사원	-11.967
▁오리고기	-11.967
▁라임	-11.967
▁교내	-11.967
▁무통장	-11.967
▁육류	-11.967
저주파	-11.967
▁차갑	-11.967
▁핑크색	-11.967
▁등산용품	-11.967
▁직통	-11.967
▁합당한	-11.967
▁크림소스	-11.967
▁마취	-11.967
▁김하나	-11.967
▁은근	-11.967
▁흥미로운	-11.967
▁점유율	-11.967
▁협약	-11.967
▁골반	-11.967
▁역무원	-11.967
▁마땅치	-11.9671
▁어딘가요	-11.9671
▁남자아이	-11.9671
▁바닷가재	-11.9671
▁꺼낼	-11.9671
▁주황색	-11.9671
▁이어질	-11.9671
▁뷰티	-11.9671
▁소개팅	-11.9671
▁반죽	-11.9671
▁수고하셨습니다	-11.9671
▁풍선	-11.9671
▁인턴십	-11.9671
▁달라집니다	-11.9671
▁원격	-11.9671
▁인수	-11.9671
▁유효기간	-11.9671
▁석사	-11.9671
▁제과점	-11.9672
▁철회	-11.9672
▁부팅	-11.9672
▁죄송하네요	-11.9672
▁다행이군요	-11.9672
▁반품처리	-11.9672
▁끝납니다	-11.9672
▁골랐는데	-11.9673
▁재미있었어	-11.9673
▁찜질팩	-11.9673
▁다행인데	-11.9673
▁했길래	-11.9673
▁아시겠지만	-11.9673
▁있겠니	-11.9673
▁들르	-11.9673
▁국외	-11.9673
▁놓쳤는데	-11.9673
▁물렸는데	-11.9673
▁주문받았습니다	-11.9673
▁출발했으니	-11.9673
▁학비	-11.9674
▁분식집	-11.9674
▁월차	-11.9674
▁발볼	-11.9674
▁고칠	-11.9674
▁둘러보시고	-11.9674
▁비용처리	-11.9674
▁출장보고서	-11.9674
▁아시다시피	-11.9675
▁키위	-11.9675
▁비디오	-11.9675
▁스튜디오	-11.9675
▁컨디션	-11.9675
▁칼국수	-11.9675
▁강제	-11.9675
▁메밀	-11.9675
▁포즈	-11.9675
▁반바지	-11.9675
달러짜리	-11.9676
▁구사	-11.9676
▁주유	-11.9676
▁감각	-11.9676
▁자가용	-11.9676
▁결론	-11.9677
▁이름표	-11.9677
▁소유	-11.9677
▁후추	-11.9677
▁에어	-11.9677
▁무작위	-11.9678
▁떼어	-11.9678
▁볼거리	-11.9678
▁체리	-11.9678
▁급식	-11.9678
▁불가능하지만	-11.9678
▁후속	-11.9678
▁가공	-11.9679
▁출입문	-11.9679
▁당사자	-11.968
▁나을까	-11.968
▁시스템상에	-11.968
▁지참해	-11.968
▁오시니까	-11.968
▁우천	-11.968
▁상사에게	-11.9681
▁있었군요	-11.9681
▁분수대	-11.9681
▁곤란하네요	-11.9681
▁학번	-11.9681
▁예약했	-11.9681
▁선박	-11.9681
▁첨부해	-11.9681
▁의무실	-11.9681
▁귀하	-11.9681
▁알려줬	-11.9681
▁착각했네요	-11.9682
▁않겠죠	-11.9682
▁대비하여	-11.9682
▁완료하	-11.9682
▁살피	-11.9682
▁경영학	-11.9682
▁거주지	-11.9682
▁사라져	-11.9683
▁예정이며	-11.9683
▁상관없지만	-11.9683
▁맞았는데	-11.9683
▁싫어하는데	-11.9683
▁나누어져	-11.9683
▁수면실	-11.9683
▁경영진	-11.9684
▁재생	-11.9684
▁파우더	-11.9684
▁신사업	-11.9684
▁사인회	-11.9684
▁특이하게	-11.9685
▁올렸는데	-11.9685
▁먹어봤는데	-11.9685
▁바란다	-11.9685
▁하냐	-11.9685
▁수육용	-11.9685
▁고마웠어	-11.9685
▁들어보는데	-11.9685
▁묻혀서	-11.9686
▁금주	-11.9688
▁말씀드렸던	-11.9688
▁38	-11.9688
▁바위	-11.9688
▁공지사항	-11.9689
▁인체	-11.9689
▁잊어버리	-11.9689
▁표준	-11.9689
▁출연진	-11.9689
▁마친	-11.9689
▁인출	-11.9689
▁짐작	-11.969
▁풍	-11.969
▁신어보세요	-11.9691
▁비교하면	-11.9692
▁종점까지	-11.9692
▁저렴하네요	-11.9692
▁청소할	-11.9692
▁갑작스러운	-11.9692
▁아웃	-11.9693
▁인스타그램에서	-11.9693
▁확인해봤는데	-11.9693
▁입었는데	-11.9694
▁남았나요	-11.9694
▁과다	-11.9695
▁북한	-11.9695
▁하시니까	-11.9695
▁먹어야겠다	-11.9695
▁해운대	-11.9695
▁맛있었는데	-11.9695
▁들으셨나요	-11.9695
▁작성해주시고	-11.9697
▁부딪혔	-11.9697
▁얼마까지	-11.9699
▁연관	-11.97
▁세워두	-11.97
▁저거	-11.97
▁서두르지	-11.9701
▁침상	-11.9702
▁찾으시나요	-11.9702
▁V	-11.9702
▁단종	-11.9702
▁90,000	-11.9702
▁퍼져	-11.9703
▁쓰여있는데	-11.9704
▁보내주시	-11.9704
▁풀어주	-11.9704
▁그러죠	-11.9705
▁자기소개서	-11.9705
▁받았다고	-11.9706
▁마찬가지야	-11.9706
▁샀었는데	-11.9707
▁전부예요	-11.9707
▁생겼네요	-11.9708
▁되다니	-11.9708
▁이후부터	-11.9708
▁독서	-11.9708
▁유일	-11.9708
▁다양해서	-11.9709
▁방문하시기	-11.9712
살인데	-11.9713
▁신관	-11.9713
▁떨리네	-11.9714
▁해드렸고	-11.9714
▁별로예요	-11.9714
▁당번	-11.9715
▁선사	-11.9715
▁방문하셔	-11.9716
▁치는데	-11.9717
▁승인이	-11.9717
▁생각하시는지	-11.9717
▁썼어요	-11.9718
인석	-11.9718
▁수정사항	-11.9718
▁특색이	-11.9718
▁인사팀에서	-11.9719
▁도와줄래	-11.9719
▁않았냐	-11.972
▁X	-11.9721
▁멈춰서	-11.9721
▁돌아가면서	-11.9721
▁농장	-11.9722
요리	-11.9722
▁시위	-11.9722
▁되었지만	-11.9724
▁맥	-11.9724
▁작성했는데	-11.9725
▁드시나요	-11.9725
▁차근	-11.9725
▁우와	-11.9726
▁망가지지	-11.9726
▁계획이야	-11.9726
▁맡겨놓	-11.9726
▁확인해보자	-11.9727
▁사용법	-11.9727
▁병원비	-11.9728
▁완료해야	-11.9728
▁하신다면	-11.9729
▁퇴근길	-11.9729
▁체인	-11.9729
▁레일	-11.973
▁물집이	-11.973
▁해결하기	-11.9731
▁아니잖아요	-11.9732
▁시작하는데	-11.9732
▁재무팀에서	-11.9732
▁지침	-11.9733
▁승	-11.9733
대비	-11.9734
▁한창	-11.9735
▁튼튼한	-11.9737
▁가릴	-11.9737
▁뿌듯해	-11.9738
50	-11.9739
▁무겁지	-11.9741
▁O	-11.9741
▁삼아	-11.9743
▁이동하기	-11.9745
▁드리라고	-11.9746
▁느껴지지	-11.9747
▁오느라	-11.9747
▁놓쳤어	-11.9748
▁하셨네요	-11.9749
▁졸업이	-11.9749
▁설레	-11.975
다거나	-11.975
▁보인다고	-11.9751
▁출장지	-11.9751
▁뉴욕에서	-11.9751
▁계산할게	-11.9752
▁E	-11.9752
▁부탁하겠습니다	-11.9753
일수록	-11.9753
▁통화하	-11.9754
▁이러지	-11.9755
▁똑같은데	-11.9756
▁도난당	-11.9757
▁졸리	-11.9758
▁출장건	-11.9758
▁줬는데	-11.9758
▁시원하고	-11.976
▁매운데	-11.976
▁늦어진	-11.9761
▁손님에게	-11.9763
▁곳곳에	-11.9763
▁평이	-11.9763
▁시작한다	-11.9763
▁보내줄래	-11.9766
▁들기	-11.9766
▁방법인	-11.9766
▁응급실로	-11.9767
▁나오더라	-11.9768
▁가벼워	-11.9768
▁미용실이	-11.9771
▁진열되어있	-11.9771
▁걸리더라	-11.9772
▁구상	-11.9772
▁들어오는데	-11.9774
▁운행이	-11.9775
▁신분증이랑	-11.9775
▁대기해	-11.9776
▁드리는데	-11.9776
▁업체로	-11.978
▁걸었는데	-11.9788
▁개에	-11.9789
▁싸우는	-11.9789
▁집들이	-11.979
▁보이시는	-11.9792
▁달아	-11.9792
▁빼려고	-11.9794
▁타월	-11.9795
▁새제품	-11.9796
▁길어지	-11.9796
▁맡기려고	-11.9797
▁실어	-11.9798
▁예전보다	-11.9798
▁붓기	-11.9799
▁앞인데	-11.9799
해보	-11.9802
▁얼마만큼	-11.9802
▁메뉴인	-11.9803
▁기간이라서	-11.9805
▁남는데	-11.9807
▁존재하	-11.9807
▁설치할	-11.9808
▁드렸	-11.9809
교시	-11.981
▁주소지로	-11.9811
보니	-11.9811
해보죠	-11.9811
▁있어야지	-11.9812
▁송부	-11.9813
▁전문성	-11.9814
▁데뷔	-11.9815
▁라인에	-11.9816
▁힘들어하는	-11.9817
이십니다	-11.9817
▁알면서	-11.9817
▁없었잖아	-11.9821
▁떨어지면	-11.9823
▁차려	-11.9824
▁부담스럽지	-11.9824
▁풍부	-11.9824
▁쓰인	-11.9825
지고	-11.9826
▁주름	-11.9828
▁소진되었	-11.9831
▁들어봐	-11.9832
▁식사하	-11.9832
▁촬영한	-11.9832
다면서요	-11.9834
▁용건	-11.9835
▁기업에서	-11.9836
▁검토하고	-11.9836
▁원하는데	-11.9837
▁거쳐	-11.9844
▁지원했	-11.9846
▁실감	-11.9846
▁휴대폰이	-11.9847
▁쓰레기통에	-11.985
받아야	-11.985
▁안되고	-11.9851
▁비어있	-11.9852
해줄래	-11.9852
▁변경되어	-11.9853
▁찾아봐야겠어	-11.9853
▁지원하지	-11.9854
▁걸리지만	-11.9854
▁상해서	-11.9854
▁단발이	-11.9856
▁준비해두	-11.9856
죽	-11.9857
▁필요하니까	-11.9859
▁직원분들	-11.986
▁포맷	-11.9862
▁떠드는	-11.9865
▁배송될	-11.9866
▁행사로	-11.9867
▁감아	-11.9867
▁변경되었	-11.9868
연도	-11.9868
▁시술받	-11.9869
▁분실해서	-11.987
▁임원들	-11.987
▁운동량	-11.9871
▁커플이	-11.9872
▁친근	-11.9872
▁신선해	-11.9874
▁아깝지	-11.9875
▁아니냐	-11.9876
▁알았다	-11.9879
▁올라갔	-11.9882
▁하시던	-11.9883
▁다녀올까	-11.9885
▁먹습니다	-11.9887
▁쉬지	-11.9887
▁따지	-11.9889
났다고	-11.989
▁틀고	-11.989
▁뻔했다	-11.9895
▁가능해서	-11.9896
▁가시다	-11.9898
▁요구하	-11.9898
12	-11.9902
▁싫어해	-11.9903
▁이력서에	-11.9904
▁먹으려고요	-11.9905
▁사유로	-11.9906
▁죄송하다	-11.9906
▁정성	-11.9906
▁넘어가는	-11.9906
▁에이	-11.9907
▁들리면	-11.9907
▁늘어나는	-11.9907
▁원래대로	-11.9909
▁나왔고	-11.9914
▁게이트로	-11.9915
▁개명	-11.9918
▁대략적	-11.9919
▁샤워기	-11.9919
병까지	-11.9921
▁더워요	-11.9925
▁축하하	-11.9925
▁반도	-11.9926
려요	-11.9935
▁고맙네	-11.9936
▁좋아졌	-11.9936
▁심심하	-11.9937
▁조원	-11.9939
▁없었는데요	-11.994
▁흘려	-11.994
▁중국과	-11.9941
▁높아지	-11.9942
▁환불하면	-11.9943
▁해드리는	-11.9948
르긴	-11.9948
▁첨부하	-11.9949
▁먹자고	-11.9956
▁무료인가요	-11.9956
▁했잖아요	-11.9957
▁하신다고	-11.9958
▁오네요	-11.9959
▁조절하	-11.9961
▁양식에	-11.9962
▁초기화	-11.9962
▁만들어보	-11.9963
버렸네요	-11.9966
▁비싸더라	-11.9967
▁드릴테니	-11.9968
해봐요	-11.9968
▁판매한	-11.9972
▁해보면	-11.9975
▁내부에서	-11.9976
▁일종	-11.9976
▁있는걸	-11.9977
▁여쭤볼게	-11.9981
▁상품이에요	-11.9983
▁보장되	-11.9985
▁도와주신	-11.9985
▁상이	-11.9986
다시	-11.9986
했었잖아	-11.9987
▁반영하	-11.9989
▁하셨는데요	-11.999
▁제안한	-11.9992
돼요	-11.9993
▁물어보지	-11.9995
▁적성	-11.9999
원한테	-12.0001
▁제출하는	-12.0003
▁먹는다고	-12.0004
▁따져	-12.0005
▁깊이	-12.0007
▁아니라서요	-12.0007
방에	-12.0008
▁한대요	-12.001
▁축하해주	-12.0015
차가	-12.0018
▁피지	-12.0018
▁가깝지	-12.002
▁찢어졌	-12.002
▁민원이	-12.0025
▁전화하	-12.0026
▁부르면	-12.0026
▁접수하고	-12.0032
▁잘하면	-12.0038
▁근방에	-12.0039
▁친구인데	-12.0045
▁걸려있	-12.0045
나갈	-12.0046
▁부문	-12.0046
▁과속	-12.0047
▁처음이네	-12.0047
움	-12.0048
▁계약서상에	-12.005
▁전용으로	-12.0053
▁작동하는	-12.0053
원에게	-12.0053
▁졸업하는	-12.0054
시장	-12.0056
▁대게	-12.0056
▁부러졌	-12.0056
▁많지만	-12.0059
▁와봐	-12.0059
▁감자튀김이	-12.0059
▁갈비탕	-12.006
해지	-12.0064
▁신중	-12.0064
▁성형	-12.0068
▁말린	-12.0072
▁의도	-12.0073
시던데	-12.0073
▁채워야	-12.0074
▁가능하다는	-12.0075
▁짜지	-12.0075
▁고민해	-12.008
▁의사소통	-12.0084
▁출근하는	-12.0093
▁사게	-12.0096
▁알려주지	-12.0099
▁녹여	-12.0099
▁싱싱하	-12.0101
▁올려보	-12.0102
▁공휴일	-12.0102
▁공연장이	-12.0103
▁멈추는	-12.0103
▁여성들	-12.0108
▁최저	-12.0109
▁시들	-12.0113
▁커피에	-12.0118
▁맡을	-12.0118
▁교체하	-12.0118
▁크기입니다	-12.0119
보고서	-12.0121
▁불러드릴	-12.0123
▁산에서	-12.0124
▁은행으로	-12.0125
▁줬으	-12.0126
▁낚시	-12.013
▁승객이	-12.0135
▁좋아해서요	-12.0137
▁보이시	-12.0141
▁않을래요	-12.0143
▁가입해	-12.0144
▁기다렸어	-12.0144
▁많아지	-12.0146
▁진행하려고	-12.0146
▁하반기에	-12.0149
▁교육에	-12.0152
▁포장하려고	-12.0152
▁빌리시	-12.016
▁저희끼리	-12.0161
▁커뮤니티	-12.017
▁개찰구	-12.017
▁완료되어	-12.0173
▁적자	-12.0175
▁생소	-12.0179
▁남미	-12.0179
▁줘요	-12.0179
▁야간에	-12.0184
▁교체해야	-12.0185
7	-12.0187
▁계산서에	-12.0188
▁다과	-12.019
▁버스와	-12.0192
▁소집	-12.0192
▁수하물에	-12.0194
▁두었는데	-12.0196
▁받으셨던	-12.0197
▁끝났으니	-12.02
▁평일이라	-12.0202
▁맞추어	-12.0203
▁커튼이	-12.0209
▁나오더라고	-12.021
▁이루어지는	-12.0211
▁신청해서	-12.0219
▁싸다	-12.0223
▁눌렀	-12.0226
▁버스정류장에	-12.0228
▁더빙	-12.0232
▁돌아다녀	-12.0242
▁불러주	-12.0243
▁직장인	-12.0246
드리고	-12.0246
▁붙는	-12.0246
▁돕는	-12.0247
▁콘서트장	-12.0248
올까요	-12.0254
000	-12.0256
▁부분까지	-12.026
▁피클	-12.0261
▁닫을	-12.0263
▁중요할	-12.0264
▁하려	-12.0264
▁줄로	-12.0266
▁보내드렸	-12.0269
▁구경해	-12.0271
해져서	-12.0277
▁건조기	-12.0277
▁팔지	-12.0279
▁정도에	-12.0279
▁입학식에	-12.028
▁옷으로	-12.0282
▁되어서요	-12.0286
▁부원들	-12.0286
20	-12.0286
▁조율해	-12.0288
▁날이라	-12.0299
▁자극적	-12.03
▁칼이	-12.0302
였고	-12.0304
▁정했어	-12.0305
▁다니다	-12.0305
▁간호사실에	-12.0305
▁시원	-12.0311
▁제품이라면	-12.0312
▁초대해	-12.0314
▁형식이	-12.0315
▁당황하	-12.0318
▁발급하	-12.0319
▁문제없어	-12.0325
시다시피	-12.034
▁간편	-12.0344
▁살았	-12.0345
▁구역이	-12.035
▁일상	-12.0352
▁즐기는	-12.0352
▁개별적	-12.0352
▁있으셨	-12.0352
▁공책이	-12.0355
있어요	-12.0357
▁낮아	-12.0359
▁분홍색이	-12.0359
▁고맙	-12.036
▁과제에	-12.0361
▁모르겠는데요	-12.0361
▁관리팀	-12.0364
▁살아야	-12.0364
▁먹으	-12.0366
셨나	-12.0367
▁적에	-12.0368
▁읽지	-12.0369
명만	-12.0369
▁외부인	-12.0372
▁신입이라	-12.0378
▁바다에	-12.0382
▁시청역	-12.0384
▁계절이	-12.0384
▁조회해보니	-12.0387
짐이	-12.039
▁기대되는	-12.0395
▁되냐	-12.0398
▁높을	-12.0399
▁여행지	-12.0402
▁가냐	-12.0404
▁콘서트에	-12.0405
▁파마로	-12.0408
컵	-12.0409
▁내려주	-12.0411
▁원으로	-12.0417
▁거스름돈이	-12.042
▁돌아다니면	-12.0423
▁이상해서	-12.0424
▁괜찮아지	-12.0426
▁뽑기	-12.0429
▁배고프다	-12.0436
▁지나가면	-12.0441
▁왔나	-12.0446
▁어이	-12.0449
▁욕실에	-12.0451
▁방침이	-12.0455
▁재발	-12.0459
▁종류에	-12.0461
▁받았는데요	-12.0461
▁배워	-12.0462
목에	-12.0467
▁응시	-12.048
▁숙	-12.0483
▁의견들	-12.0483
▁국내에	-12.0489
▁회의하	-12.0489
▁전달받았	-12.0493
▁준비되었나	-12.0495
▁생각하시	-12.05
▁결제하시	-12.0501
▁사용자	-12.0506
▁집게	-12.0509
일지	-12.051
▁받아봐야	-12.0511
▁페스티벌	-12.0517
시간까지	-12.0519
▁거란	-12.0521
▁준비했어	-12.0526
▁다루는	-12.0526
▁사람이야	-12.0527
▁발송되	-12.0528
권으로	-12.0533
▁참을	-12.0537
▁본다	-12.0541
▁구멍	-12.0552
▁만들어졌	-12.0552
▁연습하	-12.0555
▁사항들이	-12.0556
▁야근하면	-12.056
▁가까우	-12.0562
▁고객층	-12.0565
▁사줄	-12.0568
▁전담	-12.0568
▁명절에	-12.0569
▁수납하	-12.057
▁양반	-12.0571
▁서면	-12.0573
R	-12.0577
▁패드에	-12.0579
▁연출	-12.0584
▁보시기	-12.0597
▁이것들	-12.0599
진다	-12.0599
▁관객들	-12.0604
▁함	-12.0605
▁떡이	-12.0605
▁뭐하	-12.0616
▁젖어	-12.0617
▁몰리	-12.0622
어져	-12.0625
▁폐기	-12.0625
▁비위	-12.063
▁막혔	-12.0631
쳤어요	-12.0634
▁부족하지	-12.0638
▁성인이	-12.064
▁않으실	-12.0641
▁없습니다만	-12.0641
▁타이	-12.0644
▁말하	-12.0645
▁방문하면	-12.0649
▁명에	-12.0651
▁보유하	-12.0652
▁실용적	-12.0653
드렸어요	-12.0655
▁볼펜이	-12.0656
▁좋아하는지	-12.0658
▁관람하	-12.0661
▁110	-12.0661
▁맞이	-12.0662
▁놀면	-12.0663
▁적어놓	-12.0664
▁추석에	-12.0677
▁생일인	-12.068
▁칸이	-12.068
▁목요일이	-12.0684
▁부분이라	-12.0689
▁영화에서	-12.0693
▁무엇일까	-12.0696
▁깐깐하	-12.0696
이지요	-12.0697
분들께	-12.0704
▁차지	-12.0704
▁다녀왔	-12.0706
▁관계자	-12.0715
▁읽으	-12.072
▁치킨도	-12.072
▁탈의	-12.072
▁준비해드리	-12.0722
▁착륙하	-12.0722
▁조사해	-12.0727
▁실패한	-12.0727
▁등록해	-12.0737
었구나	-12.0738
▁부장	-12.0741
▁색감	-12.0742
▁세일하는	-12.0744
르	-12.0747
▁공부해야	-12.0754
▁재미있었	-12.0755
▁물건이라	-12.076
▁완료해	-12.0761
▁선보	-12.0762
이었구나	-12.0768
▁챙겨오	-12.0768
▁연락해주	-12.0773
태	-12.0777
유	-12.0777
▁알려준	-12.0778
받으세요	-12.0789
▁나올지	-12.079
▁없어지	-12.0796
▁700	-12.0798
강	-12.0799
▁구간	-12.0802
▁교회에	-12.0803
▁타신	-12.0803
▁샌들	-12.0804
▁구해보	-12.0804
▁지장	-12.0806
▁뵙는	-12.0811
됐	-12.0812
상으로	-12.0812
▁그랬었	-12.0812
▁걸릴지	-12.0814
▁어두워	-12.0821
가면서	-12.0826
▁한식이	-12.0829
준다면	-12.0829
▁전화드려	-12.083
C	-12.0831
▁사실이	-12.0833
▁영화로	-12.0835
▁환자분이	-12.0836
회사	-12.0838
▁남자들	-12.0838
시험	-12.0844
▁낼게	-12.0846
▁관광객	-12.0847
▁도쿄에	-12.0848
▁볶음밥이	-12.0851
▁쓰다	-12.0851
▁끓이	-12.0852
했네	-12.0854
▁너보다	-12.0856
▁하였	-12.0861
체가	-12.0864
하시거나	-12.0865
▁서는	-12.0866
▁빠를까	-12.0867
립	-12.0867
▁끝났나	-12.0868
▁체형	-12.0868
▁이어지	-12.0869
▁서울역에	-12.0869
었고	-12.087
하시길	-12.0873
▁220	-12.0874
▁느	-12.0877
호이고	-12.0878
▁총무	-12.0878
▁생각으로	-12.088
▁교환해드리	-12.0883
순	-12.0884
님이	-12.0886
N	-12.0886
▁털이	-12.0887
▁기록에	-12.0889
▁부리	-12.089
▁바꿔드리	-12.0893
▁대전	-12.0894
▁흘러	-12.0896
을까요	-12.09
3,000	-12.0904
▁준비해놓	-12.0912
▁말하기	-12.0916
구이	-12.0916
▁조깅	-12.0922
▁내렸	-12.0927
▁기사들	-12.0928
▁깨져	-12.093
▁보라	-12.0932
▁정시	-12.0933
일인데	-12.0934
되어있는	-12.0935
▁담아야	-12.0937
▁구매했어	-12.0937
▁실외	-12.0939
▁내비게이션에	-12.094
룸	-12.0947
▁확장하	-12.0948
곡	-12.095
보루까지	-12.0951
▁방면	-12.0951
플	-12.0954
드리기	-12.0956
다고요	-12.0959
▁잠실역에	-12.0963
▁다녀와야	-12.0963
▁미지근	-12.0963
▁친척	-12.0963
▁결국에	-12.0963
▁포함되	-12.0964
▁65	-12.0965
▁신선하	-12.0968
으므로	-12.0968
근	-12.097
▁점심으로	-12.0972
▁변명	-12.0978
▁아물	-12.0978
놨으니	-12.0979
▁까먹었	-12.098
포인트	-12.098
▁고기만	-12.098
▁피우	-12.0984
▁차별화	-12.0986
룰	-12.0987
짜	-12.0988
▁억지	-12.0989
▁힘드니	-12.0992
▁빌려주실	-12.0997
▁달라는	-12.1009
▁당황스러	-12.101
희	-12.1011
밀	-12.1011
톤	-12.1014
▁이태원	-12.1017
▁정기적	-12.1018
▁죄송하게	-12.1023
▁경비실	-12.1023
P	-12.1025
맥	-12.1027
씨	-12.1028
율	-12.1028
▁일치	-12.1028
▁모르시	-12.103
벤	-12.1031
거울	-12.1031
▁85	-12.1031
▁표시되어	-12.1031
▁주문했는데요	-12.1031
코스	-12.1034
달간	-12.1037
▁도착했네	-12.104
▁먹으려	-12.104
▁여쭤보는	-12.1047
▁세무	-12.1048
▁하락	-12.1048
공사	-12.105
례	-12.1055
▁화려하	-12.1056
▁소방	-12.1058
▁궁금하네	-12.1059
▁약품	-12.1061
슈	-12.1061
▁갖추	-12.1061
버렸는데	-12.1064
▁썼어	-12.1066
▁따르	-12.1067
해봐	-12.1067
▁과장님께	-12.1069
주문	-12.107
▁갑작스	-12.1072
나무	-12.1074
▁하겠네	-12.1075
▁색다르	-12.1077
▁구도	-12.1077
▁연락드렸는데	-12.1078
▁잘했네	-12.1079
주차	-12.108
▁유효	-12.108
무지	-12.108
▁나오네	-12.1081
▁설득	-12.1082
▁많으시	-12.1083
▁신촌	-12.1084
▁인사과에	-12.1084
▁다양해	-12.1084
▁이상한데	-12.1085
▁가야겠네	-12.1086
▁이코노미	-12.1087
▁부럽	-12.1087
▁국어	-12.1087
▁유치	-12.1088
▁선수들	-12.1089
▁신랑	-12.1089
▁전교	-12.109
▁패스트푸드	-12.1095
▁변호사	-12.1095
하셨으니	-12.1095
▁성립	-12.1096
▁좋잖아	-12.1096
▁그보다	-12.1096
▁유선	-12.1097
▁볼륨	-12.1097
▁맛보	-12.1098
▁서양	-12.1098
틴	-12.1098
▁화학	-12.1098
▁오페라	-12.1098
▁엑스	-12.1098
+	-12.1098
▁갓길	-12.1098
▁겉옷	-12.1098
▁그나저나	-12.1098
▁깁스	-12.1098
▁꺾어	-12.1098
▁껴서	-12.1098
▁나뉘어	-12.1098
▁노이즈	-12.1098
▁대강당	-12.1098
▁댓글	-12.1098
▁덥지	-12.1098
▁돌솥	-12.1098
▁드라이아이스	-12.1098
▁루브르	-12.1098
▁부엌	-12.1098
▁분리수거	-12.1098
▁선하증권	-12.1098
▁세라믹	-12.1098
▁숨쉬기	-12.1098
▁스커트	-12.1098
▁식용유	-12.1098
▁씁니	-12.1098
▁압박	-12.1098
▁앞뒤	-12.1098
▁올림머리	-12.1098
▁웨딩	-12.1098
▁윗몸일으키기	-12.1098
▁육아휴직	-12.1098
▁인천국제공항	-12.1098
▁잃었는데	-12.1098
▁잇몸	-12.1098
▁잤는데	-12.1098
▁재채기	-12.1098
▁젖었	-12.1098
▁젖지	-12.1098
▁조미료	-12.1098
▁찼어	-12.1098
▁축의금	-12.1098
▁커튼콜	-12.1098
▁컴플레인	-12.1098
▁통조림	-12.1098
▁티라미수	-12.1098
▁파상풍	-12.1098
▁프라이팬	-12.1098
▁플랫폼	-12.1098
▁홍수	-12.1098
깬	-12.1098
뀔	-12.1098
듀	-12.1098
뵌	-12.1098
▁PDF	-12.1098
▁갤러리	-12.1098
▁건널목	-12.1098
▁리소토	-12.1098
▁막걸리	-12.1098
▁밟으	-12.1098
▁벚꽃	-12.1098
▁새우버거	-12.1098
▁송별회	-12.1098
▁스낵	-12.1098
▁야외수영장	-12.1098
▁오키나와	-12.1098
▁코미디	-12.1098
▁크리에이터	-12.1098
▁특선	-12.1098
▁페인트	-12.1098
▁할리우드	-12.1098
·	-12.1098
▁가족관계증명서	-12.1098
▁경조사	-12.1098
▁뜻깊	-12.1098
▁양상추	-12.1098
▁지문인식	-12.1098
▁칼퇴근	-12.1098
▁런치	-12.1098
▁바게트	-12.1098
▁검증	-12.1098
▁바퀴벌레	-12.1098
▁수목원	-12.1098
▁여배우	-12.1098
▁정형외과	-12.1098
▁루트	-12.1098
▁곤약	-12.1098
▁면바지	-12.1098
▁포켓	-12.1098
▁신생아	-12.1098
▁라이터	-12.1098
▁오렌지주스	-12.1098
랍니다	-12.1098
▁결말	-12.1098
▁앞접시	-12.1098
쿠버	-12.1098
▁감사드리며	-12.1098
▁금전적	-12.1098
▁캡처	-12.1098
▁온돌형	-12.1098
▁출장경비명세서	-12.1098
▁당뇨	-12.1098
▁의료보험	-12.1098
▁용역	-12.1098
▁입국신고서	-12.1098
▁치즈케이크	-12.1098
▁기념사진	-12.1098
▁요구사항	-12.1098
▁용무	-12.1098
▁생일파티	-12.1098
▁속상해	-12.1098
▁원자재	-12.1098
▁백업	-12.1098
▁풀빌라	-12.1098
▁대단하시네요	-12.1099
▁애견	-12.1099
▁증빙자료	-12.1099
▁맞춤법	-12.1099
▁인적사항	-12.1099
▁요약	-12.1099
▁토마토소스	-12.1099
▁봉사료	-12.1099
▁쌓아	-12.1099
▁출제	-12.1099
▁그전까지	-12.1099
▁스포츠용품	-12.1099
▁귀여워	-12.1099
▁발생주의	-12.1099
▁상비약	-12.1099
▁학위	-12.1099
▁초코	-12.1099
▁직행	-12.1099
▁학사	-12.1099
▁미터기	-12.1099
▁형광펜	-12.1099
▁미안하다	-12.1099
▁감사드려요	-12.1099
▁베이커리	-12.1099
▁학업	-12.1099
▁폭발	-12.1099
▁넉넉잡아	-12.1099
▁코팅	-12.1099
▁학교생활	-12.1099
▁코피	-12.1099
▁우표	-12.11
▁합산	-12.11
▁법정	-12.11
▁피디	-12.11
▁우선순위	-12.11
▁구급약	-12.11
▁도난당했는데	-12.11
▁원칙적으로	-12.11
▁트윈룸	-12.11
잖니	-12.11
▁센스	-12.11
▁교통체증	-12.11
▁인감	-12.11
▁구토	-12.11
▁미백	-12.11
▁출장계획서	-12.11
▁채권	-12.11
▁동물원이	-12.11
▁모기약	-12.11
▁두리야	-12.11
▁들여놓	-12.1101
▁방문했	-12.1101
▁인공	-12.1101
▁잡곡	-12.1101
▁주방용품	-12.1101
▁한마디	-12.1101
▁예절	-12.1101
▁떨어뜨렸는데	-12.1101
▁풀어져	-12.1101
▁밥그릇	-12.1101
▁66	-12.1101
▁않으려면	-12.1101
▁접수번호	-12.1101
▁필기시험	-12.1101
▁특이사항	-12.1101
▁펍에서	-12.1101
▁온돌방	-12.1101
▁문구용품	-12.1101
▁특이하네요	-12.1102
▁시승	-12.1102
▁양념치킨	-12.1102
▁흔들려서	-12.1102
▁추울	-12.1102
▁골치	-12.1102
▁들어봤어	-12.1102
▁점프	-12.1102
▁없으셔서	-12.1102
▁있듯이	-12.1102
▁타워	-12.1102
▁내외	-12.1103
▁찾겠는데	-12.1103
▁드러나	-12.1103
▁나타내	-12.1103
▁밑창	-12.1103
▁보디	-12.1103
▁전채	-12.1103
▁105	-12.1103
▁더우니까	-12.1104
▁자산	-12.1104
▁반갑네요	-12.1104
▁뱀	-12.1104
▁소회의실	-12.1104
▁패딩	-12.1104
▁비린내	-12.1104
무원	-12.1104
▁의약품	-12.1104
▁소염제	-12.1104
▁입어볼게요	-12.1105
▁복잡한데	-12.1105
▁아버지께서	-12.1105
▁모공	-12.1105
리에	-12.1105
▁났나	-12.1106
▁시집	-12.1106
▁없으며	-12.1106
▁속력	-12.1106
▁개업	-12.1106
▁유예	-12.1106
▁차단제	-12.1106
▁드셨는지	-12.1106
▁임원진	-12.1107
▁자사	-12.1107
▁풀장	-12.1108
▁이목	-12.1108
▁사가세요	-12.1108
▁누군지	-12.1108
▁48	-12.1108
▁놓을게	-12.1108
▁놀랐는데	-12.1108
▁흥미롭	-12.1108
▁시공	-12.1108
▁슬프	-12.1108
▁생일선물	-12.1108
▁상환	-12.1108
▁많으셔서	-12.1108
▁보존	-12.1109
▁25%	-12.1109
▁단골인데	-12.1109
▁울려서	-12.1109
▁중이염	-12.1109
▁연착될	-12.111
▁인정받	-12.111
▁카드키	-12.111
▁사용료	-12.111
▁얘기해줄래	-12.111
▁한여름에	-12.111
▁밀리	-12.111
출결	-12.111
▁닿으면	-12.1111
▁어색해서	-12.1111
▁드셨으면	-12.1111
▁읽었는데	-12.1111
▁마십시오	-12.1111
▁허니	-12.1112
▁사탕	-12.1112
▁포도주	-12.1112
▁만났는데	-12.1113
▁않으려고	-12.1113
▁장기적으로	-12.1114
▁일하	-12.1114
▁후불로	-12.1114
▁구조대	-12.1114
▁춥고	-12.1114
▁지나다니	-12.1114
▁보이시죠	-12.1115
▁마실래	-12.1115
▁북쪽	-12.1115
▁빠듯하	-12.1115
▁보냈어요	-12.1115
▁유해	-12.1115
▁생활에	-12.1115
▁큰일이야	-12.1115
▁이루어졌	-12.1115
▁찍었는데	-12.1116
▁골드	-12.1116
▁김장	-12.1116
▁변색	-12.1117
▁바뀌었는데	-12.1117
▁나왔던데	-12.1117
▁어음	-12.1118
▁비침	-12.1118
▁거짓말하	-12.1118
▁밝은데	-12.1119
▁간지럽고	-12.1119
▁옷가게	-12.112
▁말하자면	-12.112
▁보이더라고	-12.112
▁긴장하지	-12.112
▁다녀올게	-12.112
▁시킬게요	-12.1121
▁찾아본	-12.1121
▁자르러	-12.1121
▁닫습니다	-12.1121
▁상주	-12.1122
▁거절할	-12.1122
▁생일이니까	-12.1122
▁구입한	-12.1122
▁튀겨	-12.1122
▁뜨네요	-12.1123
▁만들었는데	-12.1123
▁지났어요	-12.1123
▁나갈게요	-12.1125
▁누수	-12.1125
▁W	-12.1125
▁테고	-12.1126
▁가볼게요	-12.1126
▁변경돼서	-12.1126
▁찜질방	-12.1127
▁미끄러워	-12.1128
▁지속력	-12.1128
▁요청할게요	-12.1128
▁교육비	-12.1128
▁거즈	-12.1129
▁39	-12.1129
▁여정	-12.1129
▁흘리고	-12.1129
▁올라오시면	-12.113
▁하셨나	-12.1131
▁무음	-12.1131
▁크네요	-12.1132
▁회원증	-12.1132
▁연유	-12.1133
▁부딪히	-12.1133
▁신문사	-12.1133
▁서식	-12.1133
▁작성하시고	-12.1135
졌어	-12.1136
▁알코올	-12.1136
▁정량	-12.1137
▁주문했고	-12.1138
▁불러드리겠습니다	-12.1138
▁참석하기	-12.1138
▁걱정되는데	-12.1139
▁시점에서	-12.1139
▁싸니까	-12.1139
▁150,000	-12.114
시라서	-12.114
▁되겠는데요	-12.114
▁달라져서	-12.1141
▁정비	-12.1141
보려고	-12.1142
▁심리	-12.1142
▁알겠지만	-12.1143
▁아니잖아	-12.1143
▁기획서	-12.1143
▁신맛	-12.1143
▁볼링	-12.1143
▁한자리	-12.1145
▁입국심사장	-12.1146
▁않던데요	-12.1146
▁강력	-12.1146
▁꽃집	-12.1147
전에	-12.1147
▁치약이	-12.1148
▁보았는데	-12.1149
▁관리하기	-12.1149
▁비서실	-12.1149
▁빵집이	-12.115
▁통신	-12.115
▁내리는데	-12.1151
▁지날	-12.1151
▁먹거리	-12.1151
▁나쁘게	-12.1151
▁신문지	-12.1151
▁강남역에	-12.1152
▁남산	-12.1152
▁결재받	-12.1152
▁닿아	-12.1153
▁사야겠네요	-12.1154
▁대씩	-12.1154
▁빠졌어요	-12.1154
▁전이	-12.1154
▁적당	-12.1154
▁101	-12.1154
▁익숙	-12.1155
▁물건인데	-12.1155
▁배송되지	-12.1156
▁동의해요	-12.1156
▁처방받으	-12.1156
▁J	-12.1158
▁불이익이	-12.1158
▁명시되어	-12.1158
▁불안	-12.1158
▁추가될	-12.1158
▁소진되어	-12.1159
▁제형	-12.1159
았어요	-12.116
▁마쳐야	-12.1161
프팅	-12.1162
▁그랬네요	-12.1162
▁때문이라고	-12.1162
드려야	-12.1165
▁쓰셔야	-12.1166
▁해보니까	-12.1166
▁봐줘	-12.1167
▁났나요	-12.1167
▁발등	-12.117
▁확인해보시고	-12.117
▁잘하셨어요	-12.1171
▁달아서	-12.1171
▁헷갈려서	-12.1172
호인데요	-12.1172
▁시원하지	-12.1172
▁시작하려고	-12.1173
▁이용하셨나요	-12.1174
▁불편하시면	-12.1175
▁염색할	-12.1175
▁이루어지고	-12.1175
▁박람회장	-12.1176
▁발신	-12.1176
▁주문하자	-12.1176
▁도착했고	-12.1177
▁될걸	-12.1177
▁매진됐	-12.1177
기사님께	-12.1177
▁아프시면	-12.1178
▁경유지	-12.1179
▁경주	-12.118
▁하겠지	-12.118
▁대리점	-12.1181
▁확인해봤어	-12.1181
▁애매한	-12.1181
▁물리	-12.1181
▁수요일부터	-12.1181
▁바닷가에	-12.1182
▁생기는데	-12.1182
▁넘는데	-12.1183
▁손님한테	-12.1184
▁누르시고	-12.1185
▁티브이에	-12.1186
▁주문하려는데	-12.1186
▁샀다고	-12.1186
▁고맙지만	-12.1188
▁모자라서	-12.119
▁K	-12.119
▁잘라내	-12.1191
▁티브이에서	-12.1192
▁맞추려	-12.1192
▁되돌아가	-12.1192
▁전염	-12.1194
▁날아가	-12.1196
▁나가는데	-12.1197
▁배워보	-12.1197
▁작아요	-12.1198
▁팝콘이	-12.1199
▁짧으	-12.12
▁결혼할	-12.1201
▁바꾸시	-12.1201
▁말했는데	-12.1202
▁예약자분	-12.1203
▁파는데	-12.1203
▁미술관이	-12.1204
▁뿐이야	-12.1205
▁의지	-12.1206
▁해준다고	-12.1206
▁기대하지	-12.1207
▁실험실	-12.1208
▁것뿐인데	-12.1208
들이랑	-12.1208
▁큰돈	-12.1209
▁말씀드렸어	-12.121
▁붐비는	-12.1211
▁받으려	-12.1212
▁남자친구와	-12.1212
▁다음부	-12.1214
▁발생해서	-12.1214
▁상황이라면	-12.1215
▁명씩	-12.1216
▁고객센터에서	-12.1216
▁오시기	-12.1217
▁편한데	-12.1217
▁선호도	-12.1217
▁곡이	-12.1217
▁음악회	-12.1218
▁돌고래	-12.1218
▁스캔들이	-12.1219
▁주의할	-12.1219
▁않더라	-12.122
▁거주하	-12.122
▁주문해주시면	-12.122
▁빨라서	-12.1223
▁고속도로에	-12.1223
▁편이라서요	-12.1224
▁중국집	-12.1225
▁얘기하지	-12.1225
▁자랑	-12.1226
▁권한	-12.1226
▁앉았다	-12.1227
▁입국할	-12.1228
▁출신이라	-12.1228
▁끊겼	-12.1228
한답	-12.1229
▁이사할	-12.123
률이	-12.1231
▁해주실래요	-12.1233
▁줍니다	-12.1233
▁비싸지만	-12.1233
▁전공과	-12.1235
▁돌릴	-12.1237
▁하시게	-12.1238
▁노리	-12.1238
▁가보셔야	-12.1239
▁움직이는	-12.124
우는	-12.124
▁발생했	-12.124
하더라고요	-12.1241
▁두꺼워	-12.1242
▁듯한	-12.1246
▁진행된	-12.1247
▁커피머신	-12.1248
▁작고	-12.1249
▁찾았어	-12.1249
▁성분으로	-12.1249
하는구나	-12.1249
▁놨는데	-12.125
▁보여줄래	-12.1252
▁출국하는	-12.1255
▁업계에	-12.1256
▁어땠어요	-12.1259
▁적합할	-12.1259
▁재밌더라	-12.1259
▁익지	-12.126
▁음식과	-12.1261
▁사줄게	-12.1261
▁운동이야	-12.1261
▁반품하	-12.1262
▁전면	-12.1264
▁편하지	-12.1265
▁원장님	-12.1266
▁느끼지	-12.1266
▁얼마씩	-12.1269
▁치료받	-12.1273
▁대중들	-12.1273
▁궁금한데요	-12.1276
▁자랐	-12.1276
▁큰일이	-12.1277
▁작성하시면	-12.1277
▁면세가	-12.1278
▁지급되는	-12.1278
▁출근한	-12.1279
▁자다	-12.1281
▁가까운데	-12.1281
▁오시지	-12.1282
▁전달받은	-12.1283
▁생각하는데요	-12.1283
▁특징이	-12.1284
▁철거	-12.1284
▁싶으신지	-12.1286
▁취소하시면	-12.1288
▁파란색이	-12.1288
▁자차	-12.1289
▁해체	-12.1289
▁조금이	-12.129
▁없거든	-12.1294
▁명의로	-12.1297
▁보내드려야	-12.1297
▁원짜리	-12.1298
▁올해부터	-12.1301
▁공유기	-12.1302
발이	-12.1303
했지	-12.1303
▁되었다고	-12.1304
▁지우	-12.1304
▁분들과	-12.1305
▁이용하기	-12.1306
하시더니	-12.1306
▁눈물이	-12.1306
▁다니게	-12.1308
야지	-12.1309
▁역사서	-12.131
▁직원분께	-12.1316
▁나가야지	-12.1317
▁시트	-12.1318
▁아래에서	-12.1319
▁개별로	-12.1319
▁아니지요	-12.1321
▁자본	-12.1324
구요	-12.1326
▁빌려줘	-12.1329
심이	-12.1331
▁확인하기	-12.1332
▁선생님과	-12.1332
▁항공사에서	-12.1332
▁많잖아	-12.1333
둥	-12.1334
▁포장지에	-12.1335
▁제출해주시	-12.1335
▁주라	-12.1336
▁해주고	-12.1338
▁매대에	-12.1339
▁상태인가요	-12.134
▁현관	-12.1341
기간	-12.1341
▁좋대	-12.1341
▁적당할까	-12.1342
렸는지	-12.1343
▁수정한	-12.1343
▁채워주	-12.1344
년대	-12.1345
▁비행이	-12.1346
▁아깝	-12.1347
▁매입	-12.1348
▁생기고	-12.1348
염이	-12.1349
▁출발해서	-12.135
▁안전상	-12.1352
▁한식당에	-12.1353
▁얘기하	-12.1355
하셨었나요	-12.1355
▁추천하시는	-12.1356
▁공휴일에	-12.1356
사와	-12.1357
▁이월	-12.1358
▁넣어보	-12.136
▁솜이	-12.1363
▁유물들	-12.1363
▁베였	-12.1365
▁순한	-12.1365
▁마련해	-12.1366
▁올지	-12.137
▁익명	-12.1372
▁작은데	-12.1375
▁정차하	-12.1376
▁동작이	-12.1376
▁예능에	-12.1377
▁설명할	-12.1377
▁층이	-12.1377
▁읽어야	-12.1378
ra	-12.1378
분입니다	-12.138
▁먹어야지	-12.1382
▁힘들어서요	-12.1382
▁자격증이	-12.1387
▁선물인데	-12.1389
었지	-12.139
▁설명에	-12.1391
▁아기용	-12.1392
▁지난번보다	-12.1392
.5	-12.1394
▁어디죠	-12.1395
▁상부	-12.1396
자를	-12.1397
▁어떠셨	-12.1398
▁해결되었	-12.1398
▁이용하시	-12.14
▁시켰는데요	-12.1403
▁좋아하지만	-12.1404
▁예약하려고요	-12.1405
▁관람하고	-12.1406
▁실내에	-12.1409
▁도와주고	-12.141
▁기내용	-12.1411
▁망가	-12.1412
▁휴일이	-12.1413
▁나서부터	-12.1416
▁부탁드리	-12.1417
▁배송되는	-12.1417
▁짐칸에	-12.1421
▁수정과	-12.1424
▁조퇴	-12.1425
보는	-12.1426
사고	-12.1427
져요	-12.1429
▁현지인들	-12.1429
▁명동	-12.1431
▁읽기	-12.1431
▁저걸	-12.1432
▁대중	-12.1433
▁있었고	-12.1434
▁아프셔	-12.1437
▁내려와	-12.1438
▁않으셨다	-12.1438
▁딱딱해	-12.1439
▁잡혔어	-12.1439
▁나누면	-12.1439
▁없으니까요	-12.144
▁일입니다	-12.144
▁준비되는	-12.1442
세움	-12.1449
▁요리로	-12.1451
▁저렴하지	-12.1454
▁구했	-12.1456
▁먹어봤어	-12.1458
▁프린터기	-12.146
▁좋았고	-12.1461
▁챙겨가	-12.1463
▁뜯으	-12.1465
▁소원이	-12.1467
으려면	-12.1467
▁가든	-12.1468
군데	-12.147
▁포장비	-12.1473
▁솔직하	-12.1473
▁선수들이	-12.1476
▁빠져나	-12.1478
▁질문해	-12.1481
▁주문받	-12.1481
▁그림들	-12.1482
▁지르	-12.1482
▁위치하고	-12.1484
▁신상품이	-12.1487
▁공격	-12.1489
▁일어나지	-12.1494
▁미술에	-12.1494
▁찾으시는지	-12.1496
▁들었으니	-12.1497
▁얘기해보	-12.1501
▁맞추는	-12.1502
▁고민해보	-12.1502
▁판매하기	-12.1503
▁일어났어	-12.1504
▁지체	-12.1511
▁시기에	-12.1512
▁유로	-12.1513
▁힘드셨	-12.1515
▁의논	-12.1515
▁켜면	-12.1516
▁전화한	-12.153
▁지키는	-12.1533
했어야	-12.1539
비로	-12.1543
▁차도	-12.1551
▁꾸며	-12.1551
▁추측	-12.1551
▁에펠탑	-12.1553
▁좋으신	-12.1553
▁시간제한	-12.1558
▁돌아보	-12.1559
▁기록하	-12.156
▁사용해요	-12.1562
▁예쁘기	-12.1562
▁면세로	-12.1563
▁허벅지에	-12.1565
▁걸어가기	-12.1569
▁다른데요	-12.1571
▁실시하	-12.1576
▁정리해고	-12.1585
▁타려	-12.1587
▁섀도	-12.1588
▁수출자	-12.1588
▁확인해보면	-12.1595
▁길거리에	-12.1596
함에	-12.1598
▁계시는지	-12.1601
▁쉬기	-12.1605
하셨죠	-12.1607
▁후부터	-12.1608
▁제자리에	-12.1612
▁신분	-12.1613
▁넘지	-12.1614
지급	-12.1614
일이나	-12.1614
▁바빠서요	-12.1615
▁담으	-12.1618
▁출장인데	-12.1622
▁따님	-12.1628
▁올라가고	-12.1628
▁잠실	-12.1638
▁노란색이	-12.1638
▁사양이	-12.1638
▁속도로	-12.1639
▁그것이	-12.1641
▁즐거웠	-12.1642
▁해줄게	-12.1642
▁운동복	-12.1645
▁싸이	-12.1652
▁업체라	-12.1654
▁안돼서	-12.1654
▁출고되	-12.1655
셨어야죠	-12.1657
▁최고지	-12.166
▁부지런	-12.1661
▁빼고는	-12.1669
▁메이크업이	-12.167
▁먹어볼게	-12.169
▁부스스	-12.1691
▁투자자들	-12.1697
해봤어	-12.1707
입금	-12.1713
▁신고할	-12.1719
▁상관없을	-12.172
▁배송일	-12.1721
▁교실	-12.1729
해야지	-12.173
▁상영하	-12.1732
▁시작인데	-12.1733
신다는	-12.174
▁뻔했	-12.1741
▁구상하	-12.1742
▁폴더에	-12.1742
▁취소하시는	-12.1743
▁비빔밥이	-12.1743
▁옆집	-12.1753
▁자료로	-12.1755
▁보자기	-12.1755
▁몰려	-12.176
▁엔진	-12.176
▁걸린다	-12.1761
▁휴게실이	-12.1762
▁카풀	-12.1764
▁말씀하셨어	-12.1768
▁캐리어에	-12.1771
▁입원하시	-12.1772
▁케이팝에	-12.1778
▁발표하	-12.178
▁차인데	-12.1788
▁보여드려	-12.179
▁아침입니다	-12.179
▁통과하	-12.1792
▁출발이	-12.1793
▁이동이	-12.1794
▁좋아하거든	-12.1796
▁집과	-12.1796
▁혈관이	-12.1796
▁사용하다	-12.1797
▁부여	-12.1797
▁다듬	-12.18
▁설정해	-12.1806
▁계산한	-12.1808
▁편안해	-12.1812
▁작가님이	-12.1814
▁초대하	-12.1814
▁잘못되어	-12.1821
▁큐레이터	-12.1821
▁필요성	-12.1826
▁문제인데	-12.1827
▁만들어주	-12.183
▁동감하	-12.1832
가림	-12.1833
▁지식	-12.1835
▁소금이	-12.1839
▁퇴근하려고	-12.1844
이던데	-12.1846
주가	-12.1849
▁갈아입	-12.1852
▁기숙사에	-12.1853
▁제출하고	-12.1856
▁건조해	-12.1856
▁말씀하셨	-12.1858
▁스트랩	-12.1858
▁정면	-12.1863
▁들리는	-12.1865
▁선배님들	-12.1866
▁직진하	-12.1868
▁물통	-12.1868
▁참가할	-12.1871
▁앱에	-12.1872
▁주자	-12.1875
▁일수	-12.1876
▁심하지	-12.1876
▁기밀	-12.1876
▁바꿨어	-12.1877
▁버전이	-12.1878
▁참석하는	-12.1879
▁애완견	-12.1883
▁숙지	-12.1885
진다는	-12.1885
▁선반에	-12.1886
▁체험단	-12.1888
▁무난	-12.1893
금으로	-12.1896
▁역할이	-12.1898
▁기차에서	-12.1899
▁맞아야	-12.19
▁준다는	-12.1902
▁잘랐	-12.1904
▁머리핀	-12.191
▁받았을	-12.1914
▁코스에	-12.1922
▁개정	-12.1923
▁실장님	-12.1924
▁준비물이	-12.193
▁거니까요	-12.1942
▁공문이	-12.1943
▁계시지	-12.1943
▁받을까	-12.1947
▁붙인	-12.1948
▁결제하려고	-12.1948
▁좋은데요	-12.1949
대의	-12.195
▁졸업식이	-12.195
▁걱정되는	-12.1951
▁언제야	-12.1951
▁생기네	-12.1952
색으로	-12.1954
▁원무과	-12.1961
▁고쳐야	-12.1961
었다는	-12.1963
▁찍었	-12.1964
하셨다는	-12.1965
▁제목이	-12.1965
질이	-12.1966
▁유출	-12.1967
▁다닌다	-12.1969
▁전시회에	-12.1972
▁변경해드렸	-12.1975
▁극	-12.1977
▁원하지	-12.1978
▁마신	-12.198
▁영화였어	-12.1982
▁환급되	-12.1984
▁해놨	-12.1987
▁불경기	-12.1987
▁귀엽	-12.1993
원치	-12.1994
▁만족하	-12.1995
▁잘하	-12.1997
▁깎아주	-12.1997
▁크로스백	-12.1999
▁카드사에	-12.1999
▁쓰시	-12.2
번만	-12.2006
▁파도	-12.2006
▁멤버들	-12.2007
시간째	-12.2011
▁보여도	-12.2012
▁가져오는	-12.2013
▁혼잡	-12.2019
▁비법	-12.2027
▁효율	-12.2029
▁사두	-12.203
원이니까	-12.2032
들한테	-12.2035
▁열려있	-12.2042
▁감소하	-12.2044
란에	-12.2047
▁알아볼까	-12.2048
▁가겠다	-12.2049
봐서	-12.2051
거리는	-12.2056
▁꼴	-12.2057
▁물론이	-12.2058
▁되신	-12.2058
▁모여있는	-12.206
▁답변이	-12.2061
분기에	-12.2061
센터에	-12.207
▁싫으	-12.2071
▁베트남에	-12.2073
▁숙제가	-12.2075
▁번호나	-12.208
하였고	-12.2082
▁곳인	-12.2083
▁좋으	-12.2084
▁정각	-12.2086
▁개발하	-12.2087
▁가더라	-12.2092
▁그룹이	-12.2095
▁전화주셨	-12.2096
▁신입사원들이	-12.2098
▁출신	-12.2099
▁교실에	-12.2101
▁자면	-12.2101
▁성공한	-12.2105
▁사람인	-12.2105
▁두시면	-12.2106
▁변경하	-12.211
▁이득이	-12.2112
▁준비해드릴	-12.2116
▁옆집에	-12.2126
▁맛있다는	-12.2134
▁트렌드	-12.2134
이냐	-12.2135
리면	-12.2135
▁어린아이들	-12.2136
▁중이신	-12.2142
▁해달라	-12.2144
▁입금된	-12.2146
법에	-12.2152
▁만족	-12.2153
▁컴퓨터에서	-12.2153
▁개인적	-12.2158
한다	-12.216
▁지불해	-12.216
▁배송하	-12.2163
신청서	-12.2165
주의	-12.2167
겠지요	-12.217
르면	-12.2171
▁식중독	-12.2177
▁이사님께	-12.218
위에	-12.2184
▁스틱	-12.2185
신청	-12.2189
석으로	-12.2191
▁장마	-12.2192
▁최저가	-12.2192
난다	-12.2195
▁복직	-12.2195
결	-12.2199
▁사이즈보다	-12.2205
▁요구하는	-12.2209
▁잠가	-12.2209
▁타일	-12.2211
▁제자리	-12.2213
▁버려주시	-12.2215
▁금지돼	-12.2216
▁그렇습니다만	-12.2217
▁맞으신	-12.222
시는지	-12.2223
▁취한	-12.2227
▁덕	-12.2239
▁허벅지	-12.224
▁찾아보니	-12.2244
▁받아요	-12.2248
▁맞춰주	-12.2248
▁문제라	-12.2248
▁표면	-12.2253
했던데	-12.2258
▁매력적	-12.2258
동에	-12.2259
▁올리기	-12.2259
,500	-12.2259
▁따뜻	-12.2261
▁봐줄	-12.2264
▁고려하	-12.2264
▁관광지에	-12.2268
▁듣기에	-12.2275
▁신기하	-12.2277
▁출발일	-12.2279
놨어	-12.228
▁다운	-12.229
▁지역이라	-12.2291
▁이익이	-12.2296
▁돌아왔	-12.2296
▁돼지	-12.2297
권까지	-12.2309
키는	-12.231
사가	-12.231
▁재발급받으	-12.2312
▁선택하는	-12.2314
▁사이즈인데	-12.2316
이었는지	-12.2317
▁성경	-12.2322
▁조사하	-12.2322
▁매진되었	-12.2325
▁공격적	-12.2326
▁가보니	-12.2326
▁멀쩡해	-12.2332
▁흔들	-12.2332
▁휴강	-12.2337
▁써보시	-12.2346
▁동의하는	-12.2346
▁옮겼	-12.2355
▁삭제하	-12.2357
▁팀장이	-12.2359
▁비결	-12.2361
하라는	-12.2365
▁여기다	-12.2367
시지	-12.2367
상태	-12.237
▁전개	-12.2377
▁신입생	-12.2383
a	-12.2384
▁소원	-12.2386
와서	-12.2392
▁서류들이	-12.2394
▁지상	-12.2397
▁상했	-12.2399
▁메뉴들이	-12.2399
▁일인실	-12.2401
하기에	-12.2401
▁아직까지	-12.2404
▁적립해	-12.2405
하셔야죠	-12.2409
▁규칙이	-12.2409
▁지적	-12.241
▁안내서에	-12.2411
▁방송국에	-12.2413
▁둬야	-12.2415
둬야	-12.2417
양	-12.2418
▁초보	-12.2418
▁퇴근이	-12.2437
▁먹다	-12.2437
▁멋있는	-12.244
호선이	-12.2441
▁고지	-12.2441
▁치킨이	-12.2442
▁제품이랑	-12.2443
▁이사한	-12.2444
견	-12.2445
송	-12.2445
▁법무팀	-12.2446
▁운행되	-12.2447
하니깐	-12.2449
▁처음입니다	-12.2451
▁올해로	-12.2453
▁지체되	-12.2454
▁직원분	-12.2456
▁걷기에	-12.2459
▁시제품	-12.2461
과정에서	-12.2467
오지	-12.2469
▁증가하	-12.2473
▁줘봐	-12.2475
▁나타	-12.2477
▁전이니	-12.248
▁반에	-12.248
주에	-12.2485
▁연령	-12.2486
▁살펴볼	-12.2492
▁제공하	-12.2493
▁사람에	-12.2498
▁발송하	-12.25
▁보고서로	-12.2502
▁제거하	-12.2504
▁청소해	-12.2506
▁이어서	-12.2508
▁추가해야	-12.2512
까우니까	-12.2513
▁결심	-12.2518
▁연장하	-12.2523
통이	-12.2524
▁학년	-12.2524
▁멀쩡	-12.2524
▁신어볼	-12.2525
▁안될까	-12.2527
시켜야	-12.2529
▁발견되었	-12.253
▁비싸기	-12.2535
▁볼일	-12.2536
▁이루	-12.2542
▁참고할	-12.2542
▁빵집에	-12.255
▁정도인데	-12.2551
▁판매하시	-12.2551
▁들어갔어	-12.2552
▁충전하는	-12.256
▁적립되	-12.2561
▁잔돈이	-12.2561
▁출장으로	-12.2563
▁정상적	-12.2563
했구나	-12.2564
해봐야	-12.2566
닌	-12.2567
▁사놓	-12.2574
되었나	-12.2577
▁감상하	-12.2582
봉	-12.2592
▁낫다	-12.2593
▁관리받으	-12.2595
▁던지	-12.2596
▁가동하	-12.2598
▁말까	-12.26
▁대피해	-12.2602
▁생겼을	-12.2602
▁연극이	-12.2604
▁비품들	-12.2605
살이고	-12.2607
▁못했지	-12.2608
▁무릎에	-12.2609
▁팔기	-12.2611
현	-12.2612
▁샴페인	-12.2614
▁기념일	-12.2616
▁살균기	-12.2617
▁충당	-12.2619
▁둬	-12.2619
▁평균이	-12.2621
▁뛰다	-12.2622
퉁	-12.2626
▁흠집	-12.2633
▁이혼	-12.2637
▁정해보	-12.2641
▁진학	-12.2646
▁떨어	-12.2649
▁나서는	-12.2651
풀	-12.2651
▁능숙	-12.2652
보루	-12.2654
▁알맞	-12.2656
▁이외	-12.2659
되셨습니다	-12.2662
▁주고받	-12.2665
▁95	-12.2666
▁해준	-12.2666
▁영업이	-12.267
계약	-12.267
내는	-12.2672
c	-12.2675
▁곡	-12.2676
▁꺼져	-12.2679
▁검색이	-12.2679
▁먹어보니	-12.2681
▁씌우	-12.2687
▁상품명	-12.2687
접수	-12.2687
▁기록해	-12.2689
패	-12.2689
사이즈로	-12.2691
▁33	-12.2691
골	-12.2692
뜻	-12.2693
▁푸드코트	-12.2694
J	-12.2695
이시네요	-12.2695
칸	-12.2695
차근	-12.2697
▁일해	-12.2698
갑시다	-12.2698
증권	-12.2698
문화	-12.27
안전	-12.27
빨리	-12.27
▁잡히는	-12.27
그때	-12.2701
겁니다	-12.2701
과목	-12.2703
녀	-12.2703
▁주민센터	-12.2705
효과	-12.2706
정차	-12.2707
▁기차에	-12.2708
▁유치원	-12.2709
기술	-12.271
▁어려	-12.2711
셔	-12.2712
▁도배	-12.2713
▁영업하는	-12.2714
▁대본	-12.2715
금액이	-12.2716
▁자물쇠	-12.2717
행사	-12.2718
▁꾸	-12.2719
▁되려나	-12.272
▁자야	-12.2723
▁신기하네	-12.2724
▁늦어진다	-12.2725
▁자기계발	-12.2725
제가	-12.2726
▁같군	-12.2727
▁포함되어있	-12.2727
▁이상하네	-12.2728
매일	-12.2728
▁편하네	-12.2729
▁그랬네	-12.2731
▁없겠네	-12.2731
▁등록하는	-12.2732
▁리무버	-12.2732
▁고민이네	-12.2732
▁기술적	-12.2732
▁거부하	-12.2732
▁농	-12.2733
▁만들었어	-12.2733
X	-12.2735
▁다가오	-12.2735
▁어렵네	-12.2737
▁열리는데	-12.2737
▁화내	-12.2737
냥	-12.2737
▁침수	-12.2739
▁있었네	-12.2739
▁공통	-12.2744
▁의해	-12.2744
▁행동이	-12.2744
▁정말이네	-12.2745
럼	-12.2745
▁출발했는데	-12.2746
▁싶어져	-12.2747
▁유행이	-12.2747
▁회식비	-12.2751
▁워터	-12.2752
차까지	-12.2752
▁마주	-12.2752
▁움직여	-12.2753
으로써	-12.2753
▁코치	-12.2754
▁항구	-12.2754
▁요청했는데	-12.2755
▁동양	-12.2757
▁하청	-12.2758
▁아빠한테	-12.2759
▁모금	-12.2759
▁평상	-12.276
닝	-12.276
숍	-12.2761
▁튜브	-12.2761
▁보냈으니	-12.2763
곳에	-12.2764
▁웬일	-12.2764
외선	-12.2765
▁결승	-12.2765
▁곤란한	-12.2765
▁그래픽	-12.2765
▁사찰	-12.2765
▁닉네임	-12.2765
▁밤낮	-12.2765
▁브라운	-12.2765
▁팝업	-12.2765
▁1:1	-12.2765
▁DVD	-12.2765
▁가급적	-12.2765
▁가산세	-12.2765
▁간헐적	-12.2765
▁걔네	-12.2765
▁곰팡내	-12.2765
▁공깃밥	-12.2765
▁꿰매	-12.2765
▁다래끼	-12.2765
▁대규모	-12.2765
▁대마초	-12.2765
▁덮어	-12.2765
▁데드라인	-12.2765
▁떨어뜨려	-12.2765
▁띄는	-12.2765
▁런칭	-12.2765
▁루벤스	-12.2765
▁루앙프라방	-12.2765
▁리콜	-12.2765
▁마네킹	-12.2765
▁마요네즈	-12.2765
▁마찰	-12.2765
▁모의고사	-12.2765
▁목베개	-12.2765
▁무선인터넷	-12.2765
▁뭡니까	-12.2765
▁보쌈	-12.2765
▁브런치	-12.2765
▁블라인드	-12.2765
▁블랙헤드	-12.2765
▁뺑소니	-12.2765
▁서커스	-12.2765
▁서프보드	-12.2765
▁세금계산서	-12.2765
▁손해배상	-12.2765
▁스카우트	-12.2765
▁스피닝	-12.2765
▁승강장	-12.2765
▁시끄러울	-12.2765
▁신혼부부	-12.2765
▁씹을	-12.2765
▁아나운서	-12.2765
▁아줌마	-12.2765
▁아토피	-12.2765
▁아팠어	-12.2765
▁안드로이드	-12.2765
▁알갱이	-12.2765
▁애니메이션	-12.2765
▁에버랜드	-12.2765
▁엔터테인먼트	-12.2765
▁여객선	-12.2765
▁여럿이	-12.2765
▁연말정산	-12.2765
▁염두	-12.2765
▁오션뷰	-12.2765
▁유입	-12.2765
▁유지보수	-12.2765
▁인공눈물	-12.2765
▁정착	-12.2765
▁조수석	-12.2765
▁직수입	-12.2765
▁찼고	-12.2765
▁챙긴	-12.2765
▁촛불	-12.2765
▁치킨버거	-12.2765
▁카푸치노	-12.2765
▁캠페인	-12.2765
▁컨실러	-12.2765
▁콜로세움	-12.2765
▁콜롬비아	-12.2765
▁콧속	-12.2765
▁킥보드	-12.2765
▁터무니없	-12.2765
▁트위터	-12.2765
▁특산품	-12.2765
▁파파라치	-12.2765
▁팔꿈치	-12.2765
▁팔레트	-12.2765
▁페널티	-12.2765
▁프라푸치노	-12.2765
▁프러포즈	-12.2765
▁호스텔	-12.2765
▁휘핑크림	-12.2765
귈	-12.2765
맬	-12.2765
몹	-12.2765
▁GPS	-12.2765
▁꼴찌	-12.2765
▁불꽃놀이	-12.2765
▁시트콤	-12.2765
▁족욕	-12.2765
▁포스팅	-12.2765
▁라이언	-12.2765
▁머핀	-12.2765
▁생과일주스	-12.2765
▁숙취	-12.2765
▁오탈자	-12.2765
▁흑백	-12.2765
▁장단점	-12.2765
▁깊숙	-12.2765
▁드라이클리닝	-12.2765
▁뛰어놀	-12.2765
▁발가락	-12.2765
▁범퍼	-12.2765
▁비효율적	-12.2765
▁스티브	-12.2765
▁에이전시	-12.2765
▁외환	-12.2765
▁장미꽃	-12.2765
▁따갑	-12.2765
▁채용공고	-12.2765
▁수분크림	-12.2765
▁식욕	-12.2765
▁체크무늬	-12.2765
▁갈비찜	-12.2765
▁구찌	-12.2765
▁헤어스타일	-12.2765
▁DM	-12.2765
▁보도자료	-12.2765
▁윈도우	-12.2765
▁화폐	-12.2765
▁볶음국수	-12.2765
▁안경테	-12.2765
▁액상	-12.2765
▁비회원	-12.2765
▁수학여행	-12.2765
▁한가득	-12.2765
▁패턴	-12.2765
▁출산휴가	-12.2765
▁춤추	-12.2765
▁강좌	-12.2765
▁포럼	-12.2765
▁수신함	-12.2765
▁매트리스	-12.2765
▁비닐백	-12.2765
▁산사태	-12.2765
▁안그래도	-12.2765
▁연달아	-12.2765
▁여름옷	-12.2765
▁과격	-12.2765
▁만족스러워	-12.2765
▁배고픈데	-12.2765
▁물걸레	-12.2765
▁자칫	-12.2765
▁감흥	-12.2765
▁문화생활	-12.2765
▁서울대학교	-12.2765
▁AI	-12.2765
▁소설책	-12.2765
▁운동신경	-12.2765
▁실측	-12.2765
▁타이트	-12.2765
▁코딩	-12.2765
▁버티	-12.2765
▁출연료	-12.2765
▁견학	-12.2765
▁아주머니	-12.2765
▁지켜봐야	-12.2765
▁계곡	-12.2765
▁노란불	-12.2765
▁마사지샵	-12.2765
▁흥미로워	-12.2765
▁주유비	-12.2765
▁깔려	-12.2765
▁승마	-12.2766
▁너겟	-12.2766
▁불편하시겠지만	-12.2766
▁조개류	-12.2766
▁유아용품	-12.2766
▁단합	-12.2766
▁인사이동	-12.2766
▁재주문	-12.2766
▁가족사진	-12.2766
▁친절하시네요	-12.2766
▁건강보험	-12.2766
▁그따위	-12.2766
▁예약확인서	-12.2766
▁파티룸	-12.2766
▁잡힐	-12.2766
▁런지	-12.2766
▁탄산수	-12.2766
▁본보기	-12.2766
▁남성복	-12.2766
▁언급	-12.2766
▁부서이동	-12.2766
▁동향	-12.2766
▁별문제	-12.2766
▁세면도구	-12.2766
▁시중에	-12.2766
▁건배사	-12.2766
▁미스트	-12.2766
▁부주의	-12.2766
▁수면제	-12.2766
▁전통의상	-12.2766
▁잔소리	-12.2766
▁감사하겠어요	-12.2766
▁오락실	-12.2766
▁글귀	-12.2766
YO	-12.2766
▁축구공	-12.2766
▁점퍼	-12.2767
▁피팅	-12.2767
▁시범	-12.2767
▁무방	-12.2767
▁무관	-12.2767
▁사원님	-12.2767
▁정밀	-12.2767
▁언덕	-12.2767
▁고맙구나	-12.2767
▁인조	-12.2767
▁배고플	-12.2767
▁끝나가는데	-12.2767
▁비닐봉지	-12.2767
▁양복	-12.2767
▁농사	-12.2767
▁떠날	-12.2767
▁세안제	-12.2768
▁고모	-12.2768
▁명백	-12.2768
▁농어	-12.2768
▁일방적	-12.2768
▁와플	-12.2768
▁소액권	-12.2768
▁않던데	-12.2768
▁소요되며	-12.2768
▁견해	-12.2768
시경	-12.2768
▁공인인증서	-12.2769
조차	-12.2769
▁오랜만이다	-12.2769
▁선호하세요	-12.2769
▁분이시군요	-12.2769
▁혼동	-12.2769
▁신형	-12.2769
▁입어봤는데	-12.2769
▁공병	-12.2769
▁마찬가지예요	-12.277
▁영역	-12.277
▁드시겠습니까	-12.277
▁골라봐	-12.277
▁옆자리에	-12.277
▁없으실	-12.277
▁요건	-12.277
▁월세	-12.2771
▁도마	-12.2771
▁인권	-12.2771
▁복사본	-12.2771
▁깜빡했네요	-12.2771
▁서울행	-12.2771
▁뒤처지	-12.2771
▁예식장	-12.2771
▁베이지	-12.2771
▁사라졌	-12.2771
▁협소	-12.2771
▁생리통	-12.2771
▁복합	-12.2772
▁차분하게	-12.2772
▁합계	-12.2772
▁나갔는데	-12.2772
▁일식당	-12.2772
▁괜찮겠지	-12.2772
▁싱글룸	-12.2772
▁살아있	-12.2772
▁쪘	-12.2772
▁툴	-12.2772
▁펄	-12.2772
▁헉	-12.2772
▁디스크	-12.2772
▁패티	-12.2772
▁상표권	-12.2772
▁뒀는데	-12.2773
▁지겨워	-12.2773
▁끝나셨으면	-12.2773
▁분이시네요	-12.2773
▁챙겼는데	-12.2773
▁일식집	-12.2773
▁과음	-12.2774
▁위험물	-12.2774
▁생겼던데	-12.2774
▁끝내줘	-12.2774
▁파트	-12.2774
▁필러	-12.2774
▁삼키	-12.2774
▁맛있네	-12.2774
▁괜찮겠네요	-12.2774
▁단풍	-12.2774
▁원료	-12.2774
▁일으	-12.2774
▁문의드리려고	-12.2775
▁괜찮던데	-12.2775
▁검색해보니	-12.2775
▁빠졌는데	-12.2775
▁좋으실	-12.2775
▁신세	-12.2775
▁수고하세요	-12.2775
▁생성	-12.2775
▁수입품	-12.2776
▁여름철에	-12.2776
▁했었	-12.2776
▁일어났는데	-12.2776
▁이완	-12.2776
▁등기부	-12.2776
▁그러셨어요	-12.2776
:00	-12.2776
▁계약직	-12.2776
▁갔으니까	-12.2776
▁말하자	-12.2776
▁바꿨는데	-12.2776
▁보여주시고	-12.2777
▁체크카드	-12.2777
▁배달음식	-12.2777
▁어렵겠네요	-12.2777
▁판정	-12.2777
▁지낸	-12.2777
▁유당	-12.2777
▁만족스럽	-12.2777
시다니	-12.2777
▁후방	-12.2778
▁오셨군요	-12.2778
▁선호하지	-12.2778
▁느꼈는데	-12.2778
▁동사무소에서	-12.2778
▁학부	-12.2778
▁연습장	-12.2779
▁부탁드린	-12.2779
▁깜빡했습니다	-12.2779
▁이유에	-12.2779
▁조작	-12.2779
▁망신	-12.2779
▁안정성	-12.278
▁키울	-12.278
▁연결선이	-12.278
▁빼먹지	-12.278
▁피망	-12.2781
▁급하다고	-12.2781
▁프리	-12.2781
▁전학	-12.2781
▁비자카드	-12.2781
▁어두운데	-12.2781
▁동의하지만	-12.2782
▁운전이	-12.2782
▁다녀왔어요	-12.2782
▁찾았습니다	-12.2782
▁냉방	-12.2782
▁알로에	-12.2782
▁경사	-12.2783
▁추천해드리고	-12.2783
▁봤구나	-12.2783
▁연기자들	-12.2783
▁후회하지	-12.2783
▁헷갈리는데	-12.2784
▁미끄러져	-12.2784
▁함량	-12.2784
▁힘내세요	-12.2784
▁걸리시나요	-12.2784
▁며칠간	-12.2784
▁전화할게	-12.2784
▁물컵	-12.2784
▁내렸는데	-12.2784
▁원정	-12.2785
▁행위	-12.2785
▁환자분께서	-12.2785
▁쓴맛	-12.2785
▁운송비	-12.2786
▁없어졌는데	-12.2786
▁포장해주시고	-12.2786
▁번거로워	-12.2786
▁앉으세요	-12.2786
▁불편하셔서	-12.2787
▁알았	-12.2787
▁힘들겠지만	-12.2787
▁생긴다면	-12.2787
꼬박	-12.2787
▁자극적이지	-12.2787
▁만해	-12.2787
▁데려와	-12.2788
▁수익률	-12.2788
▁120,000	-12.2788
▁홀수	-12.2788
▁다녔는데	-12.2788
▁저녁때	-12.2788
▁전송되	-12.2789
▁2,500	-12.2789
▁들어갈게요	-12.2789
▁생화	-12.2789
▁괜찮더라고요	-12.2789
▁건설	-12.2789
▁제품번호	-12.279
▁이룬	-12.279
▁마크	-12.279
▁배달하는	-12.279
▁정확하지	-12.279
▁사실이지만	-12.279
▁마시자	-12.2791
▁장화	-12.2791
▁트레이너분	-12.2792
▁지구	-12.2792
▁티비에	-12.2792
▁과세	-12.2792
▁작네요	-12.2792
달러이고	-12.2793
▁깜빡했어요	-12.2793
▁평점	-12.2794
▁들으려고	-12.2794
▁부재중이라	-12.2794
▁근무제	-12.2794
▁거부감	-12.2795
▁선택했는데	-12.2795
▁심심할	-12.2796
▁들었었는데	-12.2796
▁종이가방	-12.2796
▁설명되어	-12.2796
▁주민센터에서	-12.2796
▁주문표	-12.2796
▁만족해	-12.2797
▁컨	-12.2797
▁하우스	-12.2798
▁편하다	-12.2798
▁폭주	-12.2798
▁공금	-12.2798
▁대공원	-12.2798
▁남겨주세요	-12.2798
▁지불한	-12.2799
▁부장님한테	-12.2799
▁들어있어요	-12.2799
▁처음이다	-12.28
▁잘됐군	-12.2801
▁배송해드리고	-12.2801
▁대단한데	-12.2801
▁고지서	-12.2801
▁불러주시겠어요	-12.2801
▁범	-12.2801
▁좋아하니	-12.2802
▁분실이	-12.2802
▁기준치	-12.2802
▁탁	-12.2802
▁폭력	-12.2803
▁생리	-12.2803
▁오렌지색	-12.2803
쉬엄	-12.2804
▁민원실	-12.2804
▁사용된	-12.2804
▁걸리겠네요	-12.2805
▁대단하네요	-12.2806
▁끼어	-12.2806
▁벗어야	-12.2806
▁사원에게	-12.2807
▁남길	-12.2807
▁3%	-12.2807
▁쇼에	-12.2807
▁인문학	-12.2808
▁찜	-12.2808
▁많다니	-12.2808
▁넣기	-12.2809
▁촉박해서	-12.2809
▁격	-12.2809
▁해보는데	-12.281
▁음식인데	-12.281
▁관련해	-12.2811
on	-12.2811
▁휴학하고	-12.2811
▁리더기	-12.2811
▁파편	-12.2812
▁남았네요	-12.2813
▁도망가	-12.2813
▁발표한	-12.2813
▁찾으시던데	-12.2814
▁신년	-12.2814
▁영문으로	-12.2814
▁자르려고	-12.2814
▁야외에서	-12.2815
버렸네	-12.2816
▁퍼지	-12.2817
▁리모컨이	-12.2817
▁72	-12.2817
▁높은데	-12.2817
▁구단	-12.2818
▁졸업식인데	-12.282
▁막히기	-12.282
▁못했네요	-12.282
▁우편물	-12.2821
▁5000	-12.2822
▁유지하기	-12.2822
▁생각해본	-12.2823
▁아무렴	-12.2825
▁놔뒀	-12.2826
▁공급받	-12.2826
▁걱정되	-12.2827
▁만들었어요	-12.2827
해놓고	-12.2827
▁온다니까	-12.2828
▁진짜예요	-12.2828
▁같진	-12.2829
▁종영한	-12.2829
▁소스에	-12.2829
▁연하게	-12.2829
▁할인권	-12.2829
▁시선	-12.2829
▁않겠지만	-12.2829
▁근로	-12.283
▁방해해서	-12.2831
▁무료이고	-12.2831
▁대청소	-12.2831
▁걸으시면	-12.2831
▁부담스러워서	-12.2832
▁짐만	-12.2832
▁외야	-12.2832
▁한정되어	-12.2832
▁비슷한데	-12.2833
▁드려야죠	-12.2834
▁패	-12.2834
▁달랐어	-12.2834
▁못하겠어요	-12.2834
▁원본	-12.2835
▁얼음물	-12.2835
▁반가워요	-12.2835
▁하시던데	-12.2835
하겠네요	-12.2835
▁저조	-12.2835
▁영업하시나	-12.2835
▁사다리	-12.2836
▁이루어집니	-12.2836
▁팀별	-12.2837
▁방울	-12.2838
▁느릴	-12.2838
▁전화했는데요	-12.2841
▁다녀오시면	-12.2841
▁다행이고	-12.2842
인실에	-12.2842
▁받으셔서	-12.2842
▁연령층	-12.2843
▁원룸	-12.2843
▁지루하지	-12.2844
▁오네	-12.2844
▁세미나실	-12.2844
▁남쪽	-12.2845
▁번쯤	-12.2845
▁고려해보	-12.2845
▁입으시는	-12.2847
▁넣어드리겠습니다	-12.2847
▁치우고	-12.2847
▁파전	-12.2847
▁질러	-12.2849
▁다니는데	-12.2849
▁지내자	-12.285
▁질리	-12.2851
▁올라와서	-12.2851
▁도착해요	-12.2853
▁있었지만	-12.2853
▁되며	-12.2853
▁극장에	-12.2853
▁기관	-12.2854
▁결혼식장	-12.2855
▁예약했고	-12.2857
▁역기	-12.2858
▁수출이	-12.2859
서류	-12.286
▁합격자	-12.286
▁입석	-12.2861
▁자신감이	-12.2861
▁부러져	-12.2861
▁어리	-12.2861
▁하니깐	-12.2862
▁생각이신가요	-12.2862
▁오시고	-12.2862
포장	-12.2863
소리	-12.2863
▁스트레스받아	-12.2864
보시는	-12.2865
▁기력	-12.2866
▁소개해주	-12.2868
▁문법	-12.2869
▁전년도	-12.2869
▁경우라면	-12.2869
▁아끼는	-12.2871
▁회색으로	-12.2872
▁다녀오려고	-12.2872
▁지수	-12.2873
▁자르면	-12.2875
▁들어가니	-12.2875
▁다니려고	-12.2875
▁금요일부터	-12.2877
▁힘들잖아	-12.2877
▁잘나가는	-12.2877
▁소량으로	-12.2878
▁익숙해	-12.2878
▁그러려	-12.2878
▁망가져	-12.2878
▁차별화된	-12.2878
▁세월	-12.2879
▁합류하	-12.2881
▁출고할	-12.2881
▁세척기	-12.2882
▁수익성	-12.2883
▁e	-12.2885
호실인데	-12.2886
▁다음달	-12.2886
▁드시기에	-12.2886
▁등록하면	-12.2888
봤	-12.2888
▁없어져서	-12.2889
▁보내신	-12.289
▁일본인	-12.289
▁됐지	-12.289
▁시동	-12.2891
▁시작했어요	-12.2893
▁지저분하	-12.2893
▁더러워지	-12.2893
▁열다	-12.2894
▁답장	-12.2895
개월간	-12.2895
▁우울해	-12.2895
▁콘퍼런스에서	-12.2896
▁재미있고	-12.2896
▁목요일까지	-12.2897
고작	-12.2897
▁처방받아	-12.2898
▁사용했는데	-12.29
▁해드리기	-12.2901
▁입사하신	-12.2901
▁인정하지	-12.2901
▁단계에서	-12.2904
▁소감	-12.2904
▁똑같고	-12.2904
▁있다는데요	-12.2904
▁관점	-12.2907
▁때문인지	-12.291
▁달라졌	-12.291
▁녹아	-12.2911
▁때문이지	-12.2912
▁비전	-12.2912
▁먹을래요	-12.2912
대에	-12.2913
▁요청할	-12.2913
▁식성	-12.2913
품	-12.2913
▁월별	-12.2916
▁질병	-12.2916
▁전년	-12.2917
▁필요하시다	-12.2919
▁처음이라서요	-12.2919
▁그랬잖아	-12.2922
으셨나요	-12.2924
▁조정하	-12.2925
▁진행되었	-12.2926
었으니까	-12.2927
▁해보지	-12.2928
▁부상	-12.2928
▁말입니까	-12.2929
▁그대로인데	-12.2931
▁주문명세	-12.2932
▁열어봐	-12.2932
▁진물	-12.2933
▁우체국에	-12.2933
▁개편	-12.2934
▁택배회사	-12.2936
▁필요하대	-12.2936
▁측정해보	-12.2938
▁발급하는	-12.2939
▁전달하면	-12.294
▁숙소비	-12.2941
▁아이에게	-12.2943
▁보관함	-12.2946
▁할수록	-12.2949
▁그랬다	-12.2949
▁기술력	-12.295
▁환불금	-12.295
▁도착하시면	-12.295
▁가게로	-12.2951
▁경찰서에서	-12.2952
▁온다는	-12.2953
▁국물에	-12.2954
▁업무량	-12.2955
들어	-12.2955
▁전화할게요	-12.2956
▁작성에	-12.2956
▁밝아	-12.2956
▁어려우면	-12.2957
▁앱에서	-12.2957
▁바꾸시면	-12.296
▁서명해	-12.2961
▁지연됐	-12.2961
▁생일에	-12.2961
▁무한	-12.2962
▁원대	-12.2963
▁즐거웠어	-12.2963
▁없고요	-12.2963
▁그렇잖아	-12.2964
▁입력해서	-12.2965
이어야	-12.2966
▁싶다는데	-12.2968
▁옥상	-12.2971
▁나온다	-12.2971
▁어려우실	-12.2972
▁써주	-12.2972
▁길이니	-12.2973
▁퇴직하	-12.2974
▁훑어보	-12.2976
▁늦어졌	-12.2976
▁프로그램인데	-12.2977
▁말리	-12.2977
정한	-12.2981
▁도쿄역	-12.2982
▁저것	-12.2983
▁켜지	-12.2983
▁세액	-12.2985
▁출발하는데	-12.2985
▁한쪽이	-12.2985
▁시절에	-12.2987
▁사회적	-12.2987
▁빵집	-12.2988
▁앉아있는	-12.299
▁성수기에	-12.2991
▁밥맛	-12.2993
세까지	-12.2993
▁행복할	-12.2995
▁때쯤	-12.2996
해줄게	-12.3001
▁싱싱해	-12.3001
▁힘들지만	-12.3003
▁남습니다	-12.3004
▁물어보시는	-12.3005
▁반납해	-12.3006
▁먹었으니	-12.3007
▁밝은색이	-12.3008
▁길동	-12.3008
▁지금쯤	-12.3011
▁어려운데요	-12.3012
▁지나쳐	-12.3016
▁감독이	-12.3018
▁일본어로	-12.3019
▁수납장	-12.3021
▁구매했던	-12.3021
▁아니었던	-12.3021
▁사유서	-12.3023
▁드라마인데	-12.3023
▁설명회	-12.3023
▁무섭다	-12.3024
▁들었다	-12.3025
▁쓰리	-12.3025
▁조건에	-12.3026
▁나네	-12.3027
▁만나보	-12.3027
▁부담돼	-12.3028
하시는지	-12.3029
었길래	-12.3029
▁가져가셔	-12.3031
▁삐끗	-12.3037
▁렌트해	-12.3037
▁버려서	-12.3039
▁출연한	-12.304
▁기내식으로	-12.3041
▁이해합니다	-12.3041
▁산이	-12.3042
▁양면	-12.3042
▁어려워서요	-12.3044
▁기획팀	-12.3045
▁비싼데요	-12.3046
▁살펴볼게	-12.3046
해야겠네	-12.3048
▁청구서	-12.305
▁내역서	-12.3054
▁심심해	-12.3054
▁고객분들	-12.3055
▁갔었	-12.3055
▁환경에	-12.3062
▁유럽에서	-12.3064
▁물속에	-12.3064
▁통학	-12.3069
모를	-12.307
▁실망스럽네	-12.3072
▁지연될	-12.3073
▁화면으로	-12.3079
▁경리	-12.3079
▁부가	-12.3085
▁떨어져요	-12.3087
▁성적에	-12.3087
▁말아요	-12.3087
▁만족하는	-12.3091
▁구매하기	-12.3091
▁타는데	-12.3092
▁깜박	-12.3093
대까지	-12.3094
▁잡아줘	-12.3097
▁만나려고	-12.3099
▁남기면	-12.31
▁발생하고	-12.3102
둬	-12.3104
▁제공해드리	-12.3104
▁기재해야	-12.3105
기적으로	-12.3105
▁집인데	-12.311
집이	-12.3116
▁관리받	-12.3119
▁산다고	-12.3119
▁시간씩	-12.312
▁넣어놓	-12.3121
▁마셔요	-12.3122
▁입원실	-12.3123
▁없었지	-12.3124
▁걸리기	-12.3125
▁우울하	-12.3126
▁쓰라	-12.3131
▁일자로	-12.3131
▁먹겠는데	-12.3132
관에	-12.3132
▁뮤지컬이	-12.3132
▁정류장까지	-12.3133
▁시음	-12.3136
▁연장이	-12.3136
▁해봐요	-12.3141
째로	-12.3141
▁친환경	-12.3146
▁유감이	-12.3146
▁안마	-12.3149
▁축하해요	-12.3149
▁남겨주	-12.315
▁운동이라	-12.315
▁항공사에	-12.315
▁매장보다	-12.3152
▁처방해주셨	-12.3152
▁지연된	-12.3153
▁전등이	-12.3153
▁남동생이	-12.3154
▁회원들	-12.3154
▁동상이	-12.3158
▁연습이	-12.3162
▁교정에	-12.3163
▁애매하	-12.3164
▁결혼하	-12.3165
▁말로는	-12.3166
▁브랜드에서	-12.3166
▁싸고	-12.3177
▁부탁드릴	-12.3178
▁조각이	-12.3179
관이	-12.3179
하셨어	-12.318
▁예산으로	-12.3182
▁찾아줄	-12.3183
제품이	-12.3184
[...]
